<unk>	0
<s>	0
</s>	0
ᄏᄏ	-0
ᄏᄏᄏᄏ	-1
▁이	-2
▁ᄏᄏᄏᄏ	-3
▁아	-4
▁개	-5
ᄏᄏᄏ	-6
네요	-7
▁저	-8
새끼	-9
는데	-10
▁하	-11
▁1	-12
▁그	-13
▁좆	-14
▁시	-15
▁오	-16
▁스	-17
▁안	-18
▁진	-19
▁지	-20
▁어	-21
▁가	-22
▁다	-23
▁보	-24
▁ᄏᄏᄏᄏᄏᄏᄏᄏ	-25
??	-26
▁나	-27
▁ᄏᄏᄏ	-28
▁ᄏᄏ	-29
▁2	-30
▁진짜	-31
..	-32
▁씹	-33
▁왜	-34
▁우	-35
▁한	-36
하는	-37
ᄃᄃ	-38
▁못	-39
▁사	-40
▁근	-41
▁잘	-42
씨발	-43
에서	-44
ᄏᄏᄏᄏᄏᄏᄏᄏ	-45
니까	-46
▁3	-47
▁있	-48
▁아니	-49
▁병	-50
▁대	-51
▁릅	-52
▁근데	-53
▁오늘	-54
▁씨발	-55
▁미	-56
▁존	-57
▁올	-58
▁일	-59
으면	-60
▁수	-61
▁국	-62
같은	-63
는거	-64
▁없	-65
으로	-66
▁존나	-67
▁제	-68
▁내	-69
인데	-70
▁ᄏᄏᄏᄏᄏ	-71
▁선	-72
▁포	-73
▁시발	-74
▁우승	-75
▁ᄋ	-76
▁마	-77
▁기	-78
▁조	-79
▁자	-80
▁정	-81
▁무	-82
▁타	-83
▁팩	-84
▁해	-85
경기	-86
▁거	-87
▁ᄅ	-88
▁뭐	-89
▁누	-90
▁전	-91
▁유	-92
jp	-93
jpg	-94
▁인	-95
▁애	-96
저스	-97
▁상	-98
▁갈	-99
▁버	-100
하면	-101
▁중	-102
▁ᄅᄋ	-103
▁역	-104
▁좋	-105
새끼들	-106
탠튼	-107
▁야	-108
▁더	-109
▁와	-110
하네	-111
▁갓	-112
▁ᄏᄏᄏᄏᄏᄏ	-113
▁4	-114
한테	-115
▁여	-116
▁고	-117
▁릅신	-118
▁모	-119
▁ᄃᄃ	-120
▁공	-121
▁부	-122
나요	-123
보다	-124
ᄏᄏᄏᄏᄏ	-125
▁일본	-126
▁벨	-127
▁월	-128
▁재	-129
시즌	-130
▁카	-131
▁최	-132
기에	-133
▁만	-134
▁먹	-135
▁병신	-136
▁ᄉ	-137
▁구	-138
▁메	-139
이라	-140
▁스찌	-141
▁생	-142
vs	-143
▁바	-144
는지	-145
▁노	-146
▁주	-147
▁지금	-148
▁맞	-149
▁도	-150
하고	-151
▁쓰	-152
▁비	-153
▁태	-154
...	-155
gi	-156
▁너	-157
니다	-158
▁네	-159
까지	-160
gif	-161
▁원	-162
▁클	-163
▁않	-164
들이	-165
▁손	-166
▁신	-167
▁병디	-168
같은데	-169
▁국저스	-170
▁드	-171
▁ᄋᄉ	-172
레이	-173
▁방	-174
다고	-175
▁감	-176
▁커	-177
▁졸	-178
▁아닌	-179
▁투	-180
▁경기	-181
▁또	-182
▁브	-183
신이	-184
▁5	-185
ᅳᅳ	-186
▁은	-187
는게	-188
매기	-189
▁호	-190
▁패	-191
▁요	-192
▁홍	-193
▁팀	-194
▁그냥	-195
▁박	-196
▁리	-197
▁뭔	-198
이네	-199
▁승	-200
▁김	-201
▁귀	-202
???	-203
▁불	-204
▁동	-205
▁알	-206
▁파	-207
▁연	-208
▁ᄏᄏᄏᄏᄏᄏᄏ	-209
▁많	-210
▁휴	-211
하게	-212
▁10	-213
▁좀	-214
가요	-215
▁솔	-216
▁수비	-217
던데	-218
▁탠튼	-219
▁벨기에	-220
▁골	-221
▁후	-222
▁약	-223
▁왁	-224
▁양	-225
강인	-226
▁버럭	-227
▁피	-228
▁선수	-229
▁너무	-230
▁발	-231
▁말	-232
ᄏᄏᄏᄏᄏᄏ	-233
▁씹왁	-234
▁올해	-235
▁현	-236
▁9	-237
▁느	-238
ᄉᄉ	-239
▁똥	-240
▁코	-241
▁축	-242
▁ᄌ	-243
▁실	-244
▁결	-245
들은	-246
▁돌	-247
▁심	-248
▁할	-249
▁생각	-250
▁반	-251
▁돈	-252
▁이번	-253
▁이제	-254
이랑	-255
홈런	-256
하네요	-257
▁되	-258
▁음	-259
▁치	-260
▁세	-261
▁장	-262
▁탠튼신	-263
▁성	-264
▁8	-265
▁트	-266
▁vs	-267
▁감독	-268
라질	-269
▁20	-270
직히	-271
▁이유	-272
인지	-273
라고	-274
▁볼	-275
▁언	-276
▁솔직히	-277
는건	-278
▁가능	-279
▁갈매기	-280
▁멜	-281
▁빠	-282
▁하위	-283
▁한국	-284
▁쳐	-285
▁예	-286
▁라	-287
▁누가	-288
▁이강인	-289
렇게	-290
하냐	-291
!!	-292
▁상위	-293
부터	-294
들어	-295
나카	-296
▁랄	-297
▁이거	-298
▁레	-299
드컵	-300
▁서	-301
▁같	-302
▁은근	-303
▁미친	-304
▁머	-305
시코	-306
▁잡	-307
▁갓데	-308
하지	-309
▁죽	-310
▁영	-311
▁소	-312
이네요	-313
하는거	-314
한거	-315
▁홍어	-316
▁강	-317
▁크	-318
정도	-319
▁황	-320
▁키	-321
▁토	-322
이냐	-323
▁밀	-324
▁힘	-325
▁그래	-326
▁차	-327
▁6	-328
ᅲᅲ	-329
▁매	-330
▁했	-331
▁디	-332
▁야구	-333
▁브라질	-334
▁데	-335
▁킹	-336
이면	-337
▁위	-338
▁프	-339
▁누구	-340
▁ᄉᄇ	-341
▁끝	-342
▁얼	-343
찬호	-344
한다	-345
▁나오	-346
야갤	-347
▁몇	-348
▁터	-349
▁ᄋᄋ	-350
보면	-351
▁저새끼	-352
이닝	-353
▁넘	-354
▁제발	-355
ᄏᄏᄏᄏᄏᄏᄏ	-356
▁추	-357
▁홈런	-358
겠네요	-359
▁축구	-360
▁살	-361
▁어디	-362
▁남	-363
멸망	-364
▁하나	-365
▁던	-366
▁문	-367
▁7	-368
▁멕	-369
해서	-370
▁아닌지	-371
▁거지	-372
▁계	-373
▁독	-374
▁산	-375
▁확	-376
ᄏᄏᄏᄏᄏᄏᄏᄏᄏᄏᄏᄏᄏᄏᄏᄏ	-377
흥민	-378
스턴	-379
▁분	-380
지않	-381
▁월드컵	-382
>>	-383
▁광	-384
▁게	-385
리는	-386
▁버럭신	-387
▁받	-388
▁플	-389
▁필	-390
지만	-391
▁로	-392
▁입	-393
대로	-394
▁투수	-395
지통	-396
▁올라	-397
▁역시	-398
▁르	-399
▁작	-400
▁쿰	-401
스트	-402
▁멕시코	-403
▁가짜	-404
▁새끼	-405
▁개야갤	-406
▁ᄏᄏᄏᄏᄏᄏᄏᄏᄏ	-407
▁에	-408
▁요즘	-409
▁삼	-410
이었	-411
▁멜신	-412
▁망	-413
▁시즌	-414
▁선발	-415
▁꾀	-416
▁두	-417
▁빨	-418
시아	-419
프먼	-420
▁뒤	-421
이나	-422
▁걍	-423
▁건	-424
선수	-425
▁양키	-426
해야	-427
▁여기	-428
▁내일	-429
▁보면	-430
▁제일	-431
▁허	-432
▁포시	-433
▁관	-434
▁루	-435
▁배	-436
이다	-437
▁네좆	-438
▁폴	-439
▁본	-440
▁애미	-441
▁맥	-442
▁어떻	-443
▁내년	-444
▁지만	-445
전드	-446
▁멸망	-447
▁새	-448
▁월시	-449
하는데	-450
▁0	-451
▁평	-452
스가	-453
▁순	-454
▁뉴	-455
브론	-456
어도	-457
▁음해	-458
▁농	-459
이트	-460
리그	-461
▁간	-462
▁언제	-463
▁날	-464
▁르브론	-465
▁당	-466
▁같은데	-467
스머	-468
들아	-469
▁어떻게	-470
▁백	-471
▁폭	-472
▁털	-473
이지	-474
▁손흥민	-475
▁의	-476
▁웃	-477
고싶	-478
좆간	-479
하다	-480
▁네이	-481
▁아직	-482
....	-483
▁콜	-484
까요	-485
▁그래도	-486
▁니	-487
▁앰	-488
스는	-489
▁저거	-490
ᄉᄇ	-491
리가	-492
▁탈	-493
ww	-494
▁흑	-495
마일	-496
신은	-497
▁베	-498
▁봐	-499
레기	-500
▁사람	-501
▁명	-502
어야	-503
▁ᄏᄏᄏᄏᄏᄏᄏᄏᄏᄏ	-504
▁때	-505
라스	-506
▁꼴	-507
▁따	-508
리네	-509
▁눈	-510
▁ᅳᅳ	-511
▁러	-512
▁찍	-513
▁화	-514
스타	-515
▁ᄃᄃᄃᄃ	-516
▁쿰보	-517
전노	-518
▁개좆	-519
우승	-520
겠다	-521
▁미국	-522
마르	-523
▁안되	-524
ᄐᄉ	-525
▁막	-526
▁초	-527
ᄅᄉ	-528
같이	-529
아니	-530
▁처	-531
보니	-532
▁시작	-533
가면	-534
겠네	-535
중에	-536
해도	-537
▁아니냐	-538
▁글	-539
차도	-540
▁이기	-541
나오	-542
▁귀화	-543
▁역대	-544
▁이런	-545
▁난	-546
▁출	-547
라이	-548
▁커리	-549
것도	-550
▁얼마	-551
이가	-552
▁무슨	-553
▁새끼들	-554
▁ᄉᄉ	-555
▁딱	-556
▁타르	-557
▁다저스	-558
ᄃᄃᄃᄃ	-559
처럼	-560
~~	-561
▁느바	-562
▁아님	-563
▁운	-564
▁뛰	-565
????	-566
▁겆	-567
▁외	-568
인가	-569
저미	-570
▁팔	-571
보고	-572
▁갓본	-573
▁들어	-574
▁꼬	-575
▁엠	-576
▁농구	-577
▁경	-578
거같	-579
▁응	-580
▁지랄	-581
했는데	-582
00	-583
▁많이	-584
▁사실	-585
▁수전노	-586
▁참	-587
어서	-588
라도	-589
병신	-590
▁휴스턴	-591
▁벌	-592
▁접	-593
▁페	-594
▁걸	-595
안타	-596
인가요	-597
▁스탠튼	-598
ᄏᄏᄏᄏᄏᄏᄏᄏᄏ	-599
▁통	-600
▁점	-601
리고	-602
▁아무	-603
▁이게	-604
습니까	-605
▁식	-606
자르	-607
▁까	-608
▁ᄏᄏᄏᄏᄏᄏᄏᄏᄏᄏᄏ	-609
지는	-610
란트	-611
▁듀	-612
즈마	-613
▁지만신	-614
무국	-615
이죠	-616
▁우리	-617
▁.	-618
▁뫅	-619
한데	-620
다가	-621
▁16	-622
습니다	-623
거같은데	-624
▁최고	-625
야구	-626
▁패귀	-627
▁ᄌᄉᄇ	-628
▁쿠	-629
▁사망	-630
▁작년	-631
▁재밌	-632
▁힘틀	-633
▁있었	-634
▁좋은	-635
▁적	-636
▁같은	-637
▁독일	-638
▁박찬호	-639
▁릅갈	-640
▁???	-641
▁담	-642
차전	-643
▁다시	-644
▁저걸	-645
▁단	-646
▁욕	-647
건지	-648
▁여자	-649
▁플옵	-650
▁덕	-651
지노	-652
▁달	-653
려고	-654
론맨	-655
▁죽어	-656
▁혐	-657
이스	-658
카쿠	-659
▁레이	-660
▁네이마르	-661
버럭	-662
▁뭔지	-663
▁진지	-664
았는데	-665
▁속	-666
더니	-667
워키	-668
▁여기서	-669
▁휴지통	-670
▁모르	-671
▁미쳤	-672
▁하는	-673
▁100	-674
▁둘	-675
▁복	-676
▁채	-677
▁집	-678
▁마이	-679
▁하든	-680
▁등	-681
▁센	-682
문에	-683
커스	-684
▁아이	-685
▁좋아	-686
지고	-687
텐데	-688
▁ᅲᅲ	-689
▁저런	-690
▁이새끼	-691
▁양키스	-692
▁넣	-693
이는	-694
페인	-695
▁가을	-696
▁내가	-697
▁메이	-698
▁ᄃᄃᄃ	-699
▁놀	-700
▁보트	-701
더라	-702
새끼야	-703
▁먹나카	-704
▁완	-705
밖에	-706
하노	-707
▁슬	-708
▁짤	-709
없는	-710
▁결국	-711
▁발롱	-712
합니다	-713
▁떨	-714
▁혜	-715
놈들	-716
▁귀쇼	-717
▁중위	-718
▁밀워키	-719
▁가짜시즌	-720
▁암	-721
체스	-722
▁왕	-723
실점	-724
▁젠	-725
스찌	-726
▁ᄌᄂ	-727
▁울	-728
▁준	-729
▁갈통	-730
가리	-731
이야	-732
▁몸	-733
▁직	-734
카스	-735
▁심판	-736
라스코	-737
ᄉᄉᄉᄉ	-738
▁염	-739
득점	-740
리즈	-741
장수	-742
▁광고	-743
▁승희	-744
▁트레이	-745
따리	-746
지막	-747
▁원래	-748
평가	-749
▁문제	-750
▁녹	-751
▁안타	-752
▁인기	-753
▁워	-754
으니	-755
▁정신	-756
▁'	-757
▁ᄏ	-758
은하	-759
이어	-760
아웃	-761
에도	-762
▁이상	-763
랜드	-764
정신	-765
▁진지하게	-766
계약	-767
시발	-768
ᄐᄐᄉ	-769
▁히	-770
이고	-771
▁드론맨	-772
▁갑	-773
▁좆본	-774
적으로	-775
▁풀	-776
▁마지막	-777
▁ᄏᄏᄏᄏᄏᄏᄏᄏᄏᄏᄏᄏ	-778
▁싸	-779
▁찬	-780
은거	-781
▁:	-782
을때	-783
은이	-784
련아	-785
치는	-786
▁릅퀴	-787
▁빼	-788
▁설	-789
▁친	-790
기네	-791
날두	-792
▁카지노	-793
▁빅	-794
▁틀	-795
▁없는	-796
▁얘	-797
년아	-798
다는	-799
▁다나카	-800
에게	-801
▁30	-802
▁한번	-803
▁별	-804
▁캐	-805
가능	-806
▁개쇼	-807
▁뉴욕	-808
▁확실	-809
▁슛	-810
시간	-811
아님	-812
▁메시	-813
▁조던	-814
아닌	-815
었는데	-816
하는게	-817
▁ᄃ	-818
고있	-819
▁팬	-820
게임	-821
나우	-822
라호	-823
▁손혁	-824
▁스페인	-825
▁이렇게	-826
▁할카스	-827
▁희	-828
전에	-829
▁태칰	-830
▁아니라	-831
리아	-832
면서	-833
▁접대	-834
▁좆쥐	-835
▁폭삼	-836
▁군	-837
▁싶	-838
야지	-839
지가	-840
▁돌아	-841
▁몰	-842
▁국뽕	-843
▁저게	-844
▁클퍼	-845
마다	-846
잖아	-847
▁이길	-848
▁괜	-849
와이	-850
죽어	-851
▁12	-852
▁다음	-853
▁부상	-854
▁성적	-855
▁악	-856
인거	-857
▁보고	-858
▁론	-859
지네	-860
지우	-861
▁조선	-862
▁절	-863
▁다른	-864
▁정도	-865
▁중계	-866
승연	-867
▁수준	-868
▁ᄋᄉᄅᄉ	-869
ᄌᄂ	-870
▁민	-871
런분	-872
바페	-873
비드	-874
▁있는	-875
라호텔	-876
겠죠	-877
로워	-878
은데	-879
지랄	-880
▁뭐냐	-881
은하황	-882
▁트레이드	-883
라는	-884
치치	-885
▁떨어	-886
▁이승	-887
고은이	-888
!!!!	-889
심은하황	-890
수있	-891
하나	-892
하성	-893
▁응원	-894
▁개장수	-895
▁?	-896
▁불펜	-897
▁팩트	-898
지우한	-899
심은하황수	-900
▁m	-901
▁종	-902
▁짱	-903
아서	-904
▁기대	-905
▁스트	-906
고은이승연	-907
ᄏᄏᄏᄏᄏᄏᄏᄏᄏᄏ	-908
▁떡	-909
▁윌	-910
▁어제	-911
새끼가	-912
이라고	-913
▁타르콜	-914
▁ᄋᄉᄐᄐᄉ	-915
한게	-916
▁계약	-917
▁삼진	-918
▁패스	-919
;;	-920
▁덕배	-921
▁어느	-922
▁일본이	-923
▁박찬호최	-924
심은하황수정신	-925
감독	-926
▁그런	-927
▁바로	-928
▁승리	-929
▁저렇게	-930
▁"	-931
▁구속	-932
▁대체	-933
▁이름	-934
▁얼마나	-935
▁이유가	-936
가서	-937
리런	-938
▁씹뫅	-939
▁일뽕	-940
▁입갤	-941
지우한고은이승연	-942
xt	-943
▁벤	-944
▁블	-945
▁씨	-946
하죠	-947
▁꾀지	-948
▁방금	-949
입니까	-950
▁레전드	-951
▁올시즌	-952
▁붙	-953
▁함	-954
가는	-955
놓고	-956
ᄌᄂᄇ	-957
▁15	-958
▁팩팩	-959
▁과	-960
▁류	-961
을듯	-962
▁던지	-963
▁퇴	-964
■■	-965
스터	-966
투방	-967
▁11	-968
▁젠슨	-969
▁파울	-970
▁ᄅᄌᄂᄇ	-971
▁놈	-972
▁슈	-973
▁형	-974
심은하황수정신라호텔	-975
▁혼	-976
txt	-977
▁메좆	-978
▁포틀	-979
▁높	-980
▁댈	-981
▁왤	-982
▁용	-983
▁탕	-984
▁템	-985
인이	-986
때문에	-987
▁햅	-988
워드	-989
▁샌	-990
자기	-991
▁음바페	-992
▁급	-993
▁컨	-994
리안	-995
보지	-996
차피	-997
▁17	-998
▁25	-999
▁졸살	-1000
ba	-1001
▁N	-1002
▁엄	-1003
팀이	-1004
ᄐᄎ	-1005
▁n	-1006
▁헤	-1007
건데	-1008
꿀잼	-1009
▁낭	-1010
▁싫	-1011
영신	-1012
▁계속	-1013
▁나가	-1014
▁좆같	-1015
▁어차피	-1016
▁탕프먼	-1017
했다	-1018
▁14	-1019
▁공격	-1020
▁하면	-1021
▁쓰레기	-1022
ᄏᄏᄏᄏᄏᄏᄏᄏᄏᄏᄏ	-1023
▁박찬호최지우한고은이승연	-1024
▁낫	-1025
구나	-1026
구장	-1027
▁그러	-1028
▁은퇴	-1029
▁이미	-1030
>>>>	-1031
▁큰	-1032
하긴	-1033
▁골스	-1034
▁국대	-1035
▁아시	-1036
▁허민	-1037
▁혜화	-1038
었으면	-1039
▁쓰로워	-1040
▁하는거	-1041
리면	-1042
버츠	-1043
▁느낌	-1044
▁데려	-1045
▁스포	-1046
▁오클	-1047
였으면	-1048
▁목	-1049
▁체	-1050
보는	-1051
▁벌써	-1052
▁식당	-1053
▁혐든	-1054
▁돈치치	-1055
▁방투방	-1056
▁질	-1057
▁챔	-1058
분들	-1059
야죠	-1060
▁복귀	-1061
닙니까	-1062
▁ᄏᄏᄏᄏᄏᄏᄏᄏᄏᄏᄏᄏᄏ	-1063
▁각	-1064
▁갤	-1065
말고	-1066
할때	-1067
▁망천	-1068
▁팩질	-1069
▁늡	-1070
▁맨	-1071
▁합	-1072
▁흥	-1073
기가	-1074
소리	-1075
조건	-1076
했네	-1077
▁갑자기	-1078
▁ᄇ	-1079
▁교	-1080
▁18	-1081
마이어	-1082
▁=	-1083
▁앞	-1084
▁티	-1085
련님	-1086
지도	-1087
택신	-1088
▁이건	-1089
▁인정	-1090
▁아직도	-1091
▁릴	-1092
뒤진	-1093
초에	-1094
▁대단	-1095
▁않냐	-1096
▁어케	-1097
▁필요	-1098
▁내년에	-1099
▁맛	-1100
▁잠	-1101
▁특	-1102
나라	-1103
타임	-1104
튼신	-1105
틀러	-1106
▁방심	-1107
▁사기	-1108
▁역전	-1109
▁템파	-1110
▁듀란트	-1111
▁퍼	-1112
겠지	-1113
▁개씹	-1114
▁댈러	-1115
▁성공	-1116
▁있음	-1117
▁현재	-1118
ᄋᄋ	-1119
▁빡	-1120
▁좌	-1121
▁괜찮	-1122
▁않았	-1123
▁울산	-1124
▁해설	-1125
▁튀	-1126
▁학	-1127
려면	-1128
수비	-1129
▁된	-1130
기는	-1131
만큼	-1132
쟁이	-1133
켈리	-1134
▁넘어	-1135
▁스윙	-1136
ᅳᅳᅳᅳ	-1137
▁역대급	-1138
▁호날두	-1139
▁열	-1140
▁행	-1141
알못	-1142
▁어떤	-1143
▁저슨	-1144
▁쳐맞	-1145
wwww	-1146
▁뽑	-1147
거냐	-1148
론토	-1149
적인	-1150
▁스타	-1151
▁이분	-1152
▁정규	-1153
아니냐	-1154
▁왁저미	-1155
▁믿	-1156
▁앤	-1157
▁케	-1158
나면	-1159
졸스	-1160
종덕	-1161
▁가장	-1162
▁구단	-1163
▁리그	-1164
했으면	-1165
균안	-1166
레빈	-1167
봐도	-1168
오면	-1169
▁만루	-1170
▁무조건	-1171
▁확실히	-1172
▁[	-1173
대전	-1174
보단	-1175
이널	-1176
▁도배	-1177
▁비교	-1178
▁연봉	-1179
▁찍찍	-1180
했네요	-1181
▁도련님	-1182
▁승희신	-1183
▁ᄏᄏᄏᄏᄏᄏᄏᄏᄏᄏᄏᄏᄏᄏ	-1184
▁홈	-1185
레스	-1186
르고	-1187
점차	-1188
지면	-1189
▁서울	-1190
▁왜이	-1191
▁아시아	-1192
▁레이커스	-1193
ᄏᄏᄏᄏᄏᄏᄏᄏᄏᄏᄏᄏ	-1194
▁k	-1195
▁잉	-1196
세요	-1197
스윙	-1198
와서	-1199
할듯	-1200
해라	-1201
▁속보	-1202
▁커쇼	-1203
▁우승하면	-1204
린저	-1205
▁그리	-1206
▁실력	-1207
▁없음	-1208
▁왤케	-1209
지않냐	-1210
▁릅갈통	-1211
▁편	-1212
는다	-1213
디어	-1214
▁뫅지통	-1215
▁(	-1216
▁갔	-1217
▁프랑	-1218
에서도	-1219
▁것	-1220
▁들	-1221
▁뷸	-1222
▁창	-1223
엔딩	-1224
축구	-1225
치고	-1226
▁타격	-1227
▁A	-1228
▁될	-1229
도망	-1230
카우	-1231
▁나왔	-1232
는건지	-1233
▁벨좆간	-1234
▁오늘도	-1235
▁테	-1236
수가	-1237
▁야투	-1238
을까요	-1239
하는지	-1240
▁드디어	-1241
▁애초에	-1242
▁이승우	-1243
▁???:	-1244
▁M	-1245
무리	-1246
시절	-1247
▁가자	-1248
▁타운	-1249
▁타자	-1250
봤는데	-1251
▁아닙니까	-1252
▁s	-1253
능력	-1254
웨덴	-1255
▁보니	-1256
▁빨리	-1257
▁진심	-1258
▁개스머	-1259
▁엑	-1260
거임	-1261
미애	-1262
시는	-1263
았다	-1264
잰슨	-1265
▁거품	-1266
▁안나	-1267
▁개런분	-1268
▁보고싶	-1269
▁아시안	-1270
▁L	-1271
▁번	-1272
드너	-1273
▁13	-1274
▁기록	-1275
▁끝내	-1276
▁예상	-1277
▁이걸	-1278
▁ᄋᄉᄇ	-1279
▁건영신	-1280
▁있는데	-1281
▁잘하네	-1282
▁카라스코	-1283
▁●	-1284
▁졌	-1285
운데	-1286
▁게임	-1287
▁득점	-1288
▁있냐	-1289
정도면	-1290
▁그렇게	-1291
프트	-1292
▁담배	-1293
▁얼굴	-1294
▁재미	-1295
추미애	-1296
▁개씨발	-1297
▁루카쿠	-1298
20	-1299
▁뭘	-1300
▁회	-1301
너드	-1302
대가	-1303
로나	-1304
몬스	-1305
쓰고	-1306
애들	-1307
에선	-1308
치면	-1309
▁자꾸	-1310
▁보니까	-1311
▁최지만	-1312
▁답	-1313
레빈저	-1314
▁오늘은	-1315
러치	-1316
레나	-1317
▁타구	-1318
이라도	-1319
▁그래서	-1320
▁좆기에	-1321
▁후전드	-1322
▁먼	-1323
▁붉	-1324
▁억	-1325
▁쪽	-1326
▁천	-1327
아섭	-1328
하던	-1329
▁러브	-1330
▁없다	-1331
▁재능	-1332
▁제구	-1333
▁못하네	-1334
▁산종덕	-1335
▁왕택신	-1336
▁찍찍노	-1337
▁하네요	-1338
PG	-1339
▁물	-1340
▁첫	-1341
되는	-1342
리스	-1343
사람	-1344
▁왁판	-1345
▁확정	-1346
겁니까	-1347
아닌지	-1348
였는데	-1349
▁개버럭	-1350
▁이번에	-1351
▁2500	-1352
▁섹	-1353
▁줄	-1354
▁판	-1355
만에	-1356
타르	-1357
JPG	-1358
▁녹데	-1359
▁크로	-1360
▁후후	-1361
▁흑호	-1362
리네요	-1363
▁런	-1364
지마	-1365
▁먹씨	-1366
▁빠따	-1367
▁순위	-1368
▁연장	-1369
▁유럽	-1370
▁이러	-1371
▁201	-1372
포트	-1373
▁결승	-1374
▁내려	-1375
▁똥칰	-1376
▁라인	-1377
▁잡아	-1378
▁가능성	-1379
옵션	-1380
지컬	-1381
▁늡갤	-1382
▁잘생	-1383
▁스웨덴	-1384
▁애미뒤진	-1385
▁-	-1386
▁덴	-1387
▁송	-1388
양인	-1389
었다	-1390
할거	-1391
▁뭔데	-1392
▁잰슨	-1393
보니까	-1394
▁마차도	-1395
▁꺼	-1396
나는	-1397
닉스	-1398
이유	-1399
투수	-1400
▁다미	-1401
▁보는	-1402
▁사이	-1403
▁원중	-1404
▁파이널	-1405
▁피지컬	-1406
▁금	-1407
▁돼	-1408
망주	-1409
▁0.	-1410
▁샌디	-1411
▁신기	-1412
▁이겼	-1413
▁이긴	-1414
▁전부	-1415
▁탈락	-1416
▁아무리	-1417
ds	-1418
ᄀᄀ	-1419
▁쥐	-1420
궁금	-1421
진짜	-1422
해주	-1423
▁뒤져	-1424
▁팀이	-1425
▁평가	-1426
▁호머	-1427
▁혼자	-1428
합니까	-1429
▁댈러스	-1430
▁엠비드	-1431
▁제대로	-1432
ᄏᄏᄏᄏᄏᄏᄏᄏᄏᄏᄏᄏᄏ	-1433
마자	-1434
애미	-1435
재인	-1436
티스	-1437
▁꼬라	-1438
▁클리	-1439
▁팩심	-1440
▁사무국	-1441
▁정신병	-1442
▁클러치	-1443
▁깨	-1444
▁변	-1445
▁젖	-1446
▁취	-1447
롯데	-1448
선발	-1449
테롤	-1450
▁ᄇᄉ	-1451
▁고랄	-1452
▁머리	-1453
▁미네	-1454
▁앰창	-1455
▁올려	-1456
▁절대	-1457
▁찬빈	-1458
▁햅등	-1459
▁스카우	-1460
▁하워드	-1461
▁K	-1462
▁ᄒ	-1463
▁탐	-1464
거지	-1465
하라	-1466
▁겆파	-1467
▁그라	-1468
▁나올	-1469
▁봐도	-1470
▁센세	-1471
▁스탯	-1472
▁장전	-1473
▁필라	-1474
▁하네	-1475
뭡니까	-1476
시리즈	-1477
▁러시아	-1478
▁아자르	-1479
▁쿠즈마	-1480
▁뻥	-1481
동님	-1482
있는	-1483
하자	-1484
▁등판	-1485
▁사진	-1486
▁아웃	-1487
▁의미	-1488
▁전성	-1489
▁조센	-1490
리는거	-1491
▁마이너	-1492
▁이번시즌	-1493
▁찾	-1494
이상	-1495
타자	-1496
▁나이	-1497
▁디비	-1498
▁벤치	-1499
▁암흑	-1500
▁잘하는	-1501
▁ᄏᄏᄏᄏᄏᄏᄏᄏᄏᄏᄏᄏᄏᄏᄏ	-1502
▁C	-1503
▁죄	-1504
▁탑	-1505
▁펠	-1506
대체	-1507
된다	-1508
만한	-1509
▁근황	-1510
▁떡밥	-1511
▁론도	-1512
▁졸스	-1513
▁좆밥	-1514
으니까	-1515
▁레너드	-1516
▁아니면	-1517
--	-1518
나이	-1519
되면	-1520
수도	-1521
없이	-1522
을거	-1523
▁뭐가	-1524
▁자유	-1525
▁점수	-1526
▁마무리	-1527
▁ᄋᄉᄇᄅᄉ	-1528
▁침	-1529
님들	-1530
릿콜	-1531
보네	-1532
아먹	-1533
인게	-1534
인듯	-1535
초아	-1536
▁만패	-1537
▁먹튀	-1538
▁아까	-1539
▁키어	-1540
▁미친놈	-1541
▁커리어	-1542
▁미친새끼	-1543
▁c	-1544
▁왔	-1545
▁좃	-1546
동안	-1547
래스	-1548
베이	-1549
치네	-1550
▁구장	-1551
▁쓰리	-1552
▁아섭	-1553
▁완전	-1554
▁하성	-1555
▁아니었	-1556
▁좆같은	-1557
▁프랑스	-1558
▁표	-1559
군요	-1560
루소	-1561
에는	-1562
을까	-1563
이긴	-1564
튜브	-1565
펭수	-1566
ᄃᄃᄃ	-1567
▁요새	-1568
▁이해	-1569
▁쓸	-1570
길래	-1571
새낀	-1572
소년	-1573
없음	-1574
인줄	-1575
▁거의	-1576
▁동점	-1577
▁왜케	-1578
▁초구	-1579
입니다	-1580
▁스포츠	-1581
▁조따리	-1582
▁했는데	-1583
ᅮᅮ	-1584
▁F	-1585
▁짜	-1586
가네	-1587
념글	-1588
들도	-1589
▁그럼	-1590
▁꿀잼	-1591
▁노잼	-1592
▁대타	-1593
▁상황	-1594
▁주니	-1595
겠는데	-1596
쓰레기	-1597
▁인스타	-1598
▁ᄉᄉᄉᄉᄉᄉ	-1599
.1	-1600
▁a	-1601
▁l	-1602
▁임	-1603
▁힉	-1604
드리	-1605
봐라	-1606
이노	-1607
주네	-1608
▁40	-1609
▁스테	-1610
▁신인	-1611
▁애틀	-1612
▁저미	-1613
▁저지	-1614
▁폴신	-1615
▁해도	-1616
▁해충	-1617
▁안나오	-1618
▁은근히	-1619
▁좆즈마	-1620
▁채프먼	-1621
▁딸	-1622
▁떠	-1623
▁그거	-1624
▁기사	-1625
▁살아	-1626
▁자체	-1627
▁중요	-1628
▁200	-1629
▁돌버츠	-1630
▁윌리안	-1631
▁ᄃᄃᄃᄃᄃᄃᄃᄃ	-1632
보소	-1633
은지	-1634
켓몬	-1635
키치	-1636
▁궁금	-1637
▁그만	-1638
▁보여	-1639
▁추천	-1640
▁프로	-1641
▁nba	-1642
▁갈통이	-1643
▁씨발년	-1644
▁않나요	-1645
▁전성기	-1646
▁어느정도	-1647
▁ᄐ	-1648
▁늘	-1649
▁됐	-1650
▁똑	-1651
▁십	-1652
노들	-1653
도르	-1654
생각	-1655
▁둘다	-1656
▁뭔가	-1657
▁슬슬	-1658
▁자이	-1659
▁처음	-1660
▁개병신	-1661
▁디비전	-1662
▁e	-1663
▁w	-1664
▁ᄊ	-1665
▁온	-1666
린다	-1667
새기	-1668
연아	-1669
있냐	-1670
한건	-1671
▁다르	-1672
▁롯데	-1673
▁상대	-1674
▁일단	-1675
~~~~	-1676
▁도대체	-1677
▁못하는	-1678
▁사실상	-1679
▁산체스	-1680
▁카루소	-1681
▁그라테롤	-1682
▁ᄂ	-1683
▁낮	-1684
▁뜨	-1685
▁텐	-1686
만루	-1687
▁??	-1688
▁개인	-1689
▁그립	-1690
▁더블	-1691
▁덴버	-1692
▁본인	-1693
▁영입	-1694
▁진출	-1695
▁독보지	-1696
▁뭡니까	-1697
▁포스트	-1698
▁윤	-1699
더슨	-1700
로자	-1701
루타	-1702
보이	-1703
우어	-1704
재능	-1705
▁따라	-1706
▁실패	-1707
▁엑윽	-1708
▁오지	-1709
나이트	-1710
때마다	-1711
▁노프먼	-1712
▁토론토	-1713
▁호스머	-1714
▁f	-1715
▁■	-1716
▁꾸	-1717
▁쿤	-1718
하기	-1719
▁ᄋᄌ	-1720
▁관중	-1721
▁끝나	-1722
▁나온	-1723
▁대학	-1724
▁도망	-1725
▁뭐임	-1726
▁찬호	-1727
는거냐	-1728
을텐데	-1729
▁뭐하냐	-1730
▁선수들	-1731
▁시리즈	-1732
▁있나요	-1733
▁클레빈저	-1734
▁쉬	-1735
▁젤	-1736
가지	-1737
주는	-1738
▁똥클	-1739
▁시엠	-1740
▁저건	-1741
▁희망	-1742
▁릅신이	-1743
▁아닌데	-1744
▁생각보다	-1745
▁짐	-1746
간다	-1747
나서	-1748
드는	-1749
미스	-1750
쿼터	-1751
▁같음	-1752
▁겆판	-1753
▁국밥	-1754
▁그린	-1755
▁호감	-1756
▁메이저	-1757
▁없는데	-1758
▁개야갤러	-1759
▁ᄆ	-1760
▁멋	-1761
같음	-1762
놈이	-1763
시키	-1764
이기	-1765
있음	-1766
▁19	-1767
▁그렇	-1768
▁부정	-1769
▁소식	-1770
▁인생	-1771
▁펭수	-1772
▁해야	-1773
새끼는	-1774
소년단	-1775
새끼들아	-1776
탄소년단	-1777
▁튼	-1778
▁항	-1779
노잼	-1780
니폼	-1781
퍼스	-1782
했던	-1783
▁가면	-1784
▁승부	-1785
▁좆망	-1786
▁클블	-1787
▁탈모	-1788
▁생각해	-1789
▁하는데	-1790
▁덩	-1791
▁멀	-1792
▁탱	-1793
그린	-1794
던지	-1795
릭스	-1796
삼진	-1797
았네	-1798
▁싫어	-1799
▁씹창	-1800
▁잘못	-1801
▁대가리	-1802
▁쓰쓰고	-1803
-1	-1804
ak	-1805
▁빛	-1806
▁뽈	-1807
리에	-1808
먹고	-1809
버거	-1810
신도	-1811
지성	-1812
▁같이	-1813
▁연속	-1814
▁웃기	-1815
▁있다	-1816
▁가능한	-1817
▁김하성	-1818
▁병신들	-1819
▁ᄉᄉᄉᄉ	-1820
▁밥	-1821
▁슨	-1822
수준	-1823
아아	-1824
주고	-1825
피엘	-1826
현우	-1827
▁군대	-1828
▁맞지	-1829
▁비슷	-1830
▁인증	-1831
▁정상	-1832
▁키움	-1833
월드컵	-1834
한다고	-1835
▁카와이	-1836
▁아시안게임	-1837
▁빌	-1838
없네	-1839
▁매국	-1840
▁배추	-1841
▁별로	-1842
▁붉청	-1843
▁역사	-1844
▁운동	-1845
▁웃긴	-1846
▁전반	-1847
▁코비	-1848
▁글래스	-1849
▁바우어	-1850
▁있으면	-1851
▁재계약	-1852
▁플레이	-1853
▁흑호군	-1854
▁키어마이어	-1855
▁S	-1856
▁닮	-1857
▁웨	-1858
냐고	-1859
리노	-1860
하시	-1861
▁근본	-1862
▁소리	-1863
▁친구	-1864
▁팩넷	-1865
▁프리	-1866
사만루	-1867
▁자유투	-1868
▁스카우팅	-1869
▁g	-1870
▁술	-1871
▁충	-1872
른다	-1873
리거	-1874
시오	-1875
어요	-1876
하니	-1877
▁마르	-1878
▁왜저	-1879
▁유일	-1880
▁튀기	-1881
▁포트	-1882
▁한명	-1883
▁휴지	-1884
▁흑인	-1885
■■■■	-1886
새끼들은	-1887
.....	-1888
▁시발련아	-1889
TS	-1890
an	-1891
vp	-1892
ᅮᅣ	-1893
▁칠	-1894
다니	-1895
레즈	-1896
븅신	-1897
비지	-1898
사퇴	-1899
존나	-1900
치가	-1901
▁기억	-1902
▁낭만	-1903
▁봐야	-1904
▁시절	-1905
▁앰흑	-1906
▁태웃	-1907
▁포수	-1908
었네요	-1909
자마자	-1910
하는건	-1911
▁고나우	-1912
▁보이트	-1913
▁상대로	-1914
▁아니고	-1915
▁재평가	-1916
at	-1917
ᄍᄍ	-1918
▁p	-1919
▁써	-1920
거리	-1921
치킨	-1922
파트	-1923
프로	-1924
호감	-1925
▁당연	-1926
▁서부	-1927
▁세계	-1928
▁애들	-1929
▁이겨	-1930
▁틀딱	-1931
▁하지	-1932
하지않	-1933
▁리포트	-1934
▁좋겠다	-1935
▁킹매기	-1936
▁한국인	-1937
▁알았는데	-1938
▁극	-1939
★★	-1940
드가	-1941
을지	-1942
이크	-1943
조국	-1944
▁간다	-1945
▁거박	-1946
▁균안	-1947
▁나라	-1948
▁러셀	-1949
▁받아	-1950
▁부커	-1951
▁사랑	-1952
▁전범	-1953
▁주전	-1954
▁최근	-1955
▁투구	-1956
았네요	-1957
였네요	-1958
하니까	-1959
▁끝내기	-1960
▁아섭신	-1961
▁이강인이	-1962
66	-1963
▁찐	-1964
대는	-1965
상수	-1966
었네	-1967
했음	-1968
▁부활	-1969
▁이후	-1970
▁최대	-1971
▁쿤보	-1972
▁터너	-1973
▁하고	-1974
▁후반	-1975
보네요	-1976
▁올라가	-1977
▁검	-1978
면제	-1979
준다	-1980
▁엄청	-1981
는거임	-1982
에서는	-1983
▁개아섭	-1984
▁게릿콜	-1985
▁버틀러	-1986
▁올해는	-1987
▁아닌가요	-1988
BA	-1989
▁땅	-1990
려서	-1991
시다	-1992
연속	-1993
ᅩᅮᅣ	-1994
▁남자	-1995
▁말고	-1996
▁베르	-1997
▁없냐	-1998
▁인종	-1999
▁좆두	-2000
▁중일	-2001
▁타이	-2002
▁투런	-2003
▁행복	-2004
하던데	-2005
▁씨발아	-2006
▁유니폼	-2007
▁정도면	-2008
▁벨기에가	-2009
▁우리나라	-2010
▁놓	-2011
▁탬	-2012
▁환	-2013
린거	-2014
시작	-2015
▁50	-2016
▁념글	-2017
▁론조	-2018
▁메츠	-2019
▁뻥글	-2020
▁패배	-2021
▁병신아	-2022
▁최고의	-2023
▁국저스가	-2024
ᄏᄏᄏᄏᄏᄏᄏᄏᄏᄏᄏᄏᄏᄏ	-2025
IF	-2026
▁굴	-2027
▁깔	-2028
▁총	-2029
▁혹	-2030
거면	-2031
돼지	-2032
라서	-2033
리튼	-2034
였네	-2035
였음	-2036
▁구토	-2037
▁낭낭	-2038
▁새크	-2039
▁차이	-2040
▁태콱	-2041
▁탬파	-2042
▁ᄋᄉᄋ	-2043
▁개체스	-2044
▁네이버	-2045
▁다미신	-2046
▁박지성	-2047
▁씨발련	-2048
▁오초아	-2049
로자레나	-2050
▁o	-2051
거품	-2052
구만	-2053
력이	-2054
메리	-2055
적이	-2056
졌네	-2057
!!!	-2058
▁게이	-2059
▁고닉	-2060
▁놀랍	-2061
▁다들	-2062
▁마앰	-2063
▁뷸러	-2064
▁안좋	-2065
▁인터	-2066
▁지면	-2067
▁지배	-2068
하나요	-2069
▁mvp	-2070
▁유망주	-2071
ts	-2072
▁북	-2073
끼리	-2074
노우	-2075
라리	-2076
아도	-2077
팀은	-2078
피셜	-2079
▁슈퍼	-2080
▁저기	-2081
▁졸셀	-2082
▁국밥신	-2083
▁누구냐	-2084
▁만들어	-2085
▁벨린저	-2086
▁어디서	-2087
▁없네요	-2088
.2	-2089
▁증	-2090
같네	-2091
기운	-2092
리토	-2093
시에	-2094
티뉴	-2095
했냐	-2096
▁결혼	-2097
▁시간	-2098
▁어쩌	-2099
▁없네	-2100
▁에이	-2101
▁저러	-2102
▁중국	-2103
▁해외	-2104
나네요	-2105
ᅲᅲᅲᅲ	-2106
▁가비지	-2107
▁왜이리	-2108
▁좆같이	-2109
▁포스트시즌	-2110
▁D	-2111
▁길	-2112
▁잔	-2113
▁쟤	-2114
나마	-2115
댓글	-2116
떡밥	-2117
리터	-2118
와라	-2119
은게	-2120
준희	-2121
초이	-2122
타점	-2123
흡연	-2124
▁관조	-2125
▁리얼	-2126
▁모튼	-2127
▁뽈락	-2128
▁악플	-2129
▁올리	-2130
▁의외	-2131
▁자기	-2132
▁커퀴	-2133
▁표정	-2134
는건데	-2135
문재인	-2136
졌네요	-2137
▁거르고	-2138
▁나오면	-2139
▁버럭이	-2140
▁앞으로	-2141
▁있는지	-2142
▁햅등이	-2143
▁병신새끼	-2144
▁저새끼는	-2145
▁B	-2146
▁ᄀ	-2147
▁빵	-2148
▁업	-2149
▁엘	-2150
▁줘	-2151
▁쳤	-2152
걸로	-2153
님이	-2154
되냐	-2155
드립	-2156
려나	-2157
GIF	-2158
▁같다	-2159
▁결정	-2160
▁기분	-2161
▁라이	-2162
▁만약	-2163
▁밀어	-2164
▁센터	-2165
▁아는	-2166
▁않음	-2167
▁유명	-2168
▁이닝	-2169
▁있지	-2170
▁켈리	-2171
▁파워	-2172
▁라인업	-2173
▁맥치킨	-2174
▁스찌질	-2175
▁작년에	-2176
10	-2177
▁y	-2178
▁멤	-2179
▁밟	-2180
▁엌	-2181
▁짭	-2182
▁칼	-2183
러운	-2184
세대	-2185
진출	-2186
▁다루	-2187
▁돌려	-2188
▁멜로	-2189
▁생겼	-2190
▁심장	-2191
▁씹봑	-2192
▁아쉽	-2193
▁주인	-2194
▁중에	-2195
▁페이	-2196
▁헤이	-2197
▁히가	-2198
거같음	-2199
▁NBA	-2200
▁보스턴	-2201
▁사기리	-2202
▁시몬스	-2203
▁차라리	-2204
▁이강인은	-2205
▁잘하는데	-2206
▁뇌	-2207
▁압	-2208
갈통	-2209
구단	-2210
레아	-2211
머니	-2212
시타	-2213
이비	-2214
인남	-2215
주의	-2216
차별	-2217
▁ᄍᄍ	-2218
▁맞음	-2219
▁몇개	-2220
▁빠는	-2221
▁얘기	-2222
▁와꾸	-2223
▁짱깨	-2224
▁평균	-2225
▁현지	-2226
▁때문에	-2227
▁에이스	-2228
▁왁무국	-2229
▁튼튼신	-2230
새끼들이	-2231
이었으면	-2232
▁포트나이트	-2233
▁효	-2234
더만	-2235
미누	-2236
민국	-2237
수록	-2238
이들	-2239
진거	-2240
▁골밑	-2241
▁누군	-2242
▁맞죠	-2243
▁맨날	-2244
▁뭐야	-2245
▁보지	-2246
▁아예	-2247
▁젖닌	-2248
▁해주	-2249
▁해축	-2250
보는데	-2251
어야지	-2252
▁꼬라지	-2253
▁약지만	-2254
▁오늘자	-2255
▁주니노	-2256
▁타운스	-2257
▁버럭신이	-2258
▁클리퍼스	-2259
▁탠튼신이	-2260
▁P	-2261
▁깜	-2262
▁꼭	-2263
▁움	-2264
꿈치	-2265
낙연	-2266
년대	-2267
르는	-2268
바지	-2269
봐야	-2270
자체	-2271
진다	-2272
현진	-2273
흥좆	-2274
366	-2275
▁나는	-2276
▁대한	-2277
▁동부	-2278
▁되는	-2279
▁뛰어	-2280
▁라우	-2281
▁바꿔	-2282
▁보내	-2283
▁송구	-2284
▁실화	-2285
▁원탑	-2286
▁저저	-2287
▁치팅	-2288
▁현무	-2289
해야지	-2290
▁미쳤네	-2291
▁야투율	-2292
▁이기면	-2293
▁짐인남	-2294
▁축알못	-2295
▁가을야구	-2296
▁씨발련아	-2297
er	-2298
▁킷	-2299
가짜	-2300
농구	-2301
마좆	-2302
순위	-2303
싱턴	-2304
예인	-2305
원중	-2306
져서	-2307
타석	-2308
▁뉴올	-2309
▁덩크	-2310
▁데뷔	-2311
▁드리	-2312
▁말이	-2313
▁시청	-2314
▁역겹	-2315
▁우울	-2316
▁잉글	-2317
▁제가	-2318
▁최소	-2319
▁탱킹	-2320
▁피르	-2321
같네요	-2322
시오카	-2323
▁gif	-2324
▁감독이	-2325
▁무실점	-2326
▁식당볼	-2327
▁조현우	-2328
▁좋네요	-2329
▁하성신	-2330
하겠네요	-2331
▁고나우석	-2332
▁마이애미	-2333
▁인종차별	-2334
▁논	-2335
▁숙	-2336
▁싱	-2337
▁청	-2338
▁훨	-2339
다운	-2340
버리	-2341
이니	-2342
이드	-2343
인건	-2344
일리	-2345
일본	-2346
충들	-2347
▁90	-2348
▁강인	-2349
▁기운	-2350
▁몇년	-2351
▁스넬	-2352
▁어빙	-2353
▁없지	-2354
▁영상	-2355
▁저딴	-2356
▁죄다	-2357
▁챔스	-2358
▁타선	-2359
▁트레	-2360
▁흡연	-2361
고보니	-2362
고싶다	-2363
드릭스	-2364
웃기네	-2365
잘하네	-2366
▁대졸스	-2367
▁릅퀴들	-2368
▁올타임	-2369
▁잘한다	-2370
▁좆자르	-2371
▁터좆간	-2372
방탄소년단	-2373
▁석	-2374
▁핵	-2375
나가	-2376
도발	-2377
사스	-2378
산보	-2379
잡아	-2380
프레	-2381
▁대중	-2382
▁등장	-2383
▁미래	-2384
▁바꾸	-2385
▁바르	-2386
▁분위	-2387
▁불쌍	-2388
▁븅신	-2389
▁전력	-2390
▁파엠	-2391
▁ᅩᅮᅣ	-2392
▁어디가	-2393
▁유리아	-2394
▁유튜브	-2395
ar	-2396
▁봤	-2397
▁잇	-2398
▁족	-2399
▁징	-2400
▁택	-2401
오버	-2402
투백	-2403
▁개털	-2404
▁공부	-2405
▁명장	-2406
▁생긴	-2407
▁원정	-2408
▁특징	-2409
있으면	-2410
하면서	-2411
▁yak	-2412
▁개차도	-2413
▁대놓고	-2414
▁릅신은	-2415
▁아무도	-2416
▁룹	-2417
▁훔	-2418
교육	-2419
년생	-2420
로파	-2421
먹는	-2422
발택	-2423
틀딱	-2424
▁노폭	-2425
▁댓글	-2426
▁번트	-2427
▁벨라	-2428
▁볼넷	-2429
▁불안	-2430
▁상수	-2431
▁스플	-2432
▁안보	-2433
▁약물	-2434
▁오프	-2435
▁자삥	-2436
▁자살	-2437
▁잘함	-2438
▁킷캣	-2439
▁힘들	-2440
김연아	-2441
는거지	-2442
되는데	-2443
▁다루쿤	-2444
▁드리블	-2445
▁아니지	-2446
▁우발택	-2447
▁갈매기가	-2448
▁좋겠네요	-2449
▁듯	-2450
▁쇼	-2451
▁쉽	-2452
▁쫄	-2453
▁푸	-2454
나네	-2455
르투	-2456
매치	-2457
무라	-2458
성이	-2459
스럽	-2460
우면	-2461
자는	-2462
좆물	-2463
▁66	-2464
▁다행	-2465
▁못받	-2466
▁반즈	-2467
▁백인	-2468
▁변화	-2469
▁비비	-2470
▁안정	-2471
▁앰뒤	-2472
▁일어	-2473
▁하루	-2474
▁한남	-2475
▁현실	-2476
갔으면	-2477
래프트	-2478
▁류현진	-2479
▁병디가	-2480
▁아닌가	-2481
▁요키치	-2482
▁범	-2483
▁뽀	-2484
▁옛	-2485
빼고	-2486
스코	-2487
스토	-2488
아즈	-2489
올라	-2490
자가	-2491
잘알	-2492
창모	-2493
태용	-2494
한번	-2495
해보	-2496
회에	-2497
▁그걸	-2498
▁대신	-2499
▁레알	-2500
▁목런	-2501
▁무섭	-2502
▁안됨	-2503
▁토막	-2504
▁한가	-2505
이낙연	-2506
지않음	-2507
▁거박신	-2508
▁아이돌	-2509
▁올라오	-2510
▁우승은	-2511
▁지금은	-2512
▁캐스터	-2513
죽어죽어	-2514
▁2020	-2515
▁씨발년아	-2516
ᄀᄏ	-2517
▁d	-2518
▁몽	-2519
▁옵	-2520
갤러	-2521
걱정	-2522
년에	-2523
다면	-2524
되네	-2525
마이	-2526
이없	-2527
잡고	-2528
조지	-2529
지션	-2530
패스	-2531
하신	-2532
▁개꿀	-2533
▁랄은	-2534
▁모두	-2535
▁모든	-2536
▁못생	-2537
▁무득	-2538
▁빅맨	-2539
▁사퇴	-2540
▁외모	-2541
▁이젠	-2542
▁일부	-2543
▁화재	-2544
▁확률	-2545
▁회개	-2546
▁후드	-2547
고메리	-2548
지네요	-2549
▁jpg	-2550
▁국뽕들	-2551
▁맞는데	-2552
▁선수가	-2553
▁조센징	-2554
도망타르	-2555
이었는데	-2556
?????	-2557
▁왁저미들	-2558
▁히가시오카	-2559
ᄏᄏᄏᄏᄏᄏᄏᄏᄏᄏᄏᄏᄏᄏᄏ	-2560
VP	-2561
▁끌	-2562
▁맹	-2563
▁밑	-2564
▁폼	-2565
▁헛	-2566
라운	-2567
라인	-2568
머리	-2569
사망	-2570
선거	-2571
아야	-2572
즈아	-2573
▁ᄆᄎ	-2574
▁결과	-2575
▁꼬꼬	-2576
▁나도	-2577
▁대기	-2578
▁반응	-2579
▁보기	-2580
▁씹폴	-2581
▁언급	-2582
▁여친	-2583
▁연기	-2584
▁옛날	-2585
▁인디	-2586
▁저는	-2587
▁지가	-2588
렸는데	-2589
이라는	-2590
있는데	-2591
▁lds	-2592
▁가드너	-2593
▁나오는	-2594
▁동양인	-2595
▁백투백	-2596
▁새끼가	-2597
▁시발아	-2598
▁우승후	-2599
▁전범신	-2600
가짜시즌	-2601
▁볼때마다	-2602
▁쎄	-2603
▁캬	-2604
가자	-2605
것같	-2606
년들	-2607
된거	-2608
우는	-2609
이즈	-2610
줄알	-2611
줘야	-2612
▁강팀	-2613
▁기회	-2614
▁순간	-2615
▁알바	-2616
▁오래	-2617
▁저놈	-2618
▁조합	-2619
▁치면	-2620
▁킹스	-2621
리는데	-2622
스머신	-2623
신이랑	-2624
에이고	-2625
▁MVP	-2626
▁누구임	-2627
▁뭔가요	-2628
▁보는데	-2629
▁쓰리런	-2630
▁좆병신	-2631
▁타티스	-2632
▁매국좆물	-2633
▁스찌산보	-2634
▁펭수김연아	-2635
?.	-2636
ᄆᄉ	-2637
▁T	-2638
▁t	-2639
▁떴	-2640
▁썰	-2641
▁첼	-2642
▁탄	-2643
까진	-2644
냄새	-2645
던거	-2646
땜에	-2647
라웃	-2648
먼트	-2649
상위	-2650
와도	-2651
이래	-2652
이브	-2653
쳐서	-2654
▁99	-2655
▁fa	-2656
▁광탈	-2657
▁김치	-2658
▁눈물	-2659
▁맞는	-2660
▁머은	-2661
▁모자	-2662
▁못한	-2663
▁섹스	-2664
▁정말	-2665
▁좆나	-2666
▁흥행	-2667
못하네	-2668
▁개드너	-2669
▁씹새끼	-2670
▁연예인	-2671
▁웃기네	-2672
▁ᅲᅲᅲᅲ	-2673
▁개새끼야	-2674
▁보트하성	-2675
▁있었으면	-2676
▁잘하는거	-2677
▁66366	-2678
▁+	-2679
▁샤	-2680
▁잭	-2681
▁즈	-2682
▁턴	-2683
게이	-2684
겠노	-2685
교안	-2686
리기	-2687
사랑	-2688
소타	-2689
었냐	-2690
일듯	-2691
적의	-2692
점이	-2693
히려	-2694
ᄉᄐᄎ	-2695
▁80	-2696
▁go	-2697
▁골글	-2698
▁광선	-2699
▁국가	-2700
▁나만	-2701
▁리바	-2702
▁순수	-2703
▁시대	-2704
▁오면	-2705
▁유격	-2706
▁있네	-2707
▁정리	-2708
▁홍첩	-2709
아시아	-2710
지는거	-2711
▁가지고	-2712
▁우승못	-2713
▁의외로	-2714
▁있네요	-2715
▁좆매기	-2716
▁찬빈님	-2717
▁팩심형	-2718
▁ᄃᄃᄃᄃᄃ	-2719
VS	-2720
ᄐᄐ	-2721
▁W	-2722
▁겨	-2723
▁닥	-2724
▁됨	-2725
▁롤	-2726
▁묻	-2727
▁벽	-2728
▁숨	-2729
▁팁	-2730
갓데	-2731
겠냐	-2732
겠음	-2733
달라	-2734
대중	-2735
로스	-2736
르네	-2737
세계	-2738
수는	-2739
아티	-2740
임스	-2741
키스	-2742
투명	-2743
티비	-2744
헤아	-2745
▁23	-2746
▁관심	-2747
▁룹신	-2748
▁많은	-2749
▁뭐해	-2750
▁보다	-2751
▁빼고	-2752
▁산보	-2753
▁설마	-2754
▁억지	-2755
▁없죠	-2756
▁워크	-2757
▁월클	-2758
▁지방	-2759
▁쳐발	-2760
▁최악	-2761
▁팀은	-2762
▁흥민	-2763
다네요	-2764
상대로	-2765
았으면	-2766
와중에	-2767
했다고	-2768
▁론조볼	-2769
▁씨발놈	-2770
▁아파트	-2771
▁오히려	-2772
▁올스타	-2773
▁한준희	-2774
것같은데	-2775
지않나요	-2776
▁네좆마좆	-2777
▁스플리터	-2778
▁정규시즌	-2779
▁한가운데	-2780
▁b	-2781
년전	-2782
다미	-2783
디움	-2784
렸네	-2785
번째	-2786
었음	-2787
오프	-2788
용택	-2789
우고	-2790
위가	-2791
위키	-2792
▁21	-2793
▁바지	-2794
▁반지	-2795
▁아르	-2796
▁외야	-2797
▁저번	-2798
▁집값	-2799
▁채식	-2800
▁팩발	-2801
다는데	-2802
한거냐	-2803
▁ᄉᄐᄎ	-2804
▁거지가	-2805
▁뉴욕의	-2806
▁병디는	-2807
▁봤는데	-2808
▁수비가	-2809
▁잘하냐	-2810
▁피닉스	-2811
▁가짜재능	-2812
▁유리아스	-2813
▁지만초이	-2814
......	-2815
▁갖	-2816
▁꽤	-2817
▁풍	-2818
그램	-2819
라드	-2820
리지	-2821
친구	-2822
>>>	-2823
▁개병	-2824
▁나은	-2825
▁못잡	-2826
▁무서	-2827
▁보이	-2828
▁보통	-2829
▁빠던	-2830
▁성장	-2831
▁알려	-2832
▁엠창	-2833
▁준비	-2834
▁크보	-2835
▁토토	-2836
▁통산	-2837
▁팩펜	-2838
▁혜자	-2839
던데요	-2840
치무라	-2841
▁ᄉᄉᄉ	-2842
▁개지랄	-2843
▁놀랍노	-2844
▁모드리	-2845
▁분위기	-2846
▁승리의	-2847
▁씹왁이	-2848
▁앤더슨	-2849
▁워싱턴	-2850
▁자이온	-2851
▁적시타	-2852
▁준우승	-2853
▁참교육	-2854
섹스머신	-2855
▁가능하냐	-2856
▁음해하는	-2857
▁피르미누	-2858
????????	-2859
심은하황수정신라호텔섹스머신	-2860
16	-2861
▁겜	-2862
▁꿀	-2863
▁럭	-2864
▁왠	-2865
▁육	-2866
▁착	-2867
▁활	-2868
가고	-2869
니깐	-2870
라면	-2871
러브	-2872
만원	-2873
무원	-2874
뭐냐	-2875
시켜	-2876
아라	-2877
았냐	-2878
이버	-2879
주면	-2880
진이	-2881
▁LA	-2882
▁너드	-2883
▁놈들	-2884
▁매치	-2885
▁방법	-2886
▁유타	-2887
▁이누	-2888
▁이래	-2889
▁이적	-2890
▁입장	-2891
▁있죠	-2892
▁좆도	-2893
▁찾아	-2894
▁출전	-2895
▁하냐	-2896
▁해붕	-2897
▁현역	-2898
기네요	-2899
니그린	-2900
아티아	-2901
▁같네요	-2902
▁개와이	-2903
▁개탠튼	-2904
▁그나마	-2905
▁어저미	-2906
▁저새낀	-2907
▁저슨신	-2908
▁중일신	-2909
▁보고싶다	-2910
▁이새끼는	-2911
wwwwwwww	-2912
▁닉	-2913
▁딴	-2914
▁으	-2915
▁철	-2916
▁햄	-2917
광고	-2918
났네	-2919
덕배	-2920
던가	-2921
들의	-2922
리신	-2923
속보	-2924
스키	-2925
시대	-2926
얘기	-2927
어시	-2928
예요	-2929
일이	-2930
코바	-2931
트니	-2932
해요	-2933
히트	-2934
~~~	-2935
▁걱정	-2936
▁고트	-2937
▁니거	-2938
▁님들	-2939
▁루윌	-2940
▁밖에	-2941
▁새로	-2942
▁선택	-2943
▁숙제	-2944
▁어깨	-2945
▁욕먹	-2946
▁이대	-2947
▁저분	-2948
▁초반	-2949
▁추가	-2950
▁캐리	-2951
▁항상	-2952
▁혹시	-2953
들한테	-2954
하다가	-2955
하더니	-2956
▁sts	-2957
▁말아먹	-2958
▁반투명	-2959
▁배추신	-2960
▁뷸찬호	-2961
▁일본은	-2962
▁자체가	-2963
▁코로나	-2964
▁하는게	-2965
▁황교안	-2966
▁드래프트	-2967
▁잉글랜드	-2968
▁타운스찌	-2969
▁아로자레나	-2970
▁콜도망타르	-2971
DS	-2972
▁O	-2973
▁맘	-2974
▁헬	-2975
▁휘	-2976
광현	-2977
내고	-2978
년은	-2979
년이	-2980
대결	-2981
리냐	-2982
리오	-2983
림픽	-2984
브레	-2985
시환	-2986
싸움	-2987
인트	-2988
있네	-2989
중계	-2990
트리	-2991
▁귀신	-2992
▁능력	-2993
▁무브	-2994
▁블로	-2995
▁사직	-2996
▁싱글	-2997
▁아겜	-2998
▁아깝	-2999
▁약간	-3000
▁없어	-3001
▁월드	-3002
▁이쯤	-3003
▁이콘	-3004
▁출신	-3005
가지고	-3006
되는거	-3007
라이니	-3008
브란트	-3009
선수가	-3010
없는데	-3011
지마라	-3012
▁101	-3013
▁가즈아	-3014
▁끝나고	-3015
▁마르셀	-3016
▁반바지	-3017
▁슬라이	-3018
▁안되는	-3019
▁우승할	-3020
▁이유는	-3021
▁인터뷰	-3022
▁코레아	-3023
▁프레이	-3024
▁병신들아	-3025
▁손흥민이	-3026
▁스테이크	-3027
▁우승후보	-3028
▁이새끼들	-3029
▁ᄋᄉᄋᄐᄉ	-3030
▁G	-3031
▁듣	-3032
▁뜬	-3033
▁엔	-3034
▁헨	-3035
니아	-3036
뚜벅	-3037
리더	-3038
보자	-3039
새키	-3040
스플	-3041
슨이	-3042
아이	-3043
연승	-3044
온다	-3045
운동	-3046
은건	-3047
이란	-3048
점대	-3049
제로	-3050
포츠	-3051
한듯	-3052
한지	-3053
ᅳᅳᅳ	-3054
▁ml	-3055
▁가르	-3056
▁간지	-3057
▁던져	-3058
▁도핑	-3059
▁먹을	-3060
▁미들	-3061
▁방송	-3062
▁보소	-3063
▁아닐	-3064
▁엄마	-3065
▁엔딩	-3066
▁예능	-3067
▁자리	-3068
▁재앙	-3069
▁타석	-3070
▁하패	-3071
대가리	-3072
됩니까	-3073
▁개새끼	-3074
▁고평가	-3075
▁디아즈	-3076
▁스찌런	-3077
▁식스토	-3078
▁아니죠	-3079
▁없으면	-3080
▁이러면	-3081
▁이런거	-3082
▁일본의	-3083
▁일부러	-3084
▁퍼스트	-3085
나보네요	-3086
▁귀화하면	-3087
▁좆라스코	-3088
▁ᄉᄉᄉᄉᄉᄉᄉᄉᄉᄉ	-3089
33	-3090
▁낼	-3091
▁뻘	-3092
▁폐	-3093
▁향	-3094
국대	-3095
기도	-3096
기록	-3097
년도	-3098
년차	-3099
민우	-3100
버지	-3101
사구	-3102
애틀	-3103
키퍼	-3104
▁98	-3105
▁간호	-3106
▁경질	-3107
▁메호	-3108
▁못넣	-3109
▁무시	-3110
▁무엇	-3111
▁뽀록	-3112
▁안쓰	-3113
▁오픈	-3114
▁우람	-3115
▁이야	-3116
▁이재	-3117
▁좆지	-3118
▁출루	-3119
▁형준	-3120
▁힉스	-3121
사나이	-3122
▁0.5	-3123
▁김광현	-3124
▁데이비	-3125
▁멜신이	-3126
▁문제가	-3127
▁변화구	-3128
▁시청률	-3129
▁씨발튼	-3130
▁예전에	-3131
▁유일한	-3132
▁크리스	-3133
▁하나도	-3134
▁하나만	-3135
▁해야갤	-3136
▁goat	-3137
▁ᄊᄉᄐᄎ	-3138
▁템파베이	-3139
▁크로아티아	-3140
▁굳	-3141
▁꿈	-3142
▁봑	-3143
▁텍	-3144
▁팅	-3145
▁혈	-3146
노가	-3147
노신	-3148
때는	-3149
력은	-3150
바리	-3151
우람	-3152
인은	-3153
정경	-3154
카레	-3155
파울	-3156
▁ᅮᅮ	-3157
▁공이	-3158
▁국내	-3159
▁동팡	-3160
▁랄이	-3161
▁만나	-3162
▁만든	-3163
▁맞냐	-3164
▁미드	-3165
▁받을	-3166
▁살기	-3167
▁양심	-3168
▁억울	-3169
▁용병	-3170
▁전에	-3171
▁좆집	-3172
▁주자	-3173
▁찐따	-3174
▁처맞	-3175
▁피펜	-3176
▁한거	-3177
왔는데	-3178
▁개꿀잼	-3179
▁되는거	-3180
▁시예요	-3181
▁없으니	-3182
▁잘생긴	-3183
▁존나게	-3184
▁태상위	-3185
▁힘틀이	-3186
▁미네소타	-3187
▁좋아하는	-3188
50	-3189
ll	-3190
ᄅᄋ	-3191
▁졷	-3192
▁픽	-3193
▁핸	-3194
가와	-3195
강행	-3196
동희	-3197
루과	-3198
손연	-3199
어가	-3200
어라	-3201
없다	-3202
였던	-3203
영이	-3204
우신	-3205
자나	-3206
재소	-3207
정이	-3208
지게	-3209
짜리	-3210
코트	-3211
타수	-3212
피스	-3213
하러	-3214
BTS	-3215
▁느그	-3216
▁못함	-3217
▁방탄	-3218
▁봐라	-3219
▁새벽	-3220
▁선언	-3221
▁수도	-3222
▁쓰는	-3223
▁아킬	-3224
▁알았	-3225
▁애매	-3226
▁잡을	-3227
▁타코	-3228
▁털신	-3229
▁홍판	-3230
무위키	-3231
심조국	-3232
차리토	-3233
▁개로파	-3234
▁그런데	-3235
▁그새끼	-3236
▁데헤아	-3237
▁똥양인	-3238
▁만리런	-3239
▁모르는	-3240
▁산균안	-3241
▁시발련	-3242
▁씹왁은	-3243
▁제임스	-3244
▁좆시코	-3245
▁좋은데	-3246
손연재소	-3247
▁ᄋᄉᄆᄉ	-3248
▁멕시코가	-3249
▁펠라이니	-3250
▁그러고보니	-3251
▁샌디에이고	-3252
손연재소트니	-3253
30	-3254
ea	-3255
▁E	-3256
▁깝	-3257
▁뚫	-3258
▁멘	-3259
▁면	-3260
▁얻	-3261
▁흔	-3262
구로	-3263
버풀	-3264
분전	-3265
신의	-3266
였냐	-3267
우스	-3268
자욱	-3269
장전	-3270
전범	-3271
커리	-3272
파워	-3273
패귀	-3274
피언	-3275
하든	-3276
형준	-3277
확률	-3278
▁94	-3279
▁FA	-3280
▁개축	-3281
▁고의	-3282
▁기어	-3283
▁맨유	-3284
▁몰랐	-3285
▁무난	-3286
▁불매	-3287
▁승률	-3288
▁심각	-3289
▁위한	-3290
▁위해	-3291
▁이쁘	-3292
▁일반	-3293
▁지단	-3294
▁지역	-3295
▁직구	-3296
▁퇴물	-3297
▁포심	-3298
▁현대	-3299
▁황본	-3300
때부터	-3301
야하라	-3302
있네요	-3303
하겠네	-3304
▁개같이	-3305
▁개소리	-3306
▁박용택	-3307
▁올라왔	-3308
▁폴조지	-3309
▁르브론이	-3310
▁부정구장	-3311
▁씹왁노들	-3312
▁이정도면	-3313
▁축구선수	-3314
방탄소년단입	-3315
심조국이낙연	-3316
!!!!!!!!	-3317
손연재소트니코바	-3318
:0	-3319
CS	-3320
▁윈	-3321
▁컵	-3322
겟네	-3323
들만	-3324
려야	-3325
로는	-3326
문제	-3327
민신	-3328
상황	-3329
어먹	-3330
워서	-3331
음해	-3332
자너	-3333
최고	-3334
현수	-3335
▁24	-3336
▁VS	-3337
▁가져	-3338
▁공황	-3339
▁내야	-3340
▁니들	-3341
▁대표	-3342
▁드러	-3343
▁릅탄	-3344
▁명예	-3345
▁빠른	-3346
▁솔까	-3347
▁순페	-3348
▁어땠	-3349
▁언플	-3350
▁월컵	-3351
▁유리	-3352
▁이럴	-3353
▁일정	-3354
▁좆박	-3355
▁좌완	-3356
▁차단	-3357
▁최초	-3358
▁치고	-3359
▁쿰신	-3360
▁트루	-3361
▁틀드	-3362
다는게	-3363
스트볼	-3364
시간전	-3365
시는지	-3366
하지마	-3367
한건지	-3368
----	-3369
▁구단주	-3370
▁국저미	-3371
▁들어가	-3372
▁머나카	-3373
▁수비는	-3374
▁스미스	-3375
▁애들은	-3376
▁올해도	-3377
▁우루과	-3378
▁이누이	-3379
▁이지랄	-3380
▁허민신	-3381
▁■■■■	-3382
▁갈매기는	-3383
▁브라질이	-3384
▁포시에서	-3385
▁글래스노우	-3386
23	-3387
▁곤	-3388
▁괴	-3389
▁끊	-3390
▁젊	-3391
▁흐	-3392
러리	-3393
리바	-3394
벙글	-3395
봤자	-3396
빠는	-3397
석신	-3398
성공	-3399
승희	-3400
심히	-3401
전은	-3402
좋은	-3403
즌스	-3404
차기	-3405
차이	-3406
찬빈	-3407
했죠	-3408
000	-3409
▁ᄒᄒ	-3410
▁가드	-3411
▁기준	-3412
▁니가	-3413
▁대결	-3414
▁드립	-3415
▁때문	-3416
▁만들	-3417
▁먹고	-3418
▁멀티	-3419
▁방출	-3420
▁병살	-3421
▁병틀	-3422
▁시바	-3423
▁시원	-3424
▁아마	-3425
▁애비	-3426
▁잘나	-3427
▁저도	-3428
▁정화	-3429
▁존재	-3430
▁좆쿡	-3431
▁좋네	-3432
▁추신	-3433
▁퇴근	-3434
▁하다	-3435
▁훨씬	-3436
각인데	-3437
구삼진	-3438
보다는	-3439
애들은	-3440
한테도	-3441
▁mlb	-3442
▁경기력	-3443
▁그리샴	-3444
▁기적의	-3445
▁모튼신	-3446
▁사람이	-3447
▁상수신	-3448
▁새끼는	-3449
▁아르헨	-3450
▁없나요	-3451
▁없어서	-3452
▁오프너	-3453
▁졸차도	-3454
▁좆같네	-3455
▁했으면	-3456
▁새끼들은	-3457
▁왜이렇게	-3458
▁있었는데	-3459
▁하치무라	-3460
▁휴스턴이	-3461
▁ᄃᄃᄃᄃᄃᄃ	-3462
>>>>>>>>	-3463
-0	-3464
18	-3465
cs	-3466
▁“	-3467
▁곳	-3468
▁벼	-3469
▁뿌	-3470
▁쓴	-3471
▁옆	-3472
대행	-3473
도가	-3474
때도	-3475
사모	-3476
오는	-3477
자들	-3478
카고	-3479
태신	-3480
▁34	-3481
▁60	-3482
▁AD	-3483
▁갈아	-3484
▁강간	-3485
▁개지	-3486
▁나와	-3487
▁높은	-3488
▁뉴비	-3489
▁미쳣	-3490
▁빠르	-3491
▁슨판	-3492
▁신안	-3493
▁안될	-3494
▁알고	-3495
▁어시	-3496
▁어쩔	-3497
▁왠지	-3498
▁이득	-3499
▁자랑	-3500
▁제주	-3501
▁질문	-3502
▁컨셉	-3503
▁태축	-3504
▁퇴장	-3505
▁한달	-3506
▁한화	-3507
▁호돈	-3508
▁흥궈	-3509
같은거	-3510
났네요	-3511
애들이	-3512
하다고	-3513
▁고랄신	-3514
▁귀쇼잉	-3515
▁데리고	-3516
▁로버츠	-3517
▁어디갔	-3518
▁없는지	-3519
▁탈모갑	-3520
이었네요	-3521
▁국저스는	-3522
▁동팡카쿠	-3523
▁무사만루	-3524
▁싱글벙글	-3525
▁씨발새끼	-3526
▁운동능력	-3527
을거같은데	-3528
추미애정경	-3529
.5	-3530
.7	-3531
ie	-3532
▁끼	-3533
▁랜	-3534
▁퀄	-3535
▁퀸	-3536
같다	-3537
난거	-3538
당한	-3539
르면	-3540
모어	-3541
무토	-3542
민호	-3543
볼만	-3544
세웅	-3545
없냐	-3546
없죠	-3547
원이	-3548
자지	-3549
중일	-3550
쳐맞	-3551
치로	-3552
코스	-3553
퀴들	-3554
타령	-3555
팬들	-3556
하누	-3557
하야	-3558
▁★★	-3559
▁공을	-3560
▁교체	-3561
▁구위	-3562
▁나름	-3563
▁남은	-3564
▁노래	-3565
▁누누	-3566
▁당장	-3567
▁대충	-3568
▁되냐	-3569
▁명전	-3570
▁받는	-3571
▁발작	-3572
▁시켜	-3573
▁씹덕	-3574
▁아다	-3575
▁아들	-3576
▁여러	-3577
▁예전	-3578
▁외국	-3579
▁운지	-3580
▁이궈	-3581
▁인간	-3582
▁잠실	-3583
▁장난	-3584
▁장애	-3585
▁증명	-3586
▁카스	-3587
▁탐슨	-3588
▁한데	-3589
급인데	-3590
미레즈	-3591
선수들	-3592
스미스	-3593
이었네	-3594
정도는	-3595
치네요	-3596
타티스	-3597
▁그렇지	-3598
▁글라스	-3599
▁노시환	-3600
▁몰라도	-3601
▁문재인	-3602
▁뭐하는	-3603
▁미쳤다	-3604
▁손혁신	-3605
▁신태용	-3606
▁안되나	-3607
▁안정환	-3608
▁않은지	-3609
▁이기고	-3610
▁전세계	-3611
▁졸로나	-3612
▁쪽바리	-3613
▁팩켓몬	-3614
▁포지션	-3615
보이는데	-3616
▁ᄋᄉᄐᄉ	-3617
▁스포티비	-3618
▁헨드릭스	-3619
▁개인적으로	-3620
▁펭수김연아손연재소트니코바	-3621
))	-3622
ct	-3623
om	-3624
▁□	-3625
▁★	-3626
▁늙	-3627
▁첨	-3628
간거	-3629
개이	-3630
그로	-3631
근데	-3632
급은	-3633
기고	-3634
남자	-3635
넘어	-3636
도안	-3637
두하	-3638
많이	-3639
뭔지	-3640
브룩	-3641
비아	-3642
상이	-3643
세로	-3644
시가	-3645
실력	-3646
연봉	-3647
운드	-3648
이더	-3649
줘라	-3650
팩트	-3651
▁굳이	-3652
▁까는	-3653
▁까지	-3654
▁다니	-3655
▁돌파	-3656
▁두번	-3657
▁듀좆	-3658
▁맥기	-3659
▁살라	-3660
▁씨팔	-3661
▁씹새	-3662
▁어떰	-3663
▁어찌	-3664
▁예정	-3665
▁인싸	-3666
▁있나	-3667
▁정의	-3668
▁조금	-3669
▁좋다	-3670
▁주작	-3671
▁준태	-3672
▁키좆	-3673
▁한다	-3674
는거봐	-3675
모른다	-3676
정도로	-3677
중인데	-3678
플레이	-3679
한거지	-3680
▁갓갓데	-3681
▁갓데는	-3682
▁개좆고	-3683
▁그리핀	-3684
▁라이벌	-3685
▁비호감	-3686
▁스찌타	-3687
▁실화냐	-3688
▁씹왁노	-3689
▁열심히	-3690
▁오지게	-3691
▁올림픽	-3692
▁이대로	-3693
▁이야기	-3694
▁이콘신	-3695
▁존나잘	-3696
▁졸스신	-3697
▁쿠티뉴	-3698
▁텍사스	-3699
▁해충갤	-3700
이라이트	-3701
▁더브란트	-3702
▁암흑기운	-3703
▁ᄉᄉᄉᄉᄉ	-3704
▁글래스나우	-3705
bs	-3706
in	-3707
▁긴	-3708
▁덜	-3709
▁읽	-3710
▁잼	-3711
▁펫	-3712
가도	-3713
강딱	-3714
그롬	-3715
년간	-3716
대신	-3717
데스	-3718
데이	-3719
도날	-3720
따라	-3721
라지	-3722
란드	-3723
멜로	-3724
병헌	-3725
보내	-3726
블링	-3727
수스	-3728
신지	-3729
없지	-3730
여자	-3731
영상	-3732
줘도	-3733
즈가	-3734
출신	-3735
했나	-3736
했지	-3737
lds	-3738
▁가만	-3739
▁가야	-3740
▁기다	-3741
▁꺼져	-3742
▁꼴블	-3743
▁꾀부	-3744
▁돼지	-3745
▁둘이	-3746
▁맞다	-3747
▁몇번	-3748
▁볼만	-3749
▁붉은	-3750
▁블론	-3751
▁삼성	-3752
▁신발	-3753
▁알아	-3754
▁애런	-3755
▁영혼	-3756
▁예쁘	-3757
▁오랜	-3758
▁와이	-3759
▁잡고	-3760
▁좋음	-3761
▁창녀	-3762
▁카드	-3763
▁텐백	-3764
▁편파	-3765
▁평생	-3766
▁포기	-3767
▁희플	-3768
거같냐	-3769
하더라	-3770
하려고	-3771
해야죠	-3772
회까지	-3773
▁간호사	-3774
▁강인이	-3775
▁골키퍼	-3776
▁군면제	-3777
▁김상수	-3778
▁똥카레	-3779
▁모란트	-3780
▁선수는	-3781
▁손아섭	-3782
▁스트레	-3783
▁애런분	-3784
▁오피셜	-3785
▁있는거	-3786
▁잘생겼	-3787
▁챔피언	-3788
▁타이밍	-3789
▁포켓몬	-3790
▁해축갤	-3791
강행까지	-3792
아시아의	-3793
▁2002	-3794
▁미국에서	-3795
▁하위에서	-3796
▁휴지통이	-3797
▁힉쓰레기	-3798
문재인하야	-3799
▁ᄃᄃᄃᄃᄃᄃᄃᄃᄃᄃᄃᄃ	-3800
▁린	-3801
▁쏘	-3802
▁찢	-3803
▁킬	-3804
▁풋	-3805
기면	-3806
긴스	-3807
까봐	-3808
느낌	-3809
는중	-3810
니가	-3811
듀오	-3812
때문	-3813
로잔	-3814
명이	-3815
백호	-3816
보기	-3817
승호	-3818
어신	-3819
었던	-3820
여경	-3821
여도	-3822
여서	-3823
였다	-3824
오늘	-3825
인다	-3826
장이	-3827
점은	-3828
정한	-3829
타선	-3830
학교	-3831
▁22	-3832
▁39	-3833
▁ᄉᄀ	-3834
▁가서	-3835
▁개똥	-3836
▁개잘	-3837
▁개쩌	-3838
▁고딩	-3839
▁대주	-3840
▁도루	-3841
▁뒤졌	-3842
▁레딕	-3843
▁먼저	-3844
▁뭐함	-3845
▁베츠	-3846
▁부산	-3847
▁상관	-3848
▁영화	-3849
▁완벽	-3850
▁있긴	-3851
▁자동	-3852
▁잡히	-3853
▁장기	-3854
▁졌다	-3855
▁즈루	-3856
▁킹본	-3857
▁탐욕	-3858
▁폭발	-3859
▁하죠	-3860
▁허벌	-3861
줬으면	-3862
지않나	-3863
하라고	-3864
하시는	-3865
했나요	-3866
▁개야구	-3867
▁노사모	-3868
▁돌려줘	-3869
▁바르샤	-3870
▁스찌섭	-3871
▁스트존	-3872
▁아가리	-3873
▁없는게	-3874
▁저슨님	-3875
▁저평가	-3876
▁지배신	-3877
▁쿰보가	-3878
▁턴오버	-3879
▁페이롤	-3880
▁르브론은	-3881
▁발롱도르	-3882
▁상위에서	-3883
▁생각하면	-3884
▁스탠튼이	-3885
▁우승하고	-3886
▁휴스턴은	-3887
▁하이라이트	-3888
on	-3889
▁견	-3890
▁뒷	-3891
▁찌	-3892
▁콱	-3893
▁힐	-3894
██	-3895
가라	-3896
규신	-3897
나고	-3898
난다	-3899
대회	-3900
디포	-3901
락신	-3902
모드	-3903
미친	-3904
버린	-3905
분이	-3906
사진	-3907
셸라	-3908
안에	-3909
업이	-3910
에요	-3911
영권	-3912
우준	-3913
일러	-3914
정후	-3915
준거	-3916
캐리	-3917
토모	-3918
티요	-3919
현종	-3920
▁ᄀᄀ	-3921
▁거기	-3922
▁고졸	-3923
▁국뫅	-3924
▁누나	-3925
▁맹구	-3926
▁멘탈	-3927
▁뭐라	-3928
▁버티	-3929
▁비첼	-3930
▁상상	-3931
▁손해	-3932
▁시너	-3933
▁아침	-3934
▁아프	-3935
▁어린	-3936
▁움짤	-3937
▁자지	-3938
▁정확	-3939
▁크블	-3940
▁펫코	-3941
▁휴식	-3942
나오네	-3943
되네요	-3944
십니까	-3945
한민국	-3946
▁경기가	-3947
▁경기는	-3948
▁그자체	-3949
▁나오네	-3950
▁나죽어	-3951
▁노히트	-3952
▁당연히	-3953
▁대중신	-3954
▁릴라드	-3955
▁뭐하노	-3956
▁밀리런	-3957
▁브리튼	-3958
▁블로그	-3959
▁유격수	-3960
▁이긴다	-3961
▁인기가	-3962
▁일본인	-3963
▁조켈리	-3964
▁크로넨	-3965
▁잘하네요	-3966
추미애정경심조국이낙연	-3967
^^	-3968
gm	-3969
▁빈	-3970
▁싹	-3971
담스	-3972
들을	-3973
떨어	-3974
리긴	-3975
메이	-3976
받고	-3977
사가	-3978
사노	-3979
스도	-3980
스테	-3981
았나	-3982
연구	-3983
자리	-3984
전이	-3985
좆슨	-3986
좋네	-3987
주가	-3988
채로	-3989
첩자	-3990
트가	-3991
LCS	-3992
▁KB	-3993
▁강남	-3994
▁개추	-3995
▁괜히	-3996
▁국적	-3997
▁귀엽	-3998
▁남미	-3999
▁냄새	-4000
▁노벨	-4001
▁놀라	-4002
▁뇌절	-4003
▁뒤에	-4004
▁디시	-4005
▁똥꼬	-4006
▁마음	-4007
▁맥스	-4008
▁무사	-4009
▁버거	-4010
▁비해	-4011
▁서양	-4012
▁슈팅	-4013
▁실물	-4014
▁싶다	-4015
▁에어	-4016
▁연습	-4017
▁영국	-4018
▁완봉	-4019
▁짱개	-4020
▁첼시	-4021
▁컨파	-4022
▁클럽	-4023
▁터지	-4024
▁티비	-4025
▁해럴	-4026
▁해서	-4027
▁활약	-4028
건가요	-4029
레나도	-4030
렵네요	-4031
마이걸	-4032
버리네	-4033
어리더	-4034
주세요	-4035
▁ᄋᄌᄅ	-4036
▁갓데가	-4037
▁그동안	-4038
▁누군지	-4039
▁던지는	-4040
▁되는데	-4041
▁들어오	-4042
▁뽈락신	-4043
▁시발년	-4044
▁아니네	-4045
▁아이버	-4046
▁앰창팀	-4047
▁없는거	-4048
▁올라온	-4049
▁우람신	-4050
▁우승을	-4051
▁인지도	-4052
▁잘하고	-4053
▁조틀딱	-4054
▁좆비드	-4055
▁좆와이	-4056
▁최악의	-4057
▁크로스	-4058
▁토레스	-4059
▁투구수	-4060
▁하든은	-4061
▁한경기	-4062
▁한도발	-4063
▁가능한지	-4064
▁나가토모	-4065
▁손흥민은	-4066
▁슬라이더	-4067
▁프레이밍	-4068
▁월드시리즈	-4069
▁ᄡ	-4070
▁ᅲ	-4071
▁권	-4072
▁냉	-4073
▁룩	-4074
▁빙	-4075
▁쌓	-4076
▁웬	-4077
▁콘	-4078
▁툴	-4079
▁훈	-4080
간에	-4081
근본	-4082
듯이	-4083
레인	-4084
려도	-4085
먹씨	-4086
먹튀	-4087
샬럿	-4088
성범	-4089
성적	-4090
솔린	-4091
어로	-4092
언제	-4093
었나	-4094
인기	-4095
점을	-4096
조선	-4097
존심	-4098
타비	-4099
팀에	-4100
▁27	-4101
▁35	-4102
▁고향	-4103
▁관련	-4104
▁급식	-4105
▁도넛	-4106
▁되면	-4107
▁땅볼	-4108
▁로드	-4109
▁먹는	-4110
▁못해	-4111
▁바이	-4112
▁보크	-4113
▁분들	-4114
▁사인	-4115
▁슨상	-4116
▁시거	-4117
▁쓰면	-4118
▁앤드	-4119
▁야동	-4120
▁염경	-4121
▁오펜	-4122
▁이놈	-4123
▁자짤	-4124
▁잘던	-4125
▁점점	-4126
▁조별	-4127
▁좆슨	-4128
▁직전	-4129
▁최강	-4130
▁출산	-4131
▁출장	-4132
▁타령	-4133
▁포스	-4134
▁필리	-4135
▁한계	-4136
▁홍보	-4137
거같은	-4138
겁니다	-4139
났는데	-4140
로세로	-4141
스러운	-4142
스포츠	-4143
식으로	-4144
연구소	-4145
이유가	-4146
하는듯	-4147
할까요	-4148
▁ᅲᅲᅲ	-4149
▁그대로	-4150
▁김원중	-4151
▁느낌이	-4152
▁떨어지	-4153
▁보트타	-4154
▁붙으면	-4155
▁빅게임	-4156
▁아니야	-4157
▁안하고	-4158
▁약쟁이	-4159
▁어떤지	-4160
▁염전노	-4161
▁이피엘	-4162
▁주인님	-4163
▁하든이	-4164
▁한국이	-4165
는건가요	-4166
▁마르셀루	-4167
▁승부차기	-4168
▁이궈달라	-4169
▁이와중에	-4170
▁저새끼가	-4171
▁생각해보니	-4172
▁팩팩하네요	-4173
ᄃᄃᄃᄃᄃᄃᄃᄃ	-4174
ᅳᅳᅳᅳᅳᅳᅳᅳ	-4175
.3	-4176
17	-4177
@@	-4178
fa	-4179
tr	-4180
▁곧	-4181
▁규	-4182
▁띄	-4183
▁밝	-4184
▁법	-4185
▁봄	-4186
▁왼	-4187
▁헐	-4188
건가	-4189
그래	-4190
리나	-4191
받는	-4192
뱅크	-4193
본다	-4194
부정	-4195
브로	-4196
빨고	-4197
사는	-4198
셀라	-4199
속도	-4200
시장	-4201
어나	-4202
요일	-4203
이신	-4204
이엇	-4205
자이	-4206
졌다	-4207
진게	-4208
쳤네	-4209
클럽	-4210
타구	-4211
파니	-4212
할수	-4213
호가	-4214
.15	-4215
ᄉᄉᄉ	-4216
ᄌᄉᄇ	-4217
▁29	-4218
▁가치	-4219
▁국판	-4220
▁기자	-4221
▁꼴데	-4222
▁나옴	-4223
▁되지	-4224
▁두명	-4225
▁라스	-4226
▁면제	-4227
▁못가	-4228
▁발렌	-4229
▁별명	-4230
▁부들	-4231
▁상태	-4232
▁세레	-4233
▁스토	-4234
▁안함	-4235
▁어떠	-4236
▁없이	-4237
▁와카	-4238
▁왁이	-4239
▁왕조	-4240
▁이쁜	-4241
▁이짤	-4242
▁저만	-4243
▁졸라	-4244
▁종덕	-4245
▁좆목	-4246
▁주루	-4247
▁중부	-4248
▁지는	-4249
▁체력	-4250
▁치네	-4251
▁코시	-4252
▁태형	-4253
▁풀카	-4254
▁후보	-4255
거같다	-4256
고싶네	-4257
급으로	-4258
까지는	-4259
더군요	-4260
만해도	-4261
벨기에	-4262
브라질	-4263
잖아요	-4264
했는지	-4265
▁갓본이	-4266
▁개좆밥	-4267
▁구속이	-4268
▁그런거	-4269
▁나성범	-4270
▁놈들이	-4271
▁듀좆통	-4272
▁레이스	-4273
▁릴여경	-4274
▁만나면	-4275
▁많네요	-4276
▁메날두	-4277
▁베르통	-4278
▁씹탠튼	-4279
▁애미뒤	-4280
▁우브레	-4281
▁이번엔	-4282
▁있어서	-4283
▁자존심	-4284
▁잘던지	-4285
▁저기서	-4286
▁좆라질	-4287
▁좆피엘	-4288
▁하나는	-4289
▁하는지	-4290
▁귀신같이	-4291
▁나오네요	-4292
▁미쳤네요	-4293
▁양키스는	-4294
▁치차리토	-4295
▁카스티요	-4296
▁후전드는	-4297
??????	-4298
▁ᄅᄌᄂᄇ한	-4299
▁개야갤에서	-4300
로세로연구소	-4301
ru	-4302
sa	-4303
▁,	-4304
▁Y	-4305
▁‘	-4306
▁넌	-4307
▁럽	-4308
▁봉	-4309
▁빤	-4310
▁삽	-4311
▁셋	-4312
▁쌍	-4313
▁져	-4314
▁즙	-4315
낭만	-4316
도배	-4317
라니	-4318
러셀	-4319
럽게	-4320
로빈	-4321
릴때	-4322
맞음	-4323
무관	-4324
볼넷	-4325
상대	-4326
성용	-4327
시티	-4328
실패	-4329
안함	-4330
었지	-4331
엘리	-4332
연패	-4333
으론	-4334
을것	-4335
조던	-4336
치기	-4337
치냐	-4338
쿠냐	-4339
쿼드	-4340
하셨	-4341
해설	-4342
했노	-4343
;;;	-4344
▁ᄊᄇ	-4345
▁개그	-4346
▁건강	-4347
▁국왁	-4348
▁국위	-4349
▁그저	-4350
▁놈이	-4351
▁달리	-4352
▁대진	-4353
▁또또	-4354
▁릅까	-4355
▁새삼	-4356
▁수아	-4357
▁쉽게	-4358
▁아냐	-4359
▁어떨	-4360
▁위기	-4361
▁이용	-4362
▁인성	-4363
▁저리	-4364
▁주제	-4365
▁지난	-4366
▁축협	-4367
▁카와	-4368
▁퀸쿡	-4369
▁페미	-4370
▁피칭	-4371
▁학교	-4372
갔는데	-4373
라는데	-4374
만봐도	-4375
봅니다	-4376
수있는	-4377
쳤는데	-4378
했어도	-4379
▁갔으면	-4380
▁개거품	-4381
▁개대중	-4382
▁곤솔린	-4383
▁그립다	-4384
▁낭낭한	-4385
▁덕아웃	-4386
▁멤피스	-4387
▁못하면	-4388
▁무안타	-4389
▁미들턴	-4390
▁보다가	-4391
▁붉청신	-4392
▁상위는	-4393
▁스찌행	-4394
▁시카고	-4395
▁실시간	-4396
▁쓰리핏	-4397
▁어그로	-4398
▁올리면	-4399
▁의미가	-4400
▁이해가	-4401
▁잘하긴	-4402
▁저지랄	-4403
▁태호감	-4404
▁텐튼신	-4405
▁한국은	-4406
▁흥민이	-4407
겠습니다	-4408
아아아아	-4409
▁가르시아	-4410
▁모드리치	-4411
▁못하네요	-4412
▁몽고메리	-4413
▁병신같은	-4414
▁삼구삼진	-4415
▁새끼들이	-4416
▁시발년아	-4417
▁아시아의	-4418
▁않았는지	-4419
▁대단하네요	-4420
ᄏᄉ	-4421
▁<	-4422
▁뛸	-4423
▁밸	-4424
▁책	-4425
▁칩	-4426
▁컴	-4427
▁콤	-4428
▁폰	-4429
■●	-4430
겟다	-4431
기만	-4432
낸다	-4433
느님	-4434
대한	-4435
두고	-4436
둥이	-4437
려라	-4438
렸다	-4439
리드	-4440
무현	-4441
물고	-4442
분은	-4443
비오	-4444
생활	-4445
선생	-4446
스로	-4447
스크	-4448
오냐	-4449
우리	-4450
웨이	-4451
장군	-4452
진신	-4453
쳐먹	-4454
파크	-4455
피칭	-4456
wer	-4457
▁33	-4458
▁같냐	-4459
▁같네	-4460
▁개막	-4461
▁고교	-4462
▁공수	-4463
▁귀여	-4464
▁낫지	-4465
▁내플	-4466
▁넣고	-4467
▁눈감	-4468
▁느껴	-4469
▁단축	-4470
▁류딸	-4471
▁머중	-4472
▁못이	-4473
▁못참	-4474
▁무관	-4475
▁미리	-4476
▁믿고	-4477
▁백컶	-4478
▁버저	-4479
▁보냐	-4480
▁부르	-4481
▁빼면	-4482
▁센징	-4483
▁스텝	-4484
▁시계	-4485
▁신경	-4486
▁싸움	-4487
▁아래	-4488
▁않나	-4489
▁양학	-4490
▁여전	-4491
▁역겨	-4492
▁옵트	-4493
▁요약	-4494
▁유독	-4495
▁유입	-4496
▁잘할	-4497
▁저따	-4498
▁전술	-4499
▁전쟁	-4500
▁정치	-4501
▁조지	-4502
▁좆판	-4503
▁쪽본	-4504
▁충분	-4505
▁케이	-4506
▁태어	-4507
▁트래	-4508
▁팬덤	-4509
▁포주	-4510
▁포징	-4511
▁피자	-4512
▁향해	-4513
년계약	-4514
놈들은	-4515
됩니다	-4516
레인키	-4517
아닌가	-4518
지말고	-4519
ball	-4520
▁1.2	-4521
▁202	-4522
▁개노잼	-4523
▁개라웃	-4524
▁꼬라박	-4525
▁누가더	-4526
▁니거서	-4527
▁던지면	-4528
▁리버풀	-4529
▁모르겠	-4530
▁실제로	-4531
▁아니다	-4532
▁안되냐	-4533
▁앤드원	-4534
▁약린저	-4535
▁언제와	-4536
▁오좆슨	-4537
▁와이프	-4538
▁우승각	-4539
▁이름이	-4540
▁이미지	-4541
▁잉그램	-4542
▁졸스머	-4543
▁지리네	-4544
▁진정한	-4545
▁축구는	-4546
▁커즌스	-4547
▁태낭만	-4548
▁토쟁이	-4549
▁투수가	-4550
▁팔꿈치	-4551
▁팩튜브	-4552
▁페이스	-4553
▁필요한	-4554
부정선거	-4555
하는거임	-4556
▁4.15	-4557
▁감독대행	-4558
▁나왔네요	-4559
▁발렌시아	-4560
▁벨기에는	-4561
▁아킬레스	-4562
▁않습니까	-4563
▁여기까지	-4564
▁웃기네요	-4565
추미애사퇴	-4566
방탄소년단입대가	-4567
추미애사퇴방탄소년단입대가	-4568
12	-4569
19	-4570
is	-4571
▁꽂	-4572
▁멍	-4573
▁앉	-4574
▁엊	-4575
▁핫	-4576
골스	-4577
나옴	-4578
뉴스	-4579
는걸	-4580
니에	-4581
대기	-4582
디션	-4583
런트	-4584
모스	-4585
볼하	-4586
색기	-4587
스러	-4588
스쿨	-4589
시죠	-4590
아는	-4591
어는	-4592
오리	-4593
운스	-4594
일시	-4595
있다	-4596
자고	-4597
좋아	-4598
주냐	-4599
지원	-4600
창녀	-4601
체가	-4602
터는	-4603
통령	-4604
파엠	-4605
페즈	-4606
한국	-4607
rea	-4608
▁1,	-4609
▁개빡	-4610
▁것도	-4611
▁고소	-4612
▁기본	-4613
▁날라	-4614
▁날아	-4615
▁너네	-4616
▁녹용	-4617
▁다리	-4618
▁달라	-4619
▁뒤지	-4620
▁듀오	-4621
▁뜨겁	-4622
▁럽찌	-4623
▁리턴	-4624
▁많아	-4625
▁매직	-4626
▁못넘	-4627
▁못먹	-4628
▁무뇌	-4629
▁미쳐	-4630
▁반대	-4631
▁배신	-4632
▁사회	-4633
▁수능	-4634
▁수상	-4635
▁실책	-4636
▁애무	-4637
▁어딜	-4638
▁어홍	-4639
▁언더	-4640
▁에휴	-4641
▁여론	-4642
▁염전	-4643
▁와데	-4644
▁왕택	-4645
▁왤캐	-4646
▁이성	-4647
▁이영	-4648
▁있던	-4649
▁잘한	-4650
▁장면	-4651
▁재밋	-4652
▁전혀	-4653
▁쳐먹	-4654
▁치킨	-4655
▁케빈	-4656
▁콜롬	-4657
▁평득	-4658
▁포드	-4659
▁폴좆	-4660
▁풍전	-4661
▁하던	-4662
▁흑묘	-4663
나보네	-4664
도날드	-4665
병신이	-4666
아니라	-4667
없으면	-4668
이던데	-4669
이라서	-4670
이었음	-4671
있나요	-4672
있는지	-4673
타비노	-4674
파워볼	-4675
한테는	-4676
▁계약금	-4677
▁기성용	-4678
▁나오냐	-4679
▁난쟁이	-4680
▁던지고	-4681
▁득점왕	-4682
▁마이클	-4683
▁민어신	-4684
▁병신팀	-4685
▁서울대	-4686
▁세이브	-4687
▁싶네요	-4688
▁안두하	-4689
▁잘하면	-4690
▁저슨아	-4691
▁진짜로	-4692
▁차이가	-4693
▁클라스	-4694
▁하위는	-4695
▁했네요	-4696
▁현무타	-4697
거같네요	-4698
는거보면	-4699
▁개웃기네	-4700
▁스트라이	-4701
▁옵트아웃	-4702
▁우루과이	-4703
▁있을까요	-4704
▁포틀랜드	-4705
▁홈런보다	-4706
문재인은하	-4707
▁아무리봐도	-4708
▁늦	-4709
▁맡	-4710
▁묶	-4711
▁즐	-4712
▁찰	-4713
▁챙	-4714
▁칭	-4715
▁흉	-4716
가노	-4717
기로	-4718
누구	-4719
느바	-4720
데려	-4721
동생	-4722
때가	-4723
루수	-4724
리뉴	-4725
린지	-4726
만패	-4727
많은	-4728
메스	-4729
선양	-4730
스런	-4731
심판	-4732
았노	-4733
었노	-4734
원준	-4735
정은	-4736
조심	-4737
진성	-4738
출루	-4739
통이	-4740
해줘	-4741
히는	-4742
▁Ch	-4743
▁가슴	-4744
▁강판	-4745
▁겨우	-4746
▁과연	-4747
▁구종	-4748
▁김성	-4749
▁깔끔	-4750
▁날두	-4751
▁노력	-4752
▁눈깔	-4753
▁늡붕	-4754
▁된다	-4755
▁맞고	-4756
▁맞추	-4757
▁몇명	-4758
▁모습	-4759
▁무키	-4760
▁믿을	-4761
▁밑에	-4762
▁부진	-4763
▁분명	-4764
▁브룩	-4765
▁브빌	-4766
▁빠꾸	-4767
▁살짝	-4768
▁서로	-4769
▁소녀	-4770
▁스프	-4771
▁아쉬	-4772
▁오른	-4773
▁용택	-4774
▁은행	-4775
▁이민	-4776
▁있을	-4777
▁자주	-4778
▁정보	-4779
▁조용	-4780
▁지옥	-4781
▁크데	-4782
▁털보	-4783
▁트위	-4784
▁포르	-4785
▁하필	-4786
▁해결	-4787
▁했네	-4788
▁훔바	-4789
▁히트	-4790
긴한데	-4791
났으면	-4792
보다가	-4793
으라고	-4794
이었던	-4795
일텐데	-4796
한거임	-4797
▁LDS	-4798
▁가능함	-4799
▁강백호	-4800
▁개전범	-4801
▁거지는	-4802
▁꾀창모	-4803
▁끝나면	-4804
▁따지면	-4805
▁로스터	-4806
▁미국은	-4807
▁뻘개이	-4808
▁사랑해	-4809
▁새끼야	-4810
▁생각이	-4811
▁선발이	-4812
▁스타일	-4813
▁스테판	-4814
▁않았냐	-4815
▁야알못	-4816
▁어떠냐	-4817
▁역겹네	-4818
▁원중신	-4819
▁위긴스	-4820
▁이것도	-4821
▁정규직	-4822
▁존나웃	-4823
▁추천좀	-4824
▁카가와	-4825
▁파이어	-4826
▁한번도	-4827
▁홍어즈	-4828
이라는데	-4829
▁100%	-4830
▁2010	-4831
▁같은데요	-4832
▁고의사구	-4833
▁국위선양	-4834
▁돌대가리	-4835
▁새끼들아	-4836
▁스찌새끼	-4837
▁없으니까	-4838
▁오늘경기	-4839
▁오마이걸	-4840
▁워크오프	-4841
▁정신병자	-4842
▁카지노는	-4843
AT	-4844
▁든	-4845
▁벗	-4846
▁뿐	-4847
▁펄	-4848
▁핀	-4849
▁흘	-4850
가냐	-4851
거라	-4852
것만	-4853
긴함	-4854
나게	-4855
내내	-4856
니지	-4857
달러	-4858
델피	-4859
돌아	-4860
됐네	-4861
리먼	-4862
리치	-4863
맞고	-4864
버그	-4865
복귀	-4866
빗슈	-4867
빠따	-4868
시점	-4869
시킨	-4870
야됨	-4871
영은	-4872
오네	-4873
위는	-4874
져스	-4875
주니	-4876
주신	-4877
준신	-4878
준태	-4879
크로	-4880
투베	-4881
현신	-4882
호머	-4883
▁CS	-4884
▁강철	-4885
▁검색	-4886
▁결장	-4887
▁과대	-4888
▁그게	-4889
▁그는	-4890
▁꾸레	-4891
▁눈에	-4892
▁두개	-4893
▁드론	-4894
▁뜨거	-4895
▁메도	-4896
▁멤버	-4897
▁명박	-4898
▁모음	-4899
▁못치	-4900
▁민호	-4901
▁바뀌	-4902
▁병프	-4903
▁부럽	-4904
▁부모	-4905
▁브로	-4906
▁설레	-4907
▁설명	-4908
▁세네	-4909
▁수미	-4910
▁수술	-4911
▁수염	-4912
▁승헌	-4913
▁운빨	-4914
▁웃음	-4915
▁워딩	-4916
▁자진	-4917
▁잘해	-4918
▁전문	-4919
▁종신	-4920
▁최다	-4921
▁코치	-4922
▁터커	-4923
▁팩본	-4924
▁하이	-4925
▁휘두	-4926
가네요	-4927
나는데	-4928
나오면	-4929
네ᄏᄏ	-4930
놈들이	-4931
는건가	-4932
졌는데	-4933
할텐데	-4934
gisa	-4935
▁갓동님	-4936
▁개상수	-4937
▁개흥좆	-4938
▁기태신	-4939
▁노폭신	-4940
▁니들이	-4941
▁동시에	-4942
▁맞는지	-4943
▁머은신	-4944
▁먹으면	-4945
▁멜신은	-4946
▁못하고	-4947
▁미쳤노	-4948
▁베스트	-4949
▁보는거	-4950
▁비슷한	-4951
▁사람들	-4952
▁수비수	-4953
▁시프트	-4954
▁씹뫅이	-4955
▁안들어	-4956
▁어이없	-4957
▁오늘의	-4958
▁오지네	-4959
▁왜저러	-4960
▁요즘은	-4961
▁웃긴게	-4962
▁있다고	-4963
▁젠슨락	-4964
▁커리가	-4965
▁클퍼는	-4966
▁태형콘	-4967
▁파워볼	-4968
▁하던데	-4969
▁헛스윙	-4970
▁홍어가	-4971
ᄃᄃᄃᄃᄃ	-4972
▁clds	-4973
▁ᄐᄌᄉᄇ	-4974
▁갈통이가	-4975
▁메호대전	-4976
▁슈퍼스타	-4977
▁않을까요	-4978
▁없었으면	-4979
▁월드컵은	-4980
▁콜롬비아	-4981
▁한국에서	-4982
▁니거서커스	-4983
▁이번월드컵	-4984
~~~~~~~~	-4985
▁ᄃᄃᄃᄃᄃᄃᄃ	-4986
77	-4987
80	-4988
km	-4989
rc	-4990
sg	-4991
ᅡᅡ	-4992
▁u	-4993
▁끄	-4994
▁댄	-4995
▁뛴	-4996
▁롱	-4997
▁뺏	-4998
▁앗	-4999
▁앨	-5000
▁윙	-5001
▁쩔	-5002
▁캠	-5003
가드	-5004
간지	-5005
갔다	-5006
골란	-5007
구가	-5008
국지	-5009
니스	-5010
듯한	-5011
등판	-5012
라나	-5013
로만	-5014
믈브	-5015
발롱	-5016
분석	-5017
세끼	-5018
센징	-5019
승리	-5020
악마	-5021
역시	-5022
예상	-5023
우가	-5024
운트	-5025
이거	-5026
재앙	-5027
저슨	-5028
조가	-5029
줄은	-5030
지신	-5031
징기	-5032
키는	-5033
터가	-5034
터진	-5035
톡킹	-5036
평도	-5037
학상	-5038
🌑🌑	-5039
▁70	-5040
▁같지	-5041
▁거냐	-5042
▁건물	-5043
▁꾸준	-5044
▁나쁘	-5045
▁날려	-5046
▁느끼	-5047
▁느낀	-5048
▁단체	-5049
▁달성	-5050
▁대구	-5051
▁대전	-5052
▁던질	-5053
▁도시	-5054
▁뚜벅	-5055
▁뜬금	-5056
▁리더	-5057
▁리드	-5058
▁많냐	-5059
▁맞네	-5060
▁맥날	-5061
▁바깥	-5062
▁백수	-5063
▁버기	-5064
▁벌괴	-5065
▁본캐	-5066
▁생김	-5067
▁선생	-5068
▁스피	-5069
▁시장	-5070
▁실점	-5071
▁안맞	-5072
▁애니	-5073
▁앰없	-5074
▁어우	-5075
▁어휴	-5076
▁엠흑	-5077
▁예측	-5078
▁이딴	-5079
▁잘맞	-5080
▁제목	-5081
▁좆좆	-5082
▁주고	-5083
▁죽여	-5084
▁창모	-5085
▁취급	-5086
▁침대	-5087
▁컨택	-5088
▁코갤	-5089
▁코너	-5090
▁코스	-5091
▁크게	-5092
▁타임	-5093
▁탈출	-5094
▁토너	-5095
▁통피	-5096
▁팔카	-5097
▁허용	-5098
▁황금	-5099
▁효율	-5100
▁흥좆	-5101
▁희생	-5102
▁힘든	-5103
는거죠	-5104
시즌에	-5105
었다고	-5106
졌으면	-5107
좋네요	-5108
체스형	-5109
한다는	-5110
해준다	-5111
헤이더	-5112
▁wrc	-5113
▁ᄆᄐᄎ	-5114
▁가만히	-5115
▁갤러리	-5116
▁광선노	-5117
▁대단한	-5118
▁드로잔	-5119
▁레일리	-5120
▁메좆은	-5121
▁성공률	-5122
▁슨상님	-5123
▁시애틀	-5124
▁심우준	-5125
▁안된다	-5126
▁야구는	-5127
▁야구를	-5128
▁어쩔수	-5129
▁엠스플	-5130
▁역사상	-5131
▁오론토	-5132
▁올리는	-5133
▁우리가	-5134
▁우승도	-5135
▁이러다	-5136
▁이정후	-5137
▁장현수	-5138
▁좆버럭	-5139
▁쳐맞네	-5140
▁태칰은	-5141
▁투수는	-5142
▁포시는	-5143
▁프리드	-5144
▁해야죠	-5145
▁혜자도	-5146
이라니까	-5147
하자마자	-5148
▁2000	-5149
▁ᄋᄉᄏᄉ	-5150
▁개야갤에	-5151
▁개장수가	-5152
▁대한민국	-5153
▁못하는거	-5154
▁벌써부터	-5155
▁수전노는	-5156
▁않았나요	-5157
▁오랜만에	-5158
▁우승하는	-5159
▁유일하게	-5160
▁있습니까	-5161
▁치어리더	-5162
▁트레블링	-5163
하는거보면	-5164
할거같은데	-5165
▁태웃기네요	-5166
▁디비전시리즈	-5167
▁j	-5168
▁ᄁ	-5169
▁겁	-5170
▁꼰	-5171
▁밤	-5172
▁탓	-5173
✋✋	-5174
가너	-5175
갈듯	-5176
거다	-5177
거박	-5178
기사	-5179
났다	-5180
누나	-5181
눈물	-5182
는디	-5183
대떡	-5184
도못	-5185
도시	-5186
됐다	-5187
되고	-5188
디오	-5189
랜도	-5190
러가	-5191
러들	-5192
르난	-5193
르몬	-5194
르트	-5195
말로	-5196
바로	-5197
빌딩	-5198
석민	-5199
스틸	-5200
식이	-5201
아캄	-5202
안됨	-5203
액션	-5204
와야	-5205
인들	-5206
주범	-5207
중이	-5208
쳐도	-5209
타니	-5210
터치	-5211
펠라	-5212
할뻔	-5213
합방	-5214
홍어	-5215
▁->	-5216
▁32	-5217
▁38	-5218
▁PS	-5219
▁on	-5220
▁sk	-5221
▁걸린	-5222
▁골대	-5223
▁구라	-5224
▁국민	-5225
▁그림	-5226
▁김태	-5227
▁나대	-5228
▁네갓	-5229
▁노짱	-5230
▁대형	-5231
▁도움	-5232
▁뒤질	-5233
▁딱히	-5234
▁떨공	-5235
▁럭키	-5236
▁로또	-5237
▁리즈	-5238
▁많음	-5239
▁못막	-5240
▁박살	-5241
▁버스	-5242
▁분노	-5243
▁빠지	-5244
▁빨갱	-5245
▁뽑아	-5246
▁사라	-5247
▁세상	-5248
▁솔로	-5249
▁스윕	-5250
▁스티	-5251
▁시도	-5252
▁시키	-5253
▁오윤	-5254
▁전체	-5255
▁젊은	-5256
▁점프	-5257
▁지구	-5258
▁지지	-5259
▁징징	-5260
▁쳐라	-5261
▁충격	-5262
▁침팬	-5263
▁키퍼	-5264
▁타율	-5265
▁한녀	-5266
▁한방	-5267
▁합류	-5268
▁홈콜	-5269
▁황족	-5270
▁히로	-5271
나리오	-5272
는사퇴	-5273
렸네요	-5274
렸으면	-5275
리니까	-5276
만보면	-5277
스럽게	-5278
아니고	-5279
었어도	-5280
이마르	-5281
잉골란	-5282
파이널	-5283
하겠다	-5284
하고싶	-5285
하려면	-5286
하지만	-5287
회부터	-5288
fact	-5289
▁etr	-5290
▁감독은	-5291
▁골로빈	-5292
▁내려가	-5293
▁녹저미	-5294
▁농구는	-5295
▁니노신	-5296
▁독일이	-5297
▁돌아왔	-5298
▁라우리	-5299
▁레이업	-5300
▁릅신의	-5301
▁리빌딩	-5302
▁마라도	-5303
▁병신이	-5304
▁보면서	-5305
▁서버럭	-5306
▁소형준	-5307
▁스쿼드	-5308
▁스톡킹	-5309
▁시발놈	-5310
▁심판이	-5311
▁쓰리볼	-5312
▁안되네	-5313
▁안잡아	-5314
▁애들이	-5315
▁어디감	-5316
▁원영이	-5317
▁이래서	-5318
▁좆흥좆	-5319
▁준태맥	-5320
▁추신수	-5321
▁추하게	-5322
▁코갤러	-5323
▁햄버거	-5324
▁홈런을	-5325
선거주범	-5326
ᅳᅳᅳᅳᅳ	-5327
▁과대평가	-5328
▁그레인키	-5329
▁데이비스	-5330
▁바이아웃	-5331
▁수아레즈	-5332
▁아이버슨	-5333
▁이쯤되면	-5334
▁토너먼트	-5335
▁패스트볼	-5336
는사퇴하라	-5337
▁원중헤이더	-5338
▁홍어새끼들	-5339
야하라추미애	-5340
▁부정선거주범	-5341
▁wwwwwwww	-5342
부정선거문재인하야	-5343
야하라추미애는사퇴하라	-5344
cm	-5345
pl	-5346
▁>	-5347
▁꼼	-5348
▁냈	-5349
▁삘	-5350
☆☆	-5351
가가	-5352
갈량	-5353
개는	-5354
관리	-5355
구안	-5356
나올	-5357
노답	-5358
놀이	-5359
놈은	-5360
동네	-5361
동원	-5362
되지	-5363
될듯	-5364
두순	-5365
랑이	-5366
릅신	-5367
링어	-5368
마저	-5369
먹은	-5370
멜신	-5371
박고	-5372
보냐	-5373
사기	-5374
살에	-5375
서니	-5376
쓰는	-5377
았음	-5378
어율	-5379
연장	-5380
였지	-5381
예정	-5382
오르	-5383
온거	-5384
운거	-5385
응원	-5386
이쁘	-5387
인구	-5388
점만	-5389
주작	-5390
준우	-5391
찬스	-5392
탈락	-5393
탕스	-5394
할지	-5395
형종	-5396
확정	-5397
www	-5398
▁ML	-5399
▁kk	-5400
▁가는	-5401
▁개농	-5402
▁경쟁	-5403
▁고통	-5404
▁공식	-5405
▁꾸역	-5406
▁나의	-5407
▁낫다	-5408
▁냉정	-5409
▁넘기	-5410
▁닉스	-5411
▁단장	-5412
▁도전	-5413
▁독보	-5414
▁돌렐	-5415
▁동생	-5416
▁동엽	-5417
▁디트	-5418
▁로즈	-5419
▁룩삼	-5420
▁만화	-5421
▁매력	-5422
▁멍청	-5423
▁미만	-5424
▁반스	-5425
▁밥값	-5426
▁빨아	-5427
▁샬럿	-5428
▁스위	-5429
▁아빠	-5430
▁아주	-5431
▁안돼	-5432
▁야수	-5433
▁어림	-5434
▁어이	-5435
▁없나	-5436
▁염혁	-5437
▁영향	-5438
▁오스	-5439
▁외노	-5440
▁위험	-5441
▁의심	-5442
▁이것	-5443
▁이악	-5444
▁잡네	-5445
▁쟤는	-5446
▁찍어	-5447
▁차기	-5448
▁카민	-5449
▁캐시	-5450
▁펠레	-5451
▁피해	-5452
▁한마	-5453
▁해라	-5454
▁해적	-5455
▁혐털	-5456
겟네요	-5457
기전에	-5458
꼬라지	-5459
노ᄏᄏ	-5460
더라도	-5461
때까지	-5462
보는거	-5463
수밖에	-5464
아니면	-5465
었는지	-5466
으로는	-5467
일합방	-5468
치는데	-5469
타디움	-5470
프레드	-5471
한거죠	-5472
호르몬	-5473
gman	-5474
▁갓데볼	-5475
▁괜찮은	-5476
▁구창모	-5477
▁균안신	-5478
▁꼬우면	-5479
▁나가리	-5480
▁내일도	-5481
▁대기중	-5482
▁디그롬	-5483
▁루비오	-5484
▁만약에	-5485
▁맞나요	-5486
▁모른다	-5487
▁못생긴	-5488
▁보여주	-5489
▁사이영	-5490
▁새로운	-5491
▁시너지	-5492
▁시아캄	-5493
▁씨발택	-5494
▁않는지	-5495
▁용택신	-5496
▁우승이	-5497
▁우승팀	-5498
▁이분이	-5499
▁이재후	-5500
▁이정도	-5501
▁재미없	-5502
▁제수스	-5503
▁제주스	-5504
▁좆덕배	-5505
▁타구질	-5506
▁태웃긴	-5507
▁토막노	-5508
▁프로파	-5509
▁갓데리아	-5510
▁나잉골란	-5511
▁다저스가	-5512
▁다저스는	-5513
▁만루홈런	-5514
▁뫅지통이	-5515
▁붉은악마	-5516
▁억지음해	-5517
▁올라디포	-5518
▁진짜재능	-5519
▁탠튼신은	-5520
▁트레이넨	-5521
▁형준리토	-5522
rugman	-5523
▁가능한가요	-5524
▁생각나네요	-5525
werball	-5526
죽어죽어죽어죽어	-5527
▁부정선거주범문재인은하	-5528
bc	-5529
or	-5530
ps	-5531
~!	-5532
ᄂᄆ	-5533
ᄇᄉ	-5534
ᄋᄉ	-5535
▁딜	-5536
▁립	-5537
▁뻔	-5538
▁삭	-5539
▁쉑	-5540
▁쉴	-5541
▁쌈	-5542
▁썩	-5543
▁팝	-5544
갓본	-5545
거는	-5546
겨서	-5547
겼네	-5548
구요	-5549
내려	-5550
더레	-5551
던게	-5552
뒤져	-5553
디스	-5554
를로	-5555
릴듯	-5556
머신	-5557
메시	-5558
무브	-5559
받을	-5560
버전	-5561
보여	-5562
부들	-5563
부로	-5564
부상	-5565
비터	-5566
빠들	-5567
상태	-5568
쉬고	-5569
스탯	-5570
스템	-5571
어스	-5572
에다	-5573
였죠	-5574
위로	-5575
유럽	-5576
이던	-5577
일에	-5578
입장	-5579
자꾸	-5580
잘함	-5581
조센	-5582
준게	-5583
진은	-5584
찌찌	-5585
차트	-5586
트롤	-5587
펜스	-5588
포드	-5589
할만	-5590
호신	-5591
▁06	-5592
▁26	-5593
▁93	-5594
▁96	-5595
▁LG	-5596
▁개못	-5597
▁개민	-5598
▁결순	-5599
▁고든	-5600
▁공중	-5601
▁그랬	-5602
▁그분	-5603
▁기가	-5604
▁꼴찌	-5605
▁나혼	-5606
▁누적	-5607
▁뉴스	-5608
▁닮은	-5609
▁담당	-5610
▁던컨	-5611
▁동양	-5612
▁뒤진	-5613
▁똥싸	-5614
▁마무	-5615
▁만세	-5616
▁매냐	-5617
▁몸매	-5618
▁불러	-5619
▁불을	-5620
▁빙의	-5621
▁빼라	-5622
▁사고	-5623
▁사비	-5624
▁생기	-5625
▁쓰고	-5626
▁아오	-5627
▁않은	-5628
▁애국	-5629
▁어딨	-5630
▁어렵	-5631
▁어울	-5632
▁없고	-5633
▁움직	-5634
▁원툴	-5635
▁적당	-5636
▁제국	-5637
▁좆될	-5638
▁죽음	-5639
▁죽이	-5640
▁직관	-5641
▁챔쉽	-5642
▁칭찬	-5643
▁카메	-5644
▁코파	-5645
▁타점	-5646
▁터진	-5647
▁토종	-5648
▁통구	-5649
▁페어	-5650
▁포나	-5651
▁포텐	-5652
▁폴락	-5653
▁하드	-5654
▁하자	-5655
▁하프	-5656
▁함바	-5657
▁화싸	-5658
▁효과	-5659
가는거	-5660
국저스	-5661
다던데	-5662
먹으면	-5663
베리노	-5664
았나요	-5665
연평도	-5666
인지업	-5667
치는거	-5668
한건데	-5669
▁1,2	-5670
▁ᄋᄉᄌ	-5671
▁가운데	-5672
▁같던데	-5673
▁개원중	-5674
▁김영권	-5675
▁나중에	-5676
▁대통령	-5677
▁되나요	-5678
▁되는지	-5679
▁레이커	-5680
▁맞는거	-5681
▁메이신	-5682
▁못하노	-5683
▁미쳤나	-5684
▁반코트	-5685
▁백승호	-5686
▁보니깐	-5687
▁불가능	-5688
▁선채로	-5689
▁씹가능	-5690
▁씹사스	-5691
▁아버지	-5692
▁알았다	-5693
▁앤서니	-5694
▁오윤석	-5695
▁이대은	-5696
▁이후로	-5697
▁일뽕들	-5698
▁정우람	-5699
▁지금도	-5700
▁지랄을	-5701
▁체스형	-5702
▁축구를	-5703
▁콜조심	-5704
▁쿰보는	-5705
▁튀기콘	-5706
▁트라웃	-5707
▁팩스턴	-5708
▁포르투	-5709
▁하니까	-5710
▁한국에	-5711
▁햅등신	-5712
▁호수비	-5713
아닙니까	-5714
이라네요	-5715
이라던데	-5716
▁개잘하네	-5717
▁돈치치가	-5718
▁듀란트가	-5719
▁리얼무토	-5720
▁브라질은	-5721
▁선발투수	-5722
▁시나리오	-5723
▁씹라스코	-5724
▁안나오냐	-5725
▁어떤가요	-5726
▁우승가능	-5727
▁우승해도	-5728
▁지금까지	-5729
▁헤이병헌	-5730
지않습니까	-5731
▁성장호르몬	-5732
???????	-5733
,,	-5734
.9	-5735
:1	-5736
AR	-5737
kg	-5738
na	-5739
▁J	-5740
▁ᄑ	-5741
▁걔	-5742
▁밴	-5743
▁앙	-5744
▁얀	-5745
▁옥	-5746
▁옮	-5747
▁잊	-5748
▁좁	-5749
▁짧	-5750
▁쩌	-5751
▁쪼	-5752
▁팍	-5753
▁팜	-5754
▁홀	-5755
갔네	-5756
건우	-5757
겸장	-5758
경쟁	-5759
그룹	-5760
급임	-5761
기전	-5762
노예	-5763
대표	-5764
린게	-5765
모습	-5766
모토	-5767
못함	-5768
벌리	-5769
병디	-5770
부리	-5771
빙턴	-5772
색히	-5773
서트	-5774
소식	-5775
스날	-5776
스윕	-5777
심이	-5778
안해	-5779
었죠	-5780
역겹	-5781
연전	-5782
였나	-5783
이로	-5784
이름	-5785
인디	-5786
있지	-5787
정공	-5788
제국	-5789
지를	-5790
쳐발	-5791
케이	-5792
크보	-5793
하려	-5794
해피	-5795
회는	-5796
훈신	-5797
▁45	-5798
▁95	-5799
▁TO	-5800
▁^^	-5801
▁ad	-5802
▁cs	-5803
▁la	-5804
▁거부	-5805
▁경리	-5806
▁꾀넬	-5807
▁끝났	-5808
▁난리	-5809
▁남아	-5810
▁노비	-5811
▁다이	-5812
▁답답	-5813
▁동네	-5814
▁두산	-5815
▁들고	-5816
▁따로	-5817
▁똑같	-5818
▁똥군	-5819
▁라멧	-5820
▁많네	-5821
▁뫅이	-5822
▁무너	-5823
▁발전	-5824
▁배우	-5825
▁배트	-5826
▁병판	-5827
▁보네	-5828
▁비율	-5829
▁수좆	-5830
▁야마	-5831
▁어려	-5832
▁어지	-5833
▁어캐	-5834
▁언론	-5835
▁여신	-5836
▁영양	-5837
▁영웅	-5838
▁오바	-5839
▁오버	-5840
▁유력	-5841
▁이김	-5842
▁이어	-5843
▁자신	-5844
▁잠깐	-5845
▁정떡	-5846
▁정작	-5847
▁진성	-5848
▁집에	-5849
▁짭욕	-5850
▁추격	-5851
▁코구	-5852
▁투입	-5853
▁팀갤	-5854
▁팀에	-5855
▁폭탄	-5856
▁필승	-5857
▁한골	-5858
▁한두	-5859
▁할듯	-5860
▁했음	-5861
▁홍팍	-5862
▁화이	-5863
강에서	-5864
고있네	-5865
년들아	-5866
는다고	-5867
는데요	-5868
됐네요	-5869
레이크	-5870
이라니	-5871
줬는데	-5872
쳤네요	-5873
▁STS	-5874
▁ᄂ도배	-5875
▁ᄋᄉᄉ	-5876
▁ᄐᄐᄉ	-5877
▁개병호	-5878
▁개좆두	-5879
▁김다미	-5880
▁끝까지	-5881
▁나와서	-5882
▁노무현	-5883
▁농알못	-5884
▁돈갈통	-5885
▁떨어진	-5886
▁많은데	-5887
▁매치업	-5888
▁바깥쪽	-5889
▁보더라	-5890
▁석도발	-5891
▁선구안	-5892
▁성적이	-5893
▁신기한	-5894
▁씹년아	-5895
▁씹차도	-5896
▁안나옴	-5897
▁안타깝	-5898
▁안하냐	-5899
▁웨이드	-5900
▁이거죠	-5901
▁이승헌	-5902
▁이영표	-5903
▁잉볼하	-5904
▁자기가	-5905
▁장애인	-5906
▁재앙신	-5907
▁접대노	-5908
▁조던은	-5909
▁좆카쿠	-5910
▁주니어	-5911
▁중요한	-5912
▁초반에	-5913
▁침팬지	-5914
▁투수들	-5915
▁포스팅	-5916
▁폭삼각	-5917
▁한다고	-5918
▁합니다	-5919
▁해야지	-5920
▁혜화노	-5921
▁홍어들	-5922
넼ᄏᄏᄏ	-5923
하지않냐	-5924
!!!!!	-5925
▁갈통커스	-5926
▁내년에도	-5927
▁냉정하게	-5928
▁먹튀새끼	-5929
▁보이네요	-5930
▁생각하는	-5931
▁세레머니	-5932
▁시발새끼	-5933
▁시작부터	-5934
▁싫어하는	-5935
▁쓰로워들	-5936
▁아니근데	-5937
▁오클랜드	-5938
▁음바페가	-5939
▁이승우는	-5940
▁진심으로	-5941
▁카민스키	-5942
▁하위가면	-5943
▁호스머신	-5944
>>>>>>	-5945
▁씨발새끼야	-5946
▁아니었는지	-5947
▁월드컵에서	-5948
11	-5949
14	-5950
ab	-5951
as	-5952
po	-5953
tw	-5954
▁!	-5955
▁ᄄ	-5956
▁격	-5957
▁널	-5958
▁락	-5959
▁뿜	-5960
▁콩	-5961
▁퐈	-5962
감이	-5963
거죠	-5964
관조	-5965
구현	-5966
그런	-5967
기엔	-5968
나간	-5969
남아	-5970
내면	-5971
답게	-5972
대에	-5973
대장	-5974
되서	-5975
드로	-5976
런스	-5977
르텐	-5978
리자	-5979
메달	-5980
모른	-5981
문화	-5982
민이	-5983
바꾸	-5984
바이	-5985
버스	-5986
별로	-5987
불가	-5988
성은	-5989
성을	-5990
시도	-5991
압박	-5992
야함	-5993
약물	-5994
에고	-5995
였노	-5996
워스	-5997
월드	-5998
의식	-5999
이김	-6000
이도	-6001
이든	-6002
이후	-6003
인척	-6004
일때	-6005
입갤	-6006
장석	-6007
장애	-6008
직전	-6009
치노	-6010
트넘	-6011
팀들	-6012
포이	-6013
피는	-6014
com	-6015
lcs	-6016
▁28	-6017
▁;;	-6018
▁감사	-6019
▁고려	-6020
▁골든	-6021
▁공개	-6022
▁기술	-6023
▁김선	-6024
▁나아	-6025
▁낫죠	-6026
▁눈치	-6027
▁대해	-6028
▁돈값	-6029
▁돈치	-6030
▁따먹	-6031
▁때려	-6032
▁똥볼	-6033
▁뛰고	-6034
▁막을	-6035
▁매수	-6036
▁명문	-6037
▁몰아	-6038
▁못하	-6039
▁물어	-6040
▁뭐고	-6041
▁뭐죠	-6042
▁믈브	-6043
▁받고	-6044
▁받았	-6045
▁밝혀	-6046
▁버린	-6047
▁벤맥	-6048
▁본다	-6049
▁부족	-6050
▁살려	-6051
▁삽질	-6052
▁쉴드	-6053
▁스코	-6054
▁스텟	-6055
▁아름	-6056
▁앤써	-6057
▁어떡	-6058
▁연애	-6059
▁예쁜	-6060
▁와서	-6061
▁운영	-6062
▁원태	-6063
▁유로	-6064
▁이리	-6065
▁이태	-6066
▁일내	-6067
▁잘막	-6068
▁잘했	-6069
▁잡았	-6070
▁장재	-6071
▁장타	-6072
▁저래	-6073
▁적폐	-6074
▁정공	-6075
▁좆던	-6076
▁좋지	-6077
▁중신	-6078
▁지타	-6079
▁찬스	-6080
▁친정	-6081
▁클린	-6082
▁풀발	-6083
▁피파	-6084
▁학력	-6085
▁했다	-6086
▁화사	-6087
▁훈련	-6088
갈매기	-6089
겼는데	-6090
대전적	-6091
딸치는	-6092
레인지	-6093
르투와	-6094
리는게	-6095
리던데	-6096
만하지	-6097
뱅크스	-6098
수있음	-6099
신이냐	-6100
안하고	-6101
왔으면	-6102
으려고	-6103
있는거	-6104
팀에서	-6105
팬인데	-6106
포인트	-6107
▁...	-6108
▁140	-6109
▁KBO	-6110
▁epl	-6111
▁ops	-6112
▁war	-6113
▁ᄋᄉᄀ	-6114
▁ᄐᄂᄆ	-6115
▁ᄒᄃᄃ	-6116
▁개나카	-6117
▁걸그룹	-6118
▁공격수	-6119
▁꼬꼬꼬	-6120
▁꼬꼬노	-6121
▁내일은	-6122
▁넣으면	-6123
▁농구력	-6124
▁도배충	-6125
▁됩니까	-6126
▁디러셀	-6127
▁떴네요	-6128
▁리매치	-6129
▁메좆두	-6130
▁뭐라고	-6131
▁버리고	-6132
▁병신은	-6133
▁생각함	-6134
▁생겼네	-6135
▁선발로	-6136
▁세네갈	-6137
▁솔리런	-6138
▁실력은	-6139
▁심하네	-6140
▁아담스	-6141
▁아이유	-6142
▁안하는	-6143
▁알아서	-6144
▁앰없도	-6145
▁어셸라	-6146
▁없다고	-6147
▁여자들	-6148
▁여전히	-6149
▁올랜도	-6150
▁이기는	-6151
▁이니에	-6152
▁이제는	-6153
▁인기많	-6154
▁자이니	-6155
▁장석신	-6156
▁조던이	-6157
▁조선인	-6158
▁좆켈리	-6159
▁지진신	-6160
▁케이스	-6161
▁클레이	-6162
▁팩버거	-6163
▁현무신	-6164
▁호나우	-6165
▁힘들어	-6166
▁힘틀은	-6167
하는거냐	-6168
▁ᄋᄋᄋᄋ	-6169
▁뉴비인데	-6170
▁대니그린	-6171
▁뚜벅뚜벅	-6172
▁맥도날드	-6173
▁밀워키는	-6174
▁보더라인	-6175
▁상대전적	-6176
▁상위리가	-6177
▁선수들이	-6178
▁씹새끼야	-6179
▁앰뒤스윙	-6180
▁언제부터	-6181
▁월시우승	-6182
▁이새끼도	-6183
▁있었네요	-6184
▁자진사퇴	-6185
▁재밌네요	-6186
▁플옵에서	-6187
줄알았는데	-6188
▁메이저리그	-6189
▁이니에스타	-6190
▁씨발ᄏᄏᄏᄏ	-6191
▁ᄃᄃᄃᄃᄃᄃᄃᄃᄃ	-6192
.8	-6193
▁긁	-6194
▁닭	-6195
▁떳	-6196
▁뜻	-6197
▁몬	-6198
▁빻	-6199
▁뻑	-6200
▁샐	-6201
▁썼	-6202
▁앵	-6203
▁짓	-6204
▁탁	-6205
▁품	-6206
간이	-6207
거나	-6208
교체	-6209
그니	-6210
기를	-6211
나지	-6212
대네	-6213
된게	-6214
드네	-6215
들고	-6216
들리	-6217
란타	-6218
로우	-6219
른거	-6220
문회	-6221
받은	-6222
방심	-6223
벅스	-6224
볼이	-6225
분에	-6226
브롱	-6227
빼면	-6228
없어	-6229
역사	-6230
오고	-6231
오오	-6232
월시	-6233
위권	-6234
위해	-6235
으신	-6236
의대	-6237
이콘	-6238
인방	-6239
일까	-6240
일은	-6241
있어	-6242
자책	-6243
장면	-6244
주지	-6245
질이	-6246
충이	-6247
츠키	-6248
코치	-6249
터링	-6250
팀도	-6251
팅리	-6252
포시	-6253
할것	-6254
해줄	-6255
현무	-6256
▁89	-6257
▁GO	-6258
▁✋✋	-6259
▁가넷	-6260
▁가족	-6261
▁개발	-6262
▁개웃	-6263
▁견제	-6264
▁경우	-6265
▁고급	-6266
▁과거	-6267
▁과학	-6268
▁그럴	-6269
▁긴장	-6270
▁꼬추	-6271
▁넘겨	-6272
▁대부	-6273
▁데릭	-6274
▁둘중	-6275
▁드랲	-6276
▁들이	-6277
▁똥부	-6278
▁릅이	-6279
▁마일	-6280
▁맥주	-6281
▁맥클	-6282
▁머냐	-6283
▁모름	-6284
▁무릎	-6285
▁문사	-6286
▁미개	-6287
▁발동	-6288
▁백퍼	-6289
▁벽돌	-6290
▁분이	-6291
▁브래	-6292
▁비벼	-6293
▁새키	-6294
▁소환	-6295
▁슛폼	-6296
▁스몰	-6297
▁스킬	-6298
▁스틸	-6299
▁시벌	-6300
▁시팔	-6301
▁악셀	-6302
▁안먹	-6303
▁알동	-6304
▁어째	-6305
▁없애	-6306
▁여성	-6307
▁연승	-6308
▁와라	-6309
▁왁겆	-6310
▁왁국	-6311
▁왁은	-6312
▁유다	-6313
▁음주	-6314
▁이탈	-6315
▁입문	-6316
▁저녁	-6317
▁저희	-6318
▁전승	-6319
▁정면	-6320
▁제외	-6321
▁좋았	-6322
▁좌타	-6323
▁주면	-6324
▁주심	-6325
▁중견	-6326
▁지고	-6327
▁지맨	-6328
▁지찬	-6329
▁진작	-6330
▁진행	-6331
▁짜증	-6332
▁커트	-6333
▁크다	-6334
▁테크	-6335
▁패션	-6336
▁펄츠	-6337
▁평소	-6338
▁포구	-6339
▁포크	-6340
▁학벌	-6341
▁할거	-6342
▁해체	-6343
▁혐오	-6344
▁호수	-6345
▁힐드	-6346
☆☆☆	-6347
가는게	-6348
고있는	-6349
년동안	-6350
년연속	-6351
던지네	-6352
라던데	-6353
레이드	-6354
멕시코	-6355
버리고	-6356
분들은	-6357
새기들	-6358
셨네요	-6359
스탠튼	-6360
았다고	-6361
으로도	-6362
으면서	-6363
중에서	-6364
하겠죠	-6365
할거면	-6366
real	-6367
▁180	-6368
▁MLB	-6369
▁개즈마	-6370
▁경리신	-6371
▁귀쇼가	-6372
▁네좆이	-6373
▁대좆간	-6374
▁로아이	-6375
▁릅무국	-6376
▁마스크	-6377
▁말하는	-6378
▁매국노	-6379
▁매니아	-6380
▁머레이	-6381
▁머중신	-6382
▁못이기	-6383
▁못하냐	-6384
▁밀어내	-6385
▁배신자	-6386
▁베르탄	-6387
▁보네요	-6388
▁부스찌	-6389
▁비엘리	-6390
▁설레발	-6391
▁신인왕	-6392
▁싶은데	-6393
▁아는데	-6394
▁아시는	-6395
▁암전드	-6396
▁양현종	-6397
▁어지간	-6398
▁언해피	-6399
▁오클이	-6400
▁우승반	-6401
▁윤석민	-6402
▁이길거	-6403
▁이상한	-6404
▁일반인	-6405
▁자이언	-6406
▁잘하노	-6407
▁잡으면	-6408
▁재밌는	-6409
▁저미들	-6410
▁전라도	-6411
▁정화짤	-6412
▁졸켓몬	-6413
▁좆슨신	-6414
▁축잘알	-6415
▁출산율	-6416
▁포틀은	-6417
▁하나요	-6418
▁합니까	-6419
▁해붕스	-6420
▁홈런이	-6421
▁히틀러	-6422
고있는데	-6423
드립니다	-6424
▁2018	-6425
▁ALCS	-6426
▁나오나요	-6427
▁낭낭하게	-6428
▁다시보는	-6429
▁라미레즈	-6430
▁릅퀴들이	-6431
▁베르탕스	-6432
▁부들부들	-6433
▁빅게임피	-6434
▁시즌아웃	-6435
▁씹ᄏᄏᄏ	-6436
▁아쉽네요	-6437
▁안됩니까	-6438
▁야구선수	-6439
▁양키스가	-6440
▁여자친구	-6441
▁음해하던	-6442
▁이악물고	-6443
▁저새끼도	-6444
▁지랄하네	-6445
▁챔피언십	-6446
▁체인지업	-6447
▁탬파베이	-6448
▁포르징기	-6449
▁호날두가	-6450
▁호수프레	-6451
ᄃᄃᄃᄃᄃᄃ	-6452
▁거지새끼들	-6453
▁더브란트님	-6454
▁미드레인지	-6455
▁병신새끼들	-6456
▁보고싶네요	-6457
▁스웨덴한테	-6458
▁스트레일리	-6459
▁시발ᄏᄏᄏ	-6460
▁존나잘하네	-6461
........	-6462
ᅲᅲᅲᅲᅲᅲᅲᅲ	-6463
-6	-6464
-9	-6465
ra	-6466
▁ᅳ	-6467
▁곰	-6468
▁끔	-6469
▁낳	-6470
▁님	-6471
▁섞	-6472
▁섬	-6473
▁싼	-6474
▁익	-6475
▁쥬	-6476
▁캡	-6477
▁콥	-6478
▁햇	-6479
공황	-6480
꾸역	-6481
나기	-6482
나도	-6483
넣고	-6484
년째	-6485
느니	-6486
니악	-6487
님은	-6488
독일	-6489
동산	-6490
때매	-6491
라딱	-6492
러지	-6493
리언	-6494
리케	-6495
마크	-6496
메기	-6497
메좆	-6498
미가	-6499
미신	-6500
봤다	-6501
빼라	-6502
샛기	-6503
선민	-6504
순간	-6505
시네	-6506
싯팔	-6507
쓰리	-6508
씹창	-6509
안카	-6510
어디	-6511
없고	-6512
에만	-6513
연습	-6514
왔네	-6515
원정	-6516
유율	-6517
으러	-6518
익수	-6519
인드	-6520
일지	-6521
잡네	-6522
져도	-6523
지영	-6524
쩐다	-6525
찐따	-6526
차가	-6527
처리	-6528
쳐라	-6529
타카	-6530
팬이	-6531
포수	-6532
할까	-6533
회전	-6534
▁02	-6535
▁36	-6536
▁to	-6537
▁가까	-6538
▁가끔	-6539
▁갔다	-6540
▁강한	-6541
▁개판	-6542
▁경험	-6543
▁고정	-6544
▁기복	-6545
▁김민	-6546
▁나음	-6547
▁넣어	-6548
▁노예	-6549
▁논란	-6550
▁당시	-6551
▁데이	-6552
▁도와	-6553
▁동료	-6554
▁든든	-6555
▁디씨	-6556
▁떴다	-6557
▁레딧	-6558
▁루키	-6559
▁마라	-6560
▁막판	-6561
▁매년	-6562
▁먹어	-6563
▁먼시	-6564
▁메인	-6565
▁문화	-6566
▁벽신	-6567
▁복수	-6568
▁빡세	-6569
▁사마	-6570
▁산신	-6571
▁세컨	-6572
▁소름	-6573
▁시환	-6574
▁싸우	-6575
▁씹오	-6576
▁압도	-6577
▁야채	-6578
▁여지	-6579
▁오푼	-6580
▁옵스	-6581
▁왜안	-6582
▁왜캐	-6583
▁왼쪽	-6584
▁위닝	-6585
▁위엄	-6586
▁윌리	-6587
▁저격	-6588
▁전자	-6589
▁전형	-6590
▁정품	-6591
▁젠가	-6592
▁조심	-6593
▁좆빙	-6594
▁좆욕	-6595
▁주장	-6596
▁쥐가	-6597
▁지들	-6598
▁차별	-6599
▁처리	-6600
▁취소	-6601
▁코트	-6602
▁트더	-6603
▁파리	-6604
▁판단	-6605
▁폭풍	-6606
▁형들	-6607
▁화장	-6608
▁회복	-6609
강따리	-6610
급이네	-6611
까지만	-6612
끝나고	-6613
년만에	-6614
는거야	-6615
도없는	-6616
되는지	-6617
리그는	-6618
만큼은	-6619
못하는	-6620
베이가	-6621
보다도	-6622
보이는	-6623
앗는데	-6624
였나요	-6625
였는지	-6626
팀인데	-6627
하겠지	-6628
▁die	-6629
▁개동희	-6630
▁개시발	-6631
▁거지네	-6632
▁결정적	-6633
▁광역시	-6634
▁그러면	-6635
▁그리고	-6636
▁김준태	-6637
▁나온다	-6638
▁단체로	-6639
▁돈스찌	-6640
▁돌아와	-6641
▁돼졸스	-6642
▁로사노	-6643
▁마이크	-6644
▁맞으면	-6645
▁메시가	-6646
▁목소리	-6647
▁못한다	-6648
▁보이는	-6649
▁빛강인	-6650
▁살아남	-6651
▁수비도	-6652
▁슛차트	-6653
▁신구장	-6654
▁아이폰	-6655
▁야브로	-6656
▁약보지	-6657
▁어디로	-6658
▁어쩌다	-6659
▁얼굴이	-6660
▁여자는	-6661
▁올느바	-6662
▁올해가	-6663
▁와중에	-6664
▁완전히	-6665
▁왜자꾸	-6666
▁외국인	-6667
▁원하는	-6668
▁웨스트	-6669
▁음해가	-6670
▁인터넷	-6671
▁일본에	-6672
▁임팩트	-6673
▁정도로	-6674
▁제구가	-6675
▁좆닉스	-6676
▁좋겠음	-6677
▁중에서	-6678
▁지린다	-6679
▁추하네	-6680
▁축구가	-6681
▁커쇼가	-6682
▁컨디션	-6683
▁켈리신	-6684
▁코빙턴	-6685
▁클리퍼	-6686
▁클퍼가	-6687
▁타석에	-6688
▁토트넘	-6689
▁팔좆간	-6690
▁페르난	-6691
▁프런트	-6692
▁피눈물	-6693
▁필라는	-6694
▁한국의	-6695
▁한번만	-6696
▁핵애틀	-6697
▁했더니	-6698
고싶네요	-6699
었습니다	-6700
▁39.7	-6701
▁갈매기랑	-6702
▁그와중에	-6703
▁노폭전드	-6704
▁누가봐도	-6705
▁댈러스가	-6706
▁릅퀴들은	-6707
▁마지막에	-6708
▁문사무관	-6709
▁박지성은	-6710
▁사무국의	-6711
▁수전노가	-6712
▁순수실력	-6713
▁아니네요	-6714
▁아르헨티	-6715
▁어떻게든	-6716
▁언제까지	-6717
▁올라오면	-6718
▁월시에서	-6719
▁응원하는	-6720
▁있습니다	-6721
▁정의구현	-6722
▁좆같네요	-6723
▁타구속도	-6724
▁탠튼신의	-6725
▁피지컬로	-6726
▁휴지통은	-6727
!!!!!!	-6728
▁생각해보면	-6729
▁존나웃기네	-6730
.0	-6731
<<	-6732
BC	-6733
cp	-6734
ᄀᄉ	-6735
ᄏᄀ	-6736
▁U	-6737
▁◇	-6738
▁값	-6739
▁깡	-6740
▁낸	-6741
▁냅	-6742
▁땡	-6743
▁샼	-6744
▁쭉	-6745
▁켄	-6746
가야	-6747
같냐	-6748
공격	-6749
과는	-6750
근막	-6751
긴한	-6752
나온	-6753
내는	-6754
넣네	-6755
년뒤	-6756
노맥	-6757
느라	-6758
단장	-6759
당탕	-6760
등이	-6761
라린	-6762
란다	-6763
려는	-6764
롸잇	-6765
르냐	-6766
리다	-6767
마냥	-6768
마켓	-6769
만두	-6770
만이	-6771
만함	-6772
맞냐	-6773
맞다	-6774
맞지	-6775
배추	-6776
벤트	-6777
병호	-6778
봐서	-6779
브스	-6780
블락	-6781
비스	-6782
상은	-6783
센세	-6784
센터	-6785
수신	-6786
순이	-6787
스형	-6788
시각	-6789
십쇼	-6790
앞에	-6791
오지	-6792
완료	-6793
왔다	-6794
운게	-6795
위팀	-6796
이션	-6797
잖어	-6798
재밌	-6799
적은	-6800
제발	-6801
종훈	-6802
줘서	-6803
친거	-6804
쿰보	-6805
터지	-6806
팀만	-6807
플립	-6808
필더	-6809
하스	-6810
해진	-6811
허벌	-6812
형이	-6813
화재	-6814
회말	-6815
후반	-6816
히고	-6817
히네	-6818
ᄏᄏᄀ	-6819
▁ᄁᄇ	-6820
▁ᄌᄅ	-6821
▁가고	-6822
▁가볍	-6823
▁개런	-6824
▁거임	-6825
▁관공	-6826
▁국농	-6827
▁그건	-6828
▁끝난	-6829
▁나쁜	-6830
▁낮은	-6831
▁내내	-6832
▁넘버	-6833
▁늘어	-6834
▁니네	-6835
▁니미	-6836
▁된거	-6837
▁두고	-6838
▁드라	-6839
▁로빈	-6840
▁막아	-6841
▁모셔	-6842
▁못보	-6843
▁뭐지	-6844
▁미첼	-6845
▁반칙	-6846
▁별거	-6847
▁부러	-6848
▁불꽃	-6849
▁비빌	-6850
▁소개	-6851
▁슬프	-6852
▁승우	-6853
▁실망	-6854
▁씨벌	-6855
▁악질	-6856
▁안주	-6857
▁암울	-6858
▁앞에	-6859
▁연고	-6860
▁오열	-6861
▁왔다	-6862
▁원숭	-6863
▁원조	-6864
▁유사	-6865
▁유지	-6866
▁이변	-6867
▁작탐	-6868
▁잡은	-6869
▁재난	-6870
▁저럴	-6871
▁저주	-6872
▁존잘	-6873
▁종목	-6874
▁좆데	-6875
▁좆발	-6876
▁지네	-6877
▁지미	-6878
▁지원	-6879
▁직장	-6880
▁집착	-6881
▁징계	-6882
▁참수	-6883
▁캐치	-6884
▁커브	-6885
▁컨텐	-6886
▁컵스	-6887
▁케인	-6888
▁크면	-6889
▁태풍	-6890
▁터졌	-6891
▁튼튼	-6892
▁팀원	-6893
▁판정	-6894
▁패댁	-6895
▁패턴	-6896
▁평범	-6897
▁프론	-6898
▁하퍼	-6899
▁한테	-6900
▁항의	-6901
▁했던	-6902
▁헤드	-6903
▁현장	-6904
▁화싹	-6905
▁황디	-6906
▁흐름	-6907
가는데	-6908
간다고	-6909
고있음	-6910
나오냐	-6911
당하면	-6912
르텐스	-6913
리는지	-6914
만하면	-6915
분들이	-6916
식축구	-6917
아니다	-6918
어야죠	-6919
없네요	-6920
이었다	-6921
전에서	-6922
챌린지	-6923
회에도	-6924
...?	-6925
▁150	-6926
▁TOP	-6927
▁간만에	-6928
▁경기를	-6929
▁경기장	-6930
▁고딩때	-6931
▁골스가	-6932
▁골스는	-6933
▁그런지	-6934
▁글러브	-6935
▁나가면	-6936
▁놈들은	-6937
▁누구야	-6938
▁대주자	-6939
▁돈찌찌	-6940
▁동탠튼	-6941
▁뒤져라	-6942
▁디포이	-6943
▁또라이	-6944
▁뛰어넘	-6945
▁뜨겁다	-6946
▁류중일	-6947
▁메시는	-6948
▁못들어	-6949
▁미국의	-6950
▁미친년	-6951
▁범가너	-6952
▁불펜이	-6953
▁석민신	-6954
▁선발진	-6955
▁손혁이	-6956
▁스가노	-6957
▁스토리	-6958
▁스피드	-6959
▁시그니	-6960
▁신인가	-6961
▁실력이	-6962
▁씹노잼	-6963
▁아닌거	-6964
▁아무나	-6965
▁암흑호	-6966
▁앤써니	-6967
▁어셀라	-6968
▁에어볼	-6969
▁연봉이	-6970
▁이대호	-6971
▁잘하지	-6972
▁잡아주	-6973
▁저분은	-6974
▁젖닌들	-6975
▁좆노잼	-6976
▁좆되네	-6977
▁좆리안	-6978
▁좋아서	-6979
▁중위는	-6980
▁탈압박	-6981
▁통구이	-6982
▁튀동님	-6983
▁폴신이	-6984
▁하나로	-6985
▁하지만	-6986
▁한명만	-6987
▁형준신	-6988
▁흉노맥	-6989
긴하네요	-6990
는거보니	-6991
스타디움	-6992
어마이어	-6993
하시는지	-6994
하지마라	-6995
한일합방	-6996
할때마다	-6997
해주세요	-6998
▁2017	-6999
▁2021	-7000
▁????	-7001
▁감독으로	-7002
▁개쓰레기	-7003
▁개장수는	-7004
▁개좆같이	-7005
▁괜찮은데	-7006
▁국저스랑	-7007
▁너무하네	-7008
▁느바에서	-7009
▁다르빗슈	-7010
▁데려오면	-7011
▁돈치치는	-7012
▁되겠네요	-7013
▁릅신이랑	-7014
▁리얼월드	-7015
▁만프레드	-7016
▁문재인은	-7017
▁버저비터	-7018
▁사람새끼	-7019
▁생각해도	-7020
▁스프링어	-7021
▁아레나도	-7022
▁안되네요	-7023
▁안되는데	-7024
▁은퇴하고	-7025
▁이겼으면	-7026
▁이새끼가	-7027
▁이제부터	-7028
▁자이니치	-7029
▁조센징들	-7030
▁지랄이네	-7031
▁패귀민우	-7032
▁패귀새끼	-7033
▁포르투갈	-7034
▁피지컬이	-7035
▁하야하라	-7036
▁현재까지	-7037
보고딸치는	-7038
▁ᄋᄉᄋᄉᄉ	-7039
▁글라스나우	-7040
▁네이마르가	-7041
▁콜조심타르	-7042
▁크로넨로스	-7043
▁krugman	-7044
▁ᄉᄉᄉᄉᄉᄉᄉᄉᄉᄉᄉᄉᄉᄉ	-7045
+1	-7046
->	-7047
.6	-7048
15	-7049
75	-7050
PS	-7051
am	-7052
ee	-7053
it	-7054
ᄊᄊ	-7055
▁r	-7056
▁v	-7057
▁꽃	-7058
▁넷	-7059
▁능	-7060
▁뚜	-7061
▁빚	-7062
▁샘	-7063
▁셀	-7064
▁쉐	-7065
▁퍽	-7066
가치	-7067
강에	-7068
강은	-7069
구속	-7070
그만	-7071
그바	-7072
기준	-7073
까면	-7074
너무	-7075
도루	-7076
동엽	-7077
디진	-7078
라가	-7079
랑스	-7080
랜타	-7081
럼프	-7082
마갓	-7083
마스	-7084
마트	-7085
메휴	-7086
박이	-7087
배우	-7088
번은	-7089
보임	-7090
사키	-7091
성신	-7092
성재	-7093
세운	-7094
소바	-7095
쓰면	-7096
아냐	-7097
았지	-7098
연신	-7099
의미	-7100
의점	-7101
이돌	-7102
있게	-7103
있노	-7104
저거	-7105
접대	-7106
정호	-7107
젠탈	-7108
좋다	-7109
지찬	-7110
짓을	-7111
친다	-7112
칸타	-7113
커룸	-7114
타고	-7115
투런	-7116
투펀	-7117
티어	-7118
파티	-7119
포주	-7120
피해	-7121
하마	-7122
한텐	-7123
혜자	-7124
힘틀	-7125
1.1	-7126
100	-7127
abu	-7128
eat	-7129
▁91	-7130
▁DS	-7131
▁KK	-7132
▁eA	-7133
▁kb	-7134
▁ᄇᄃ	-7135
▁가지	-7136
▁개쩔	-7137
▁공은	-7138
▁관리	-7139
▁괴물	-7140
▁극혐	-7141
▁깨리	-7142
▁끌고	-7143
▁끌어	-7144
▁너클	-7145
▁늘서	-7146
▁다운	-7147
▁대은	-7148
▁데스	-7149
▁돈은	-7150
▁동시	-7151
▁되나	-7152
▁되네	-7153
▁뒤집	-7154
▁떡상	-7155
▁많지	-7156
▁말을	-7157
▁모레	-7158
▁못할	-7159
▁무만	-7160
▁묻은	-7161
▁미안	-7162
▁바람	-7163
▁발견	-7164
▁베이	-7165
▁부귀	-7166
▁부탁	-7167
▁비싸	-7168
▁사는	-7169
▁사면	-7170
▁상식	-7171
▁생일	-7172
▁선정	-7173
▁성격	-7174
▁세탁	-7175
▁스페	-7176
▁신시	-7177
▁신의	-7178
▁실수	-7179
▁싸인	-7180
▁쌈바	-7181
▁아픈	-7182
▁안내	-7183
▁안됐	-7184
▁안할	-7185
▁압박	-7186
▁앞서	-7187
▁야이	-7188
▁어딘	-7189
▁엄살	-7190
▁여행	-7191
▁열등	-7192
▁영어	-7193
▁예술	-7194
▁예언	-7195
▁오오	-7196
▁요청	-7197
▁유동	-7198
▁유행	-7199
▁음식	-7200
▁이지	-7201
▁있어	-7202
▁작작	-7203
▁잔여	-7204
▁잘하	-7205
▁장착	-7206
▁점퍼	-7207
▁조상	-7208
▁종료	-7209
▁좋겠	-7210
▁직접	-7211
▁쪽팔	-7212
▁찍은	-7213
▁찢어	-7214
▁챙겨	-7215
▁체감	-7216
▁카바	-7217
▁키가	-7218
▁타고	-7219
▁태명	-7220
▁태업	-7221
▁탱탱	-7222
▁터질	-7223
▁털릴	-7224
▁특이	-7225
▁할카	-7226
▁환상	-7227
▁황욕	-7228
각이네	-7229
갑니다	-7230
고있다	-7231
공무원	-7232
근막염	-7233
긴하네	-7234
나오는	-7235
돌리기	-7236
따리가	-7237
라운드	-7238
로치면	-7239
리스트	-7240
리포트	-7241
만한데	-7242
베이션	-7243
사이트	-7244
선수는	-7245
수있냐	-7246
시키면	-7247
쓰로워	-7248
으려면	-7249
잘하는	-7250
주는거	-7251
지는게	-7252
츠버그	-7253
튜터링	-7254
플라이	-7255
한가요	-7256
▁kbs	-7257
▁mbc	-7258
▁가볍게	-7259
▁가을에	-7260
▁개념글	-7261
▁구자욱	-7262
▁기운이	-7263
▁꾀쟁이	-7264
▁나이가	-7265
▁내년엔	-7266
▁네좆은	-7267
▁다르다	-7268
▁담배값	-7269
▁더블팀	-7270
▁덕배를	-7271
▁던지네	-7272
▁독일전	-7273
▁돼좆간	-7274
▁떨어졌	-7275
▁똑같은	-7276
▁라멜로	-7277
▁로젠탈	-7278
▁릅신도	-7279
▁만루에	-7280
▁맥시코	-7281
▁못치네	-7282
▁바레아	-7283
▁방어율	-7284
▁베이스	-7285
▁벼락신	-7286
▁병디볼	-7287
▁본인이	-7288
▁부동산	-7289
▁빨갱이	-7290
▁새벽에	-7291
▁심한거	-7292
▁씹게이	-7293
▁안넘어	-7294
▁안되지	-7295
▁안하면	-7296
▁안해도	-7297
▁않네요	-7298
▁암흑기	-7299
▁애자르	-7300
▁야동갑	-7301
▁어디냐	-7302
▁어릴때	-7303
▁억지로	-7304
▁에라이	-7305
▁엔트리	-7306
▁외노자	-7307
▁우리나	-7308
▁원투펀	-7309
▁위대한	-7310
▁유명한	-7311
▁응원팀	-7312
▁이새낀	-7313
▁인기팀	-7314
▁인디애	-7315
▁있을까	-7316
▁잘나가	-7317
▁잘했다	-7318
▁재경기	-7319
▁재밌음	-7320
▁저병신	-7321
▁정신차	-7322
▁죽음의	-7323
▁중일콘	-7324
▁천조국	-7325
▁카메라	-7326
▁커리는	-7327
▁타격왕	-7328
▁털리네	-7329
▁테일러	-7330
▁투수진	-7331
▁포그바	-7332
▁하나가	-7333
▁한시즌	-7334
▁홈에서	-7335
나오네요	-7336
네ᄏᄏᄏ	-7337
새끼들도	-7338
했습니다	-7339
▁1718	-7340
▁가짜리그	-7341
▁갓데엔딩	-7342
▁개미레즈	-7343
▁개새끼들	-7344
▁개씨발택	-7345
▁궁금한게	-7346
▁꾸역꾸역	-7347
▁나무위키	-7348
▁나오는거	-7349
▁던지는거	-7350
▁마무리가	-7351
▁메도우스	-7352
▁모르겠고	-7353
▁모르겠다	-7354
▁무난하게	-7355
▁무브먼트	-7356
▁무섭네요	-7357
▁복귀하면	-7358
▁상위충들	-7359
▁생각나는	-7360
▁씨발ᄏᄏ	-7361
▁씨발년이	-7362
▁아닐까요	-7363
▁아무것도	-7364
▁안되는지	-7365
▁알고보니	-7366
▁애틀란타	-7367
▁은퇴하면	-7368
▁음바페는	-7369
▁이민찬호	-7370
▁이쯤에서	-7371
▁잘하는게	-7372
▁하위리가	-7373
▁현지에서	-7374
▁호날두는	-7375
넼ᄏᄏᄏᄏ	-7376
▁개야갤러들	-7377
▁고통스럽게	-7378
▁미친새끼들	-7379
▁보고싶은데	-7380
▁씨발ᄏᄏᄏ	-7381
▁아니었으면	-7382
▁페어뱅크스	-7383
▁시발ᄏᄏᄏᄏ	-7384
av	-7385
ᄇᄃ	-7386
ᄌᄉ	-7387
▁갱	-7388
▁냥	-7389
▁눌	-7390
▁딘	-7391
▁딥	-7392
▁뱃	-7393
▁봊	-7394
▁쌔	-7395
▁엉	-7396
▁옷	-7397
▁퍄	-7398
▁혁	-7399
가락	-7400
가로	-7401
가슴	-7402
개월	-7403
거네	-7404
경수	-7405
고도	-7406
공공	-7407
국뽕	-7408
귀화	-7409
그냥	-7410
근우	-7411
기간	-7412
기업	-7413
긴데	-7414
까고	-7415
남충	-7416
단이	-7417
담배	-7418
당함	-7419
대학	-7420
더스	-7421
되나	-7422
뒤에	-7423
뛰고	-7424
라빈	-7425
랑은	-7426
랭킹	-7427
러스	-7428
련이	-7429
리카	-7430
린데	-7431
무섭	-7432
문정	-7433
미루	-7434
미새	-7435
바닥	-7436
방송	-7437
번에	-7438
번이	-7439
베츠	-7440
본적	-7441
빨로	-7442
사로	-7443
삼영	-7444
수저	-7445
스톤	-7446
시켰	-7447
쓰네	-7448
앗다	-7449
어울	-7450
엄마	-7451
역전	-7452
웅정	-7453
을걸	-7454
이제	-7455
인대	-7456
인영	-7457
임이	-7458
전자	-7459
져야	-7460
좆키	-7461
지냐	-7462
지뉴	-7463
지지	-7464
직다	-7465
첸코	-7466
취급	-7467
캉테	-7468
키로	-7469
토니	-7470
트릭	-7471
한태	-7472
할게	-7473
해민	-7474
해줌	-7475
형님	-7476
후에	-7477
히터	-7478
..?	-7479
LDS	-7480
war	-7481
▁..	-7482
▁82	-7483
▁92	-7484
▁kt	-7485
▁ᄄᄄ	-7486
▁ᄐᄐ	-7487
▁거르	-7488
▁걸어	-7489
▁구멍	-7490
▁그때	-7491
▁기아	-7492
▁깜짝	-7493
▁깝치	-7494
▁꼼수	-7495
▁끔찍	-7496
▁끼리	-7497
▁나머	-7498
▁날씨	-7499
▁너도	-7500
▁네덜	-7501
▁단일	-7502
▁담장	-7503
▁대졸	-7504
▁던진	-7505
▁돈벌	-7506
▁돈이	-7507
▁동농	-7508
▁드랩	-7509
▁디스	-7510
▁립스	-7511
▁막상	-7512
▁만놀	-7513
▁망한	-7514
▁몸에	-7515
▁몸푸	-7516
▁무리	-7517
▁무적	-7518
▁미치	-7519
▁바꾼	-7520
▁바라	-7521
▁박수	-7522
▁발목	-7523
▁배웠	-7524
▁벤클	-7525
▁볼수	-7526
▁북한	-7527
▁불이	-7528
▁불편	-7529
▁블락	-7530
▁사무	-7531
▁삼점	-7532
▁샌즈	-7533
▁선방	-7534
▁스시	-7535
▁스크	-7536
▁스폰	-7537
▁실링	-7538
▁실투	-7539
▁심정	-7540
▁아샨	-7541
▁안부	-7542
▁안에	-7543
▁암만	-7544
▁얀센	-7545
▁양팀	-7546
▁없대	-7547
▁없었	-7548
▁왁뫅	-7549
▁완성	-7550
▁우위	-7551
▁으악	-7552
▁이때	-7553
▁일찍	-7554
▁자욱	-7555
▁잘만	-7556
▁잘치	-7557
▁잘커	-7558
▁점마	-7559
▁조딸	-7560
▁존월	-7561
▁졸장	-7562
▁좀만	-7563
▁좌우	-7564
▁중고	-7565
▁중심	-7566
▁지하	-7567
▁직업	-7568
▁채드	-7569
▁쳐도	-7570
▁최형	-7571
▁캐릭	-7572
▁퀄파	-7573
▁태클	-7574
▁털든	-7575
▁틀어	-7576
▁티키	-7577
▁팀을	-7578
▁팀의	-7579
▁팀하	-7580
▁파출	-7581
▁팬들	-7582
▁포함	-7583
▁폭격	-7584
▁프레	-7585
▁플랍	-7586
▁하긴	-7587
▁하시	-7588
▁한개	-7589
▁한신	-7590
▁할때	-7591
▁해보	-7592
▁핵심	-7593
강가면	-7594
갤러리	-7595
기시작	-7596
나기타	-7597
나와서	-7598
는것도	-7599
다저스	-7600
달라고	-7601
당하는	-7602
델피아	-7603
들이랑	-7604
라고요	-7605
르트와	-7606
리케인	-7607
면서요	-7608
보이네	-7609
블랜드	-7610
새끼도	-7611
스타일	-7612
스트링	-7613
시간에	-7614
에이스	-7615
오피셜	-7616
이라면	-7617
인데요	-7618
일까요	-7619
자리에	-7620
주의자	-7621
코하마	-7622
할만한	-7623
해야함	-7624
▁300	-7625
▁Nba	-7626
▁PSG	-7627
▁ᄋᄊᄊ	-7628
▁가는거	-7629
▁가야죠	-7630
▁개리먼	-7631
▁개쇼는	-7632
▁개쳐발	-7633
▁개형종	-7634
▁공인구	-7635
▁공황신	-7636
▁광고는	-7637
▁그런가	-7638
▁금메달	-7639
▁김지찬	-7640
▁꾸준히	-7641
▁너키치	-7642
▁넘어가	-7643
▁놀라운	-7644
▁느그흥	-7645
▁니들은	-7646
▁다른팀	-7647
▁대머리	-7648
▁더러운	-7649
▁돌아오	-7650
▁똥군기	-7651
▁똥꼬충	-7652
▁릅신과	-7653
▁만나서	-7654
▁맥승희	-7655
▁못해도	-7656
▁무회전	-7657
▁발롱은	-7658
▁방빼라	-7659
▁병디의	-7660
▁병신인	-7661
▁보트탄	-7662
▁브로소	-7663
▁빅클럽	-7664
▁빵동님	-7665
▁상위도	-7666
▁선수단	-7667
▁순위가	-7668
▁순페이	-7669
▁승헌신	-7670
▁시스템	-7671
▁씹어먹	-7672
▁아로자	-7673
▁않는다	-7674
▁에이징	-7675
▁에이튼	-7676
▁여러분	-7677
▁열등감	-7678
▁올라갈	-7679
▁욕하는	-7680
▁울산에	-7681
▁월시는	-7682
▁이거지	-7683
▁이겨야	-7684
▁이기냐	-7685
▁있던데	-7686
▁장원준	-7687
▁저것도	-7688
▁저런거	-7689
▁저슨이	-7690
▁저정도	-7691
▁점유율	-7692
▁젠트리	-7693
▁좆같음	-7694
▁좆쥐는	-7695
▁좆티뉴	-7696
▁죽이고	-7697
▁지찬신	-7698
▁충분히	-7699
▁콤파니	-7700
▁탱탱볼	-7701
▁토레기	-7702
▁투구폼	-7703
▁트레영	-7704
▁팩이버	-7705
▁피더슨	-7706
▁필승조	-7707
▁하지마	-7708
▁허민이	-7709
▁헤이더	-7710
▁호돼지	-7711
▁홈런은	-7712
▁홍어존	-7713
공공의대	-7714
모른직다	-7715
문정인이	-7716
아닌가요	-7717
이라는게	-7718
접대주작	-7719
지않았냐	-7720
하지말고	-7721
>>>>>	-7722
▁GOAT	-7723
▁alcs	-7724
▁가능하지	-7725
▁가을패귀	-7726
▁갈통이는	-7727
▁국저미들	-7728
▁근본없는	-7729
▁다음시즌	-7730
▁독보지가	-7731
▁마라도나	-7732
▁못하는데	-7733
▁버럭이가	-7734
▁벨기에도	-7735
▁브라질도	-7736
▁스웨덴전	-7737
▁스탠튼은	-7738
▁스페인이	-7739
▁시원하게	-7740
▁심하네요	-7741
▁씨발놈아	-7742
▁애미디진	-7743
▁애미터진	-7744
▁약하네요	-7745
▁없습니까	-7746
▁엠비드는	-7747
▁왕택신이	-7748
▁이번에도	-7749
▁이상하게	-7750
▁작년에도	-7751
▁잘한다고	-7752
▁재난지원	-7753
▁저정도면	-7754
▁좆같은데	-7755
▁짱개리거	-7756
▁짱깨리거	-7757
▁펫코파크	-7758
▁하는거냐	-7759
▁하다하다	-7760
▁햄스트링	-7761
▁행복농구	-7762
어야했는데	-7763
인영추미애	-7764
한거같은데	-7765
▁가능합니까	-7766
▁네이마르는	-7767
▁마이너리거	-7768
▁아니였으면	-7769
▁우승했으면	-7770
▁회개합니다	-7771
접대주작맞다	-7772
조국공공의대	-7773
가짜시즌가짜시즌	-7774
문정인이인영추미애	-7775
방탄소년단문정인이인영추미애	-7776
-3	-7777
ip	-7778
st	-7779
ᄎᄉ	-7780
▁H	-7781
▁꽁	-7782
▁끈	-7783
▁넓	-7784
▁델	-7785
▁띠	-7786
▁룰	-7787
▁붕	-7788
▁삐	-7789
▁숫	-7790
▁옐	-7791
▁척	-7792
▁컸	-7793
거야	-7794
계의	-7795
고기	-7796
국가	-7797
귀쇼	-7798
급이	-7799
기훈	-7800
까는	-7801
까리	-7802
나저	-7803
내네	-7804
내티	-7805
노래	-7806
놀라	-7807
느냐	-7808
덕에	-7809
돌이	-7810
동이	-7811
되죠	-7812
듣고	-7813
디는	-7814
라우	-7815
렸노	-7816
로서	-7817
로써	-7818
로운	-7819
리셰	-7820
리즌	-7821
만간	-7822
만명	-7823
만불	-7824
만화	-7825
맘들	-7826
명을	-7827
못해	-7828
민규	-7829
민재	-7830
받네	-7831
받아	-7832
범퇴	-7833
보드	-7834
볼은	-7835
불쌍	-7836
사이	-7837
새꺄	-7838
석이	-7839
세기	-7840
세베	-7841
슈팅	-7842
스케	-7843
승원	-7844
신욱	-7845
쓰냐	-7846
악질	-7847
올려	-7848
원탑	-7849
은듯	-7850
의지	-7851
이밍	-7852
있던	-7853
자원	-7854
젠슨	-7855
조사	-7856
졸살	-7857
주자	-7858
중인	-7859
중임	-7860
츠고	-7861
커는	-7862
커브	-7863
클린	-7864
킨스	-7865
탐슨	-7866
티네	-7867
펙트	-7868
필요	-7869
하며	-7870
하위	-7871
한적	-7872
해지	-7873
호환	-7874
화가	-7875
▁00	-7876
▁1~	-7877
▁61	-7878
▁85	-7879
▁gm	-7880
▁pk	-7881
▁ᄀᄎ	-7882
▁ᄋᄀ	-7883
▁가득	-7884
▁가라	-7885
▁갖다	-7886
▁개오	-7887
▁검증	-7888
▁고맙	-7889
▁그놈	-7890
▁근육	-7891
▁꼴티	-7892
▁끝날	-7893
▁날카	-7894
▁내쉬	-7895
▁넘는	-7896
▁눈이	-7897
▁달려	-7898
▁대니	-7899
▁대박	-7900
▁대회	-7901
▁던졌	-7902
▁두팀	-7903
▁똥캔	-7904
▁뛰는	-7905
▁라빈	-7906
▁리베	-7907
▁릴맥	-7908
▁마시	-7909
▁만드	-7910
▁만큼	-7911
▁맘에	-7912
▁맞아	-7913
▁매독	-7914
▁매물	-7915
▁머니	-7916
▁머임	-7917
▁먹었	-7918
▁메갓	-7919
▁몇퍼	-7920
▁모드	-7921
▁몽고	-7922
▁물건	-7923
▁뭐니	-7924
▁뭘로	-7925
▁바뀐	-7926
▁바빕	-7927
▁바에	-7928
▁박스	-7929
▁버디	-7930
▁보유	-7931
▁보장	-7932
▁분석	-7933
▁분식	-7934
▁비추	-7935
▁비판	-7936
▁살인	-7937
▁새낀	-7938
▁생존	-7939
▁생활	-7940
▁서열	-7941
▁성지	-7942
▁수원	-7943
▁순식	-7944
▁쉑쉑	-7945
▁스탭	-7946
▁시전	-7947
▁싸이	-7948
▁아끼	-7949
▁악성	-7950
▁안가	-7951
▁안잡	-7952
▁애가	-7953
▁야갤	-7954
▁얘가	-7955
▁얘네	-7956
▁에릭	-7957
▁엘리	-7958
▁엘지	-7959
▁엠비	-7960
▁여유	-7961
▁예약	-7962
▁오든	-7963
▁온다	-7964
▁올릴	-7965
▁외곽	-7966
▁원맨	-7967
▁위임	-7968
▁유산	-7969
▁유창	-7970
▁이란	-7971
▁있고	-7972
▁잘뽑	-7973
▁잠시	-7974
▁재경	-7975
▁적응	-7976
▁절반	-7977
▁젖통	-7978
▁졸렬	-7979
▁좆기	-7980
▁좆니	-7981
▁죄송	-7982
▁주목	-7983
▁준원	-7984
▁준희	-7985
▁지도	-7986
▁직원	-7987
▁진주	-7988
▁집어	-7989
▁집중	-7990
▁짤녀	-7991
▁찬물	-7992
▁찬양	-7993
▁추한	-7994
▁축하	-7995
▁치는	-7996
▁치열	-7997
▁치즈	-7998
▁카톡	-7999
▁캉테	-8000
▁커터	-8001
▁클로	-8002
▁클파	-8003
▁털린	-8004
▁토티	-8005
▁통궈	-8006
▁통성	-8007
▁투교	-8008
▁트윗	-8009
▁풀백	-8010
▁하늘	-8011
▁한게	-8012
▁한글	-8013
▁행선	-8014
▁환장	-8015
▁황국	-8016
▁후장	-8017
▁흑우	-8018
▁힘을	-8019
●■●	-8020
가능성	-8021
감독님	-8022
것같음	-8023
그래도	-8024
당탕탕	-8025
더웨이	-8026
등학교	-8027
라이트	-8028
리셰프	-8029
린건지	-8030
말아먹	-8031
부터가	-8032
세미루	-8033
시몬스	-8034
양키스	-8035
언제와	-8036
엇으면	-8037
연타석	-8038
은거임	-8039
을거같	-8040
이는거	-8041
이니까	-8042
인거지	-8043
자체가	-8044
좋은데	-8045
지는데	-8046
차전은	-8047
최고의	-8048
칸타라	-8049
하고도	-8050
호날두	-8051
@@@@	-8052
ᅮᅮᅮᅮ	-8053
▁110	-8054
▁감독도	-8055
▁개인기	-8056
▁개자르	-8057
▁건강한	-8058
▁결승전	-8059
▁귀쇼는	-8060
▁귀여운	-8061
▁깜둥이	-8062
▁나오지	-8063
▁나왔네	-8064
▁늡갤러	-8065
▁다저슨	-8066
▁당하는	-8067
▁대일본	-8068
▁더럽게	-8069
▁돌렐신	-8070
▁돼정공	-8071
▁득점권	-8072
▁딱봐도	-8073
▁떨어질	-8074
▁로빈슨	-8075
▁르메휴	-8076
▁릴지영	-8077
▁립스루	-8078
▁만드는	-8079
▁망천은	-8080
▁맞네요	-8081
▁머은리	-8082
▁메츠는	-8083
▁몇경기	-8084
▁모가지	-8085
▁문제는	-8086
▁박병호	-8087
▁볼수록	-8088
▁볼수있	-8089
▁비하면	-8090
▁사마귀	-8091
▁삼영신	-8092
▁상남자	-8093
▁선발은	-8094
▁선수임	-8095
▁세이콘	-8096
▁수비를	-8097
▁스코어	-8098
▁스티븐	-8099
▁신매기	-8100
▁실물로	-8101
▁쓰는거	-8102
▁쓰는게	-8103
▁씹거품	-8104
▁씹뫅은	-8105
▁아침에	-8106
▁알투베	-8107
▁앞에서	-8108
▁야구가	-8109
▁언제쯤	-8110
▁역겨운	-8111
▁역스윕	-8112
▁염경리	-8113
▁올려라	-8114
▁왜저럼	-8115
▁우리촤	-8116
▁원태인	-8117
▁이걸로	-8118
▁이겼다	-8119
▁이기지	-8120
▁이길듯	-8121
▁이름값	-8122
▁이성규	-8123
▁일낸다	-8124
▁있는게	-8125
▁잘해서	-8126
▁잡히네	-8127
▁재능은	-8128
▁재미는	-8129
▁잭라빈	-8130
▁저지신	-8131
▁점수차	-8132
▁정도는	-8133
▁조만간	-8134
▁족더슨	-8135
▁졸쿠냐	-8136
▁좆될뻔	-8137
▁좆지랄	-8138
▁좋은거	-8139
▁주인공	-8140
▁집에서	-8141
▁챌린지	-8142
▁카펠라	-8143
▁컨트롤	-8144
▁코두순	-8145
▁쿰보랑	-8146
▁타격폼	-8147
▁타선이	-8148
▁터너신	-8149
▁트위터	-8150
▁파나마	-8151
▁팬들이	-8152
▁편의점	-8153
▁평가좀	-8154
▁하세베	-8155
▁한동희	-8156
▁해붕이	-8157
▁해주면	-8158
▁홍어는	-8159
▁휴식일	-8160
▁흡연충	-8161
같은새끼	-8162
고싶은데	-8163
마렵네요	-8164
사랑해요	-8165
안카를로	-8166
야겠네요	-8167
이였으면	-8168
저근막염	-8169
했었는데	-8170
▁3000	-8171
▁ᄇᄃᄇᄃ	-8172
▁★★★★	-8173
▁개병신이	-8174
▁개야갤은	-8175
▁나오는데	-8176
▁늡갤에서	-8177
▁댈러스는	-8178
▁들어가면	-8179
▁마렵네요	-8180
▁마르셀로	-8181
▁먹나카는	-8182
▁모르겠음	-8183
▁미친년아	-8184
▁버럭신은	-8185
▁베르탄스	-8186
▁병신들은	-8187
▁보이는데	-8188
▁승희신이	-8189
▁신시내티	-8190
▁씹새끼들	-8191
▁아까부터	-8192
▁아자르가	-8193
▁안했으면	-8194
▁앰흑새끼	-8195
▁야나기타	-8196
▁역겹네요	-8197
▁연장계약	-8198
▁오타비노	-8199
▁올라가면	-8200
▁우승해야	-8201
▁의미없는	-8202
▁입장에선	-8203
▁장기계약	-8204
▁재밌어요	-8205
▁좋겠는데	-8206
▁쥐가오리	-8207
▁지만신이	-8208
▁크리스폴	-8209
▁탈락하면	-8210
▁헤이워드	-8211
▁호나우두	-8212
▁황금세대	-8213
네ᄏᄏᄏᄏ	-8214
▁ᄋᄉᄀᄇᄉ	-8215
▁ᄋᄉᄇᄎᄉ	-8216
▁궁금하네요	-8217
▁그립습니다	-8218
▁될거같은데	-8219
▁스트라이크	-8220
▁어떻습니까	-8221
▁원영이같은	-8222
▁웨스트브룩	-8223
▁일뽕새끼들	-8224
▁ᄅᄌᄂᄇ하죠	-8225
▁생각해보니까	-8226
▁애미뒤진새끼	-8227
이낙연조국공공의대	-8228
심은하황수정신라호텔ᄋ	-8229
-2	-8230
.4	-8231
TR	-8232
en	-8233
ᄒᄒ	-8234
▁/	-8235
▁R	-8236
▁x	-8237
▁객	-8238
▁걷	-8239
▁굉	-8240
▁궁	-8241
▁껴	-8242
▁뎀	-8243
▁됬	-8244
▁뚱	-8245
▁뜯	-8246
▁띵	-8247
▁믹	-8248
▁뼈	-8249
▁뽕	-8250
▁썬	-8251
▁윗	-8252
▁죤	-8253
▁짝	-8254
▁쭈	-8255
▁찔	-8256
▁칰	-8257
▁칸	-8258
▁킥	-8259
▁톰	-8260
▁흠	-8261
각이	-8262
강간	-8263
개로	-8264
개존	-8265
거든	-8266
거부	-8267
겟지	-8268
결과	-8269
고닉	-8270
구리	-8271
규현	-8272
그러	-8273
그림	-8274
근신	-8275
기용	-8276
나갈	-8277
나냐	-8278
나다	-8279
나신	-8280
내라	-8281
널티	-8282
년만	-8283
는대	-8284
니티	-8285
대노	-8286
대맨	-8287
대면	-8288
댕이	-8289
데요	-8290
드라	-8291
럭시	-8292
런지	-8293
르크	-8294
리송	-8295
리존	-8296
리죠	-8297
리타	-8298
리플	-8299
만들	-8300
만은	-8301
먹을	-8302
모르	-8303
뭔데	-8304
바에	-8305
반칙	-8306
버트	-8307
번호	-8308
비비	-8309
비치	-8310
빠진	-8311
서도	-8312
수아	-8313
승락	-8314
시기	-8315
야마	-8316
어진	-8317
역귀	-8318
올리	-8319
요청	-8320
으려	-8321
이내	-8322
이득	-8323
이를	-8324
일거	-8325
임을	-8326
있나	-8327
존슨	-8328
좋음	-8329
즈는	-8330
지에	-8331
짜피	-8332
찡요	-8333
창기	-8334
창년	-8335
타주	-8336
탄핵	-8337
테어	-8338
텔라	-8339
트로	-8340
판정	-8341
포터	-8342
포텐	-8343
필준	-8344
한가	-8345
할땐	-8346
회만	-8347
twt	-8348
▁08	-8349
▁09	-8350
▁42	-8351
▁88	-8352
▁ON	-8353
▁ds	-8354
▁가도	-8355
▁가진	-8356
▁갖고	-8357
▁같아	-8358
▁개와	-8359
▁겁나	-8360
▁고집	-8361
▁고추	-8362
▁공짜	-8363
▁공통	-8364
▁굉장	-8365
▁구글	-8366
▁구리	-8367
▁기원	-8368
▁김진	-8369
▁깜디	-8370
▁꼴랑	-8371
▁나간	-8372
▁냥냥	-8373
▁다노	-8374
▁다름	-8375
▁단순	-8376
▁동희	-8377
▁되죠	-8378
▁디빈	-8379
▁뛰면	-8380
▁라팍	-8381
▁랄에	-8382
▁마누	-8383
▁마엠	-8384
▁만난	-8385
▁만족	-8386
▁말도	-8387
▁매너	-8388
▁못차	-8389
▁반등	-8390
▁반짝	-8391
▁받은	-8392
▁발락	-8393
▁밟은	-8394
▁배팅	-8395
▁브금	-8396
▁브록	-8397
▁비밀	-8398
▁빌런	-8399
▁빌리	-8400
▁사건	-8401
▁삭제	-8402
▁샌안	-8403
▁선넘	-8404
▁소속	-8405
▁수치	-8406
▁슛감	-8407
▁심심	-8408
▁심한	-8409
▁싯팔	-8410
▁쓸데	-8411
▁쓸모	-8412
▁씨엠	-8413
▁씹좆	-8414
▁아나	-8415
▁아재	-8416
▁아처	-8417
▁악의	-8418
▁안갈	-8419
▁안바	-8420
▁애우	-8421
▁앨리	-8422
▁야짤	-8423
▁약빨	-8424
▁얘는	-8425
▁어리	-8426
▁엊첩	-8427
▁영결	-8428
▁옆에	-8429
▁오카	-8430
▁오퍼	-8431
▁월베	-8432
▁위냐	-8433
▁위상	-8434
▁위장	-8435
▁위치	-8436
▁유투	-8437
▁윤성	-8438
▁이동	-8439
▁인물	-8440
▁일베	-8441
▁자가	-8442
▁자전	-8443
▁작전	-8444
▁장점	-8445
▁잭데	-8446
▁저능	-8447
▁전국	-8448
▁전설	-8449
▁전통	-8450
▁전환	-8451
▁점심	-8452
▁정수	-8453
▁정우	-8454
▁졌네	-8455
▁조툰	-8456
▁졸업	-8457
▁좆되	-8458
▁좆첼	-8459
▁좆털	-8460
▁주변	-8461
▁줄어	-8462
▁중립	-8463
▁중반	-8464
▁증거	-8465
▁지명	-8466
▁진거	-8467
▁쪼개	-8468
▁채흥	-8469
▁초아	-8470
▁최상	-8471
▁최선	-8472
▁치치	-8473
▁카카	-8474
▁콜라	-8475
▁콜이	-8476
▁쿰좆	-8477
▁퀄리	-8478
▁태왁	-8479
▁태인	-8480
▁팔끼	-8481
▁팬이	-8482
▁폐급	-8483
▁풋볼	-8484
▁프랜	-8485
▁필드	-8486
▁하기	-8487
▁하노	-8488
▁하락	-8489
▁한건	-8490
▁한심	-8491
▁한참	-8492
▁합리	-8493
▁합성	-8494
▁해념	-8495
▁허슬	-8496
▁혹사	-8497
▁흔들	-8498
감독은	-8499
감독이	-8500
겼네요	-8501
나저나	-8502
당하고	-8503
라니까	-8504
리퍼스	-8505
만하죠	-8506
먹는거	-8507
미가요	-8508
번타자	-8509
보니깐	-8510
보면서	-8511
빠르네	-8512
사람이	-8513
살인데	-8514
스코어	-8515
시키고	-8516
쓰는거	-8517
아파트	-8518
안되는	-8519
없어서	-8520
엇는데	-8521
옵니까	-8522
으신지	-8523
이구나	-8524
이새끼	-8525
이야기	-8526
이었냐	-8527
이잖아	-8528
인건지	-8529
인데도	-8530
인줄알	-8531
자범퇴	-8532
카운트	-8533
퀴들은	-8534
턴오버	-8535
하긴함	-8536
하는법	-8537
할려고	-8538
했을때	-8539
휴지통	-8540
3333	-8541
▁120	-8542
▁130	-8543
▁175	-8544
▁OPS	-8545
▁era	-8546
▁wcs	-8547
▁ᄇᄉ들	-8548
▁ᄋᄋᄋ	-8549
▁✋✋✋	-8550
▁감독님	-8551
▁갔는데	-8552
▁강철콘	-8553
▁개리그	-8554
▁개자지	-8555
▁개좆지	-8556
▁개준우	-8557
▁거기서	-8558
▁겁니까	-8559
▁경기도	-8560
▁관조가	-8561
▁구장이	-8562
▁구토들	-8563
▁그렇고	-8564
▁기분이	-8565
▁꼰틀러	-8566
▁나쁘지	-8567
▁나오고	-8568
▁나와라	-8569
▁내보내	-8570
▁누누신	-8571
▁뉴올은	-8572
▁다른거	-8573
▁다비드	-8574
▁다음은	-8575
▁데려갈	-8576
▁데려올	-8577
▁돈미새	-8578
▁동남아	-8579
▁들어갈	-8580
▁디그린	-8581
▁똥칰이	-8582
▁뜨거운	-8583
▁라리가	-8584
▁랄이랑	-8585
▁러브가	-8586
▁러브는	-8587
▁로드니	-8588
▁루이스	-8589
▁류느님	-8590
▁리액션	-8591
▁마르케	-8592
▁맞대결	-8593
▁메좆이	-8594
▁멸망의	-8595
▁모레혼	-8596
▁못치는	-8597
▁못하지	-8598
▁문선민	-8599
▁문제죠	-8600
▁뭐하러	-8601
▁미스테	-8602
▁미쳣네	-8603
▁민호우	-8604
▁바지신	-8605
▁박세웅	-8606
▁배성재	-8607
▁버거킹	-8608
▁보기싫	-8609
▁보인다	-8610
▁볼터치	-8611
▁봐야지	-8612
▁부럽다	-8613
▁부커가	-8614
▁불쌍한	-8615
▁빠지고	-8616
▁사보니	-8617
▁상위권	-8618
▁새끼도	-8619
▁서브룩	-8620
▁성공한	-8621
▁수준이	-8622
▁스스로	-8623
▁스타팅	-8624
▁스페셜	-8625
▁쓰라린	-8626
▁씹새야	-8627
▁아쉬운	-8628
▁아씨발	-8629
▁안좋아	-8630
▁않은데	-8631
▁야잘알	-8632
▁약관조	-8633
▁어디임	-8634
▁어떨지	-8635
▁어짜피	-8636
▁어쩌고	-8637
▁여자가	-8638
▁오스카	-8639
▁올라올	-8640
▁왔는데	-8641
▁우리는	-8642
▁위해서	-8643
▁이런게	-8644
▁이럴때	-8645
▁이분은	-8646
▁이새기	-8647
▁이치로	-8648
▁이해안	-8649
▁있어야	-8650
▁있었냐	-8651
▁있었음	-8652
▁있을때	-8653
▁자리에	-8654
▁재경튼	-8655
▁재밌네	-8656
▁조선은	-8657
▁조용히	-8658
▁좆본은	-8659
▁좋던데	-8660
▁주이신	-8661
▁중거리	-8662
▁중견수	-8663
▁지들이	-8664
▁쿤보가	-8665
▁타자가	-8666
▁타자는	-8667
▁태웃기	-8668
▁튜터링	-8669
▁트리플	-8670
▁팩국지	-8671
▁펠꿈치	-8672
▁포워드	-8673
▁폴란드	-8674
▁프라이	-8675
▁한만두	-8676
▁현시점	-8677
▁화이팅	-8678
▁화장실	-8679
▁희망고	-8680
▁히어로	-8681
████	-8682
꺼같은데	-8683
야하는데	-8684
이긴한데	-8685
이네ᄏᄏ	-8686
패스트볼	-8687
하는거야	-8688
하는건지	-8689
한건가요	-8690
▁개못하네	-8691
▁국저스에	-8692
▁그나저나	-8693
▁그러는데	-8694
▁너무한거	-8695
▁네갓마갓	-8696
▁단축시즌	-8697
▁대단하다	-8698
▁돼지새끼	-8699
▁드론맨이	-8700
▁떨어지면	-8701
▁머니그린	-8702
▁모르는데	-8703
▁뭐합니까	-8704
▁미드필더	-8705
▁미친놈아	-8706
▁베르통언	-8707
▁병레빈저	-8708
▁병신들이	-8709
▁비교하면	-8710
▁사무국이	-8711
▁생겼네요	-8712
▁순식간에	-8713
▁스찌라고	-8714
▁스타일이	-8715
▁아직까지	-8716
▁안나오는	-8717
▁애미없는	-8718
▁애틀랜타	-8719
▁어디갔냐	-8720
▁어지간히	-8721
▁우승반지	-8722
▁우승한다	-8723
▁우승할거	-8724
▁우승해서	-8725
▁원투펀치	-8726
▁이탈리아	-8727
▁인스타에	-8728
▁있었어도	-8729
▁저따구로	-8730
▁저새끼들	-8731
▁좆같으면	-8732
▁좆고메리	-8733
▁지맨초이	-8734
▁진지빨고	-8735
▁찍찍노가	-8736
▁찍찍노들	-8737
▁카와이는	-8738
▁케이리그	-8739
▁티키타카	-8740
▁팩무위키	-8741
▁플레이어	-8742
▁하겠네요	-8743
▁하워드는	-8744
▁하지마라	-8745
▁홍어우승	-8746
인거같은데	-8747
▁Chabu	-8748
▁글라스노우	-8749
▁마이너리그	-8750
▁모드리치가	-8751
▁상식적으로	-8752
▁생각했는데	-8753
▁신기하네요	-8754
▁이새끼들은	-8755
▁클리블랜드	-8756
▁포르징기스	-8757
▁후후하네요	-8758
▁ᄅᄌᄂᄇ한데	-8759
--------	-8760
▁ᄉᄉᄉᄉᄉᄉᄉ	-8761
powerball	-8762
▁ᄃᄃᄃᄃᄃᄃᄃᄃᄃᄃᄃ	-8763
TX	-8764
ew	-8765
ou	-8766
▁h	-8767
▁겉	-8768
▁곱	-8769
▁멈	-8770
▁며	-8771
▁뭉	-8772
▁뮤	-8773
▁삶	-8774
▁셉	-8775
▁쏠	-8776
▁씻	-8777
▁춤	-8778
▁팡	-8779
▁헌	-8780
▁훅	-8781
갖고	-8782
개좆	-8783
것들	-8784
겼다	-8785
공에	-8786
국은	-8787
국적	-8788
규민	-8789
그렇	-8790
그리	-8791
기신	-8792
꺼면	-8793
껀데	-8794
내가	-8795
너블	-8796
대의	-8797
럽네	-8798
렐라	-8799
릴거	-8800
많음	-8801
맘바	-8802
맨이	-8803
멤버	-8804
미터	-8805
반응	-8806
버프	-8807
벌레	-8808
분을	-8809
빠른	-8810
빨리	-8811
사건	-8812
사님	-8813
사장	-8814
산다	-8815
스랑	-8816
신기	-8817
실듯	-8818
씹덕	-8819
앰창	-8820
엇네	-8821
역할	-8822
예능	-8823
왜저	-8824
워도	-8825
위에	-8826
이리	-8827
인물	-8828
인정	-8829
일로	-8830
임즈	-8831
잇냐	-8832
있고	-8833
있죠	-8834
자라	-8835
잡는	-8836
전을	-8837
조냐	-8838
종일	-8839
질문	-8840
찍은	-8841
차는	-8842
쳤다	-8843
카드	-8844
톡방	-8845
통피	-8846
팀을	-8847
판단	-8848
판왕	-8849
펭펭	-8850
포가	-8851
피자	-8852
하길	-8853
하이	-8854
핸들	-8855
허용	-8856
형욱	-8857
혼자	-8858
홀스	-8859
die	-8860
ews	-8861
▁77	-8862
▁NC	-8863
▁Sk	-8864
▁가정	-8865
▁간단	-8866
▁개념	-8867
▁개패	-8868
▁갤에	-8869
▁갤질	-8870
▁건드	-8871
▁건지	-8872
▁경고	-8873
▁고마	-8874
▁공만	-8875
▁귀브	-8876
▁그날	-8877
▁금지	-8878
▁기름	-8879
▁난사	-8880
▁남았	-8881
▁너희	-8882
▁넘게	-8883
▁노려	-8884
▁노원	-8885
▁높아	-8886
▁높음	-8887
▁누굽	-8888
▁더쇼	-8889
▁더잘	-8890
▁덩치	-8891
▁도미	-8892
▁도발	-8893
▁도입	-8894
▁두순	-8895
▁드는	-8896
▁드르	-8897
▁딘위	-8898
▁만퍼	-8899
▁말론	-8900
▁맞았	-8901
▁맞춰	-8902
▁맥시	-8903
▁먹은	-8904
▁멀쩡	-8905
▁면상	-8906
▁명단	-8907
▁몸이	-8908
▁몸쪽	-8909
▁못본	-8910
▁뭐여	-8911
▁미니	-8912
▁미미	-8913
▁미팅	-8914
▁바꿨	-8915
▁박고	-8916
▁박아	-8917
▁반박	-8918
▁밥먹	-8919
▁백업	-8920
▁버튼	-8921
▁벌어	-8922
▁범인	-8923
▁보강	-8924
▁보그	-8925
▁보러	-8926
▁복판	-8927
▁부인	-8928
▁브랜	-8929
▁브루	-8930
▁사귀	-8931
▁산왕	-8932
▁생리	-8933
▁선신	-8934
▁선임	-8935
▁세금	-8936
▁세웅	-8937
▁섹터	-8938
▁속공	-8939
▁시민	-8940
▁신고	-8941
▁싶네	-8942
▁아닙	-8943
▁아파	-8944
▁안걸	-8945
▁안느	-8946
▁안통	-8947
▁안티	-8948
▁않는	-8949
▁압살	-8950
▁약이	-8951
▁어따	-8952
▁없제	-8953
▁여름	-8954
▁역할	-8955
▁염병	-8956
▁염원	-8957
▁영원	-8958
▁오우	-8959
▁올린	-8960
▁외질	-8961
▁웃김	-8962
▁워낙	-8963
▁의사	-8964
▁인데	-8965
▁자고	-8966
▁자세	-8967
▁자식	-8968
▁자연	-8969
▁자제	-8970
▁자투	-8971
▁잔류	-8972
▁재수	-8973
▁적립	-8974
▁전세	-8975
▁정체	-8976
▁조건	-8977
▁존경	-8978
▁존이	-8979
▁졸거	-8980
▁좋냐	-8981
▁주는	-8982
▁죽었	-8983
▁지게	-8984
▁지나	-8985
▁지능	-8986
▁진실	-8987
▁차갑	-8988
▁착각	-8989
▁참고	-8990
▁창원	-8991
▁처발	-8992
▁첩자	-8993
▁취미	-8994
▁침몰	-8995
▁카우	-8996
▁컴패	-8997
▁코버	-8998
▁콘리	-8999
▁킬구	-9000
▁태움	-9001
▁택배	-9002
▁팀도	-9003
▁팔아	-9004
▁페덱	-9005
▁포가	-9006
▁포옹	-9007
▁폭망	-9008
▁폴조	-9009
▁하얀	-9010
▁하킴	-9011
▁학식	-9012
▁할말	-9013
▁합작	-9014
▁해줄	-9015
▁허구	-9016
▁헤어	-9017
▁혈통	-9018
▁호무	-9019
▁혼다	-9020
▁확인	-9021
▁황랄	-9022
갔네요	-9023
갤에서	-9024
거르고	-9025
것처럼	-9026
고싶은	-9027
국에서	-9028
급이냐	-9029
기라도	-9030
나이대	-9031
냐ᄏᄏ	-9032
답네요	-9033
당하네	-9034
드리드	-9035
들어가	-9036
라이브	-9037
라인업	-9038
레빈져	-9039
롤디스	-9040
루에서	-9041
리는중	-9042
리에타	-9043
망주들	-9044
버럭신	-9045
봤으면	-9046
사이드	-9047
센징들	-9048
시네요	-9049
신이나	-9050
신이죠	-9051
아닌데	-9052
에서만	-9053
역겹네	-9054
위하면	-9055
으려나	-9056
이강인	-9057
인거냐	-9058
있는게	-9059
잘한다	-9060
줘야지	-9061
차이즈	-9062
팀으로	-9063
합시다	-9064
해봐야	-9065
▁1.1	-9066
▁144	-9067
▁2.2	-9068
▁kkk	-9069
▁psg	-9070
▁ᄅᄋ로	-9071
▁ᄑᄐᄎ	-9072
▁강인아	-9073
▁개미친	-9074
▁공중파	-9075
▁그러고	-9076
▁기가막	-9077
▁나머지	-9078
▁나온거	-9079
▁나전범	-9080
▁나혼산	-9081
▁남았다	-9082
▁너클볼	-9083
▁농구가	-9084
▁늡붕이	-9085
▁닥치고	-9086
▁담배피	-9087
▁덕배가	-9088
▁도망콜	-9089
▁돌팅리	-9090
▁따라잡	-9091
▁떠나서	-9092
▁라이트	-9093
▁라커룸	-9094
▁로페즈	-9095
▁로하스	-9096
▁만패는	-9097
▁많나요	-9098
▁망천노	-9099
▁맨시티	-9100
▁머가리	-9101
▁멸망각	-9102
▁몇개를	-9103
▁모니악	-9104
▁몸싸움	-9105
▁못잡네	-9106
▁못치면	-9107
▁못하게	-9108
▁문재앙	-9109
▁밀좆키	-9110
▁박해민	-9111
▁반만패	-9112
▁버러지	-9113
▁베벌리	-9114
▁보는지	-9115
▁부모님	-9116
▁부상임	-9117
▁분데스	-9118
▁비더레	-9119
▁빨대맨	-9120
▁사람은	-9121
▁생긴거	-9122
▁소름돋	-9123
▁스위스	-9124
▁스찌만	-9125
▁스텝백	-9126
▁시대가	-9127
▁시대에	-9128
▁시즌초	-9129
▁아시발	-9130
▁아쿠냐	-9131
▁안나온	-9132
▁안되죠	-9133
▁안하네	-9134
▁야구에	-9135
▁언더독	-9136
▁엠창팀	-9137
▁영양가	-9138
▁옛날에	-9139
▁오클은	-9140
▁왜저래	-9141
▁요시다	-9142
▁우승한	-9143
▁우준신	-9144
▁웃음벨	-9145
▁원탑은	-9146
▁윤석신	-9147
▁이래도	-9148
▁이벤트	-9149
▁일본을	-9150
▁자동문	-9151
▁자전거	-9152
▁잡았다	-9153
▁장재영	-9154
▁잰슨이	-9155
▁저번에	-9156
▁적어도	-9157
▁조선이	-9158
▁졸모스	-9159
▁좆됐다	-9160
▁좆몬스	-9161
▁좆스머	-9162
▁좆차도	-9163
▁지는거	-9164
▁지랄병	-9165
▁지하철	-9166
▁찬빈신	-9167
▁추하다	-9168
▁크네요	-9169
▁터지면	-9170
▁털리면	-9171
▁트래핑	-9172
▁패배의	-9173
▁포인트	-9174
▁포크볼	-9175
▁프랑코	-9176
▁필리스	-9177
▁하면서	-9178
▁한계가	-9179
▁한마디	-9180
▁했다고	-9181
▁헤드샷	-9182
▁확실한	-9183
▁황자르	-9184
▁흑규현	-9185
겠습니까	-9186
는거보소	-9187
우승하면	-9188
지않은지	-9189
하는것도	-9190
한다는데	-9191
▁NLCS	-9192
▁ᄅᄋᄏᄏ	-9193
▁그러니까	-9194
▁그립네요	-9195
▁기미가요	-9196
▁나왔는데	-9197
▁내년부터	-9198
▁누가이김	-9199
▁누구있냐	-9200
▁누군가요	-9201
▁누굽니까	-9202
▁느낌인데	-9203
▁듀란트는	-9204
▁떨어지는	-9205
▁뛰었으면	-9206
▁릅갈통은	-9207
▁릅갈통이	-9208
▁릅신한테	-9209
▁멕시코는	-9210
▁무키베츠	-9211
▁미식축구	-9212
▁사무라이	-9213
▁삼자범퇴	-9214
▁상위리그	-9215
▁상위오면	-9216
▁생각하니	-9217
▁선수들은	-9218
▁씹왁멸망	-9219
▁아닙니다	-9220
▁아름다운	-9221
▁아시안겜	-9222
▁아침부터	-9223
▁어디까지	-9224
▁얼마정도	-9225
▁오늘부터	-9226
▁요코하마	-9227
▁월드컵이	-9228
▁이겼네요	-9229
▁좆같은게	-9230
▁준태맥켄	-9231
▁지금부터	-9232
▁초구아웃	-9233
▁컴패리즌	-9234
▁케빈러브	-9235
▁팩스미스	-9236
▁프레이저	-9237
▁피츠버그	-9238
▁하루종일	-9239
▁하위진출	-9240
▁희망고문	-9241
▁?????	-9242
▁국뽕새끼들	-9243
▁방탄소년단	-9244
▁아모른직다	-9245
▁어느정도임	-9246
▁우승하는게	-9247
▁축알못인데	-9248
▁크로넨워스	-9249
▁트레이드로	-9250
▁필라델피아	-9251
▁개야갤러들이	-9252
방탄소년단입대	-9253
▁시발ᄏᄏᄏᄏᄏ	-9254
▁죽어죽어죽어죽어죽어	-9255
-7	-9256
40	-9257
AK	-9258
ER	-9259
PL	-9260
zz	-9261
ᄂᄂ	-9262
ᄐᄏ	-9263
▁ᅮ	-9264
▁굿	-9265
▁깰	-9266
▁낙	-9267
▁났	-9268
▁넥	-9269
▁눕	-9270
▁떼	-9271
▁맷	-9272
▁멱	-9273
▁웅	-9274
▁윾	-9275
▁짬	-9276
▁쫓	-9277
▁측	-9278
▁캥	-9279
▁쿨	-9280
▁턱	-9281
▁툭	-9282
가져	-9283
감정	-9284
강점	-9285
같지	-9286
겟냐	-9287
격이	-9288
공을	-9289
구는	-9290
구석	-9291
국회	-9292
극장	-9293
끼고	-9294
나와	-9295
남신	-9296
너뿐	-9297
놈도	-9298
눈깔	-9299
달고	-9300
답다	-9301
덩크	-9302
도사	-9303
됐냐	-9304
되어	-9305
드만	-9306
들짝	-9307
라멘	-9308
라픽	-9309
러그	-9310
력전	-9311
롭게	-9312
루꾸	-9313
루로	-9314
리누	-9315
린건	-9316
린스	-9317
릴라	-9318
마리	-9319
만나	-9320
말론	-9321
망천	-9322
맞죠	-9323
맴버	-9324
모델	-9325
모튼	-9326
문성	-9327
뭐임	-9328
발진	-9329
배가	-9330
불안	-9331
불어	-9332
불펜	-9333
비가	-9334
비교	-9335
빨이	-9336
사고	-9337
사나	-9338
살아	-9339
상관	-9340
상을	-9341
생이	-9342
섹스	-9343
센트	-9344
수로	-9345
스컴	-9346
시거	-9347
시노	-9348
시마	-9349
아닐	-9350
에비	-9351
여친	-9352
연투	-9353
욤보	-9354
우석	-9355
워라	-9356
워야	-9357
월북	-9358
이게	-9359
인간	-9360
인증	-9361
일드	-9362
있을	-9363
자로	-9364
잖음	-9365
재균	-9366
재미	-9367
재신	-9368
재원	-9369
잭슨	-9370
전환	-9371
점슛	-9372
주인	-9373
죽이	-9374
준원	-9375
줌마	-9376
지현	-9377
질듯	-9378
처먹	-9379
칼로	-9380
커가	-9381
쿠텐	-9382
탈출	-9383
퇴물	-9384
투표	-9385
퍼는	-9386
페이	-9387
포먼	-9388
폭발	-9389
표정	-9390
프티	-9391
필드	-9392
한대	-9393
했어	-9394
회초	-9395
효과	-9396
히면	-9397
힌거	-9398
423	-9399
TXT	-9400
▁!!	-9401
▁97	-9402
▁ᄂᄂ	-9403
▁ᄉᄁ	-9404
▁가솔	-9405
▁각성	-9406
▁강력	-9407
▁거리	-9408
▁건태	-9409
▁걸러	-9410
▁결론	-9411
▁경찰	-9412
▁고민	-9413
▁고전	-9414
▁공돌	-9415
▁급이	-9416
▁기념	-9417
▁기량	-9418
▁김재	-9419
▁까이	-9420
▁꼴아	-9421
▁꼴지	-9422
▁남을	-9423
▁노골	-9424
▁노답	-9425
▁눌러	-9426
▁단점	-9427
▁도박	-9428
▁도쿄	-9429
▁돈도	-9430
▁동안	-9431
▁되게	-9432
▁되어	-9433
▁등신	-9434
▁때가	-9435
▁땜에	-9436
▁똑딱	-9437
▁랜덤	-9438
▁럭스	-9439
▁런던	-9440
▁루카	-9441
▁리벤	-9442
▁리차	-9443
▁리틀	-9444
▁만날	-9445
▁맞은	-9446
▁매드	-9447
▁매번	-9448
▁며칠	-9449
▁멱살	-9450
▁모델	-9451
▁몰빵	-9452
▁몸값	-9453
▁못칠	-9454
▁못키	-9455
▁뫅겆	-9456
▁미남	-9457
▁미녀	-9458
▁미스	-9459
▁민족	-9460
▁밀리	-9461
▁바디	-9462
▁박정	-9463
▁반일	-9464
▁백마	-9465
▁범죄	-9466
▁베트	-9467
▁보겔	-9468
▁봊판	-9469
▁부랄	-9470
▁붙여	-9471
▁브라	-9472
▁비싼	-9473
▁빡빡	-9474
▁살면	-9475
▁상성	-9476
▁색히	-9477
▁선녀	-9478
▁선취	-9479
▁세대	-9480
▁순서	-9481
▁슛을	-9482
▁슛이	-9483
▁슬라	-9484
▁슬램	-9485
▁시켰	-9486
▁싶은	-9487
▁싸게	-9488
▁쓰냐	-9489
▁쓰네	-9490
▁씨이	-9491
▁아담	-9492
▁아데	-9493
▁안본	-9494
▁안해	-9495
▁양가	-9496
▁어마	-9497
▁언젠	-9498
▁얼만	-9499
▁없노	-9500
▁여포	-9501
▁역배	-9502
▁역습	-9503
▁연패	-9504
▁오빠	-9505
▁오심	-9506
▁올랐	-9507
▁운운	-9508
▁웃겼	-9509
▁원흉	-9510
▁유연	-9511
▁의대	-9512
▁의문	-9513
▁이따	-9514
▁이바	-9515
▁이전	-9516
▁이천	-9517
▁이틀	-9518
▁인재	-9519
▁인혜	-9520
▁작은	-9521
▁재산	-9522
▁정훈	-9523
▁존슨	-9524
▁좆간	-9525
▁좆끼	-9526
▁좆시	-9527
▁줘패	-9528
▁지터	-9529
▁쫄깃	-9530
▁차가	-9531
▁차도	-9532
▁카라	-9533
▁캡쳐	-9534
▁커피	-9535
▁큰일	-9536
▁클래	-9537
▁키작	-9538
▁키케	-9539
▁탈탈	-9540
▁태꼴	-9541
▁터치	-9542
▁털어	-9543
▁티맥	-9544
▁퍽유	-9545
▁평자	-9546
▁풋뽕	-9547
▁플로	-9548
▁하도	-9549
▁한대	-9550
▁함께	-9551
▁핸드	-9552
▁허리	-9553
▁헤딩	-9554
▁현찰	-9555
▁형님	-9556
▁호텔	-9557
▁혼혈	-9558
▁후회	-9559
각이냐	-9560
것같은	-9561
경기는	-9562
놈들아	-9563
다나카	-9564
돈으로	-9565
되나요	-9566
듀란트	-9567
들만의	-9568
디아즈	-9569
라는게	-9570
라멘토	-9571
레모어	-9572
를로스	-9573
마무리	-9574
말라고	-9575
버지가	-9576
보이냐	-9577
부르는	-9578
살까지	-9579
선에서	-9580
셀로나	-9581
스페인	-9582
시타카	-9583
야한다	-9584
없는게	-9585
에게서	-9586
역사상	-9587
엿으면	-9588
원에서	-9589
으로만	-9590
이냐고	-9591
이노스	-9592
이닝만	-9593
잘하냐	-9594
점차에	-9595
정은행	-9596
주네요	-9597
지않았	-9598
친스키	-9599
팬들이	-9600
퍼스트	-9601
포지션	-9602
한테만	-9603
할거같	-9604
할때는	-9605
햇는데	-9606
했다가	-9607
했던거	-9608
ᄐᄐᄐᄐ	-9609
ᅡᅡᅡᅡ	-9610
▁0.8	-9611
▁2:0	-9612
▁EPL	-9613
▁eAs	-9614
▁kcp	-9615
▁top	-9616
▁ᄅᄋ루	-9617
▁가는게	-9618
▁가오리	-9619
▁각인데	-9620
▁개스찌	-9621
▁공무원	-9622
▁괜찮아	-9623
▁굉장히	-9624
▁궁금한	-9625
▁귀화할	-9626
▁그것도	-9627
▁그니까	-9628
▁그러게	-9629
▁그렇다	-9630
▁근본이	-9631
▁김민우	-9632
▁김신욱	-9633
▁꼴보기	-9634
▁나올때	-9635
▁나왔다	-9636
▁나이스	-9637
▁남기고	-9638
▁넘기네	-9639
▁넘어지	-9640
▁넘치는	-9641
▁노근본	-9642
▁녹데가	-9643
▁뉴욕은	-9644
▁다음에	-9645
▁다져스	-9646
▁담당일	-9647
▁대부분	-9648
▁대학교	-9649
▁돌아가	-9650
▁됐는데	-9651
▁드라마	-9652
▁드론신	-9653
▁드르렁	-9654
▁디조던	-9655
▁때마다	-9656
▁랄무국	-9657
▁마스터	-9658
▁마인드	-9659
▁막말로	-9660
▁많은지	-9661
▁머머리	-9662
▁메이를	-9663
▁명박드	-9664
▁명장병	-9665
▁못가면	-9666
▁못나오	-9667
▁무리뉴	-9668
▁미국인	-9669
▁미래는	-9670
▁미쳤냐	-9671
▁바꿔야	-9672
▁받으면	-9673
▁방남신	-9674
▁밸런스	-9675
▁버려야	-9676
▁베이즈	-9677
▁병디팬	-9678
▁병신짓	-9679
▁보는게	-9680
▁보트탔	-9681
▁분노의	-9682
▁브랜드	-9683
▁브록던	-9684
▁빤스런	-9685
▁새가슴	-9686
▁선생님	-9687
▁손웅정	-9688
▁손혁은	-9689
▁슈퍼팀	-9690
▁스찌가	-9691
▁시거신	-9692
▁시엠은	-9693
▁시키면	-9694
▁쓰리백	-9695
▁아쉽네	-9696
▁안보고	-9697
▁안한다	-9698
▁않을지	-9699
▁알리송	-9700
▁애매한	-9701
▁어케됨	-9702
▁없었다	-9703
▁여기가	-9704
▁역전당	-9705
▁올리고	-9706
▁왁론맨	-9707
▁왔으면	-9708
▁우승했	-9709
▁원숭이	-9710
▁유정이	-9711
▁유창식	-9712
▁유타는	-9713
▁음해는	-9714
▁이겨서	-9715
▁이스코	-9716
▁이시각	-9717
▁이제야	-9718
▁일어나	-9719
▁있어도	-9720
▁잘했음	-9721
▁재밌게	-9722
▁저새기	-9723
▁전반전	-9724
▁정체가	-9725
▁좆좆고	-9726
▁좆쥐가	-9727
▁좆페인	-9728
▁좋아함	-9729
▁좌익수	-9730
▁주제에	-9731
▁차이는	-9732
▁쳐맞고	-9733
▁최근에	-9734
▁최도망	-9735
▁친구가	-9736
▁카바니	-9737
▁캐시먼	-9738
▁커퀴들	-9739
▁쿤보는	-9740
▁키어신	-9741
▁타자들	-9742
▁태칰이	-9743
▁털버럭	-9744
▁템파가	-9745
▁패악질	-9746
▁팩꿈치	-9747
▁팩팩한	-9748
▁팬들은	-9749
▁폴락신	-9750
▁프리미	-9751
▁플옵은	-9752
▁필라가	-9753
▁하겠죠	-9754
▁하다가	-9755
▁하드힛	-9756
▁하라고	-9757
▁하위갈	-9758
▁하위에	-9759
▁한달에	-9760
▁한명재	-9761
▁한이닝	-9762
▁혜화가	-9763
▁홍어꼬	-9764
▁화사신	-9765
▁후루꾸	-9766
▁흑인이	-9767
구장에서	-9768
너뿐이야	-9769
아레나도	-9770
이였는데	-9771
있었으면	-9772
하는거죠	-9773
하시네요	-9774
해졌네요	-9775
했다네요	-9776
▁거박신이	-9777
▁경기에서	-9778
▁경기중에	-9779
▁고급야구	-9780
▁공수겸장	-9781
▁김하성은	-9782
▁네덜란드	-9783
▁농구선수	-9784
▁누구인지	-9785
▁다미신은	-9786
▁당연한거	-9787
▁더블스틸	-9788
▁던지네요	-9789
▁못하는게	-9790
▁뭐하는지	-9791
▁배트플립	-9792
▁벤시몬스	-9793
▁벤치에서	-9794
▁병신인데	-9795
▁불매운동	-9796
▁브루클린	-9797
▁사람들이	-9798
▁센징이들	-9799
▁수전노들	-9800
▁스시타카	-9801
▁쓰레기네	-9802
▁아니라고	-9803
▁아니씨발	-9804
▁아시는분	-9805
▁아프리카	-9806
▁야마모토	-9807
▁올라가도	-9808
▁왜저러냐	-9809
▁우울리언	-9810
▁윌스미스	-9811
▁유다현종	-9812
▁잘생긴거	-9813
▁잡아주네	-9814
▁준태맥캔	-9815
▁지리네요	-9816
▁찬빈님이	-9817
▁챔피언쉽	-9818
▁처음으로	-9819
▁카와이가	-9820
▁카지노가	-9821
▁탠튼신을	-9822
▁파이어스	-9823
▁팩팩하네	-9824
▁퍼스트팀	-9825
▁하나같이	-9826
▁하워드가	-9827
공무원월북	-9828
는거같은데	-9829
이노베이션	-9830
wwwwww	-9831
ᅲᅲᅲᅲᅲᅲ	-9832
ᅳᅳᅳᅳᅳᅳ	-9833
▁????:	-9834
▁ᄂ도배일시	-9835
▁가짜사나이	-9836
▁국저스한테	-9837
▁레이커스는	-9838
▁방투방투방	-9839
▁병디새끼들	-9840
▁병신이네요	-9841
▁브라질한테	-9842
▁선언합니다	-9843
▁아르헨티나	-9844
▁올라갔으면	-9845
▁우리나라는	-9846
▁음해하는거	-9847
▁존나못하네	-9848
▁졸저근막염	-9849
▁하는거보면	-9850
▁한국시리즈	-9851
.......	-9852
▁ᅲᅲᅲᅲᅲᅲ	-9853
▁발렌시아에서	-9854
▁키어마이어신	-9855
공무원월북아니다	-9856
심은하황수정신라호텔ᄃ	-9857
심은하황수정신라호텔ᄆ	-9858
연평도공무원월북아니다	-9859
연평도공무원월북아니다문재인하야	-9860
13	-9861
25	-9862
60	-9863
88	-9864
LM	-9865
go	-9866
ia	-9867
ld	-9868
ot	-9869
yp	-9870
ᄁᄏ	-9871
ᄌᄏ	-9872
ᅳ발	-9873
▁~	-9874
▁긍	-9875
▁깐	-9876
▁꺄	-9877
▁꺾	-9878
▁낚	-9879
▁년	-9880
▁닌	-9881
▁득	-9882
▁렌	-9883
▁림	-9884
▁멸	-9885
▁뷰	-9886
▁샷	-9887
▁숏	-9888
▁쉰	-9889
▁쏴	-9890
▁쑤	-9891
▁웰	-9892
▁펀	-9893
▁펩	-9894
▁푼	-9895
▁핑	-9896
가다	-9897
감은	-9898
개나	-9899
건적	-9900
걸까	-9901
격리	-9902
광탈	-9903
국감	-9904
기태	-9905
냐면	-9906
넘게	-9907
넘버	-9908
네라	-9909
네좆	-9910
대몇	-9911
던져	-9912
도는	-9913
도전	-9914
되기	-9915
라디	-9916
래도	-9917
럼통	-9918
레가	-9919
레벨	-9920
렛소	-9921
렸냐	-9922
렸음	-9923
로가	-9924
로드	-9925
를거	-9926
많네	-9927
말자	-9928
망이	-9929
무득	-9930
무스	-9931
뭐야	-9932
바요	-9933
받이	-9934
발라	-9935
방법	-9936
백인	-9937
버림	-9938
병살	-9939
봉패	-9940
봤냐	-9941
불매	-9942
블릿	-9943
비신	-9944
뽀록	-9945
사실	-9946
서는	-9947
셔서	-9948
쉑들	-9949
슬램	-9950
시길	-9951
시냐	-9952
시엠	-9953
신데	-9954
신민	-9955
신분	-9956
신인	-9957
쏟아	-9958
아들	-9959
아쉽	-9960
야채	-9961
어마	-9962
어어	-9963
억은	-9964
엿네	-9965
엿음	-9966
오빠	-9967
우콜	-9968
울듯	-9969
위기	-9970
위를	-9971
위한	-9972
윤동	-9973
을수	-9974
을줄	-9975
이그	-9976
이텀	-9977
이하	-9978
인생	-9979
일어	-9980
일전	-9981
잇네	-9982
자랑	-9983
자인	-9984
잔치	-9985
잘싸	-9986
잘해	-9987
재산	-9988
저지	-9989
젖닌	-9990
제가	-9991
져라	-9992
졋네	-9993
종료	-9994
좆밥	-9995
좋게	-9996
주영	-9997
준비	-9998
준이	-9999
지금	-10000
지어	-10001
진행	-10002
질러	-10003
짱남	-10004
체크	-10005
최강	-10006
커쇼	-10007
컬럼	-10008
쿠치	-10009
쿤보	-10010
클링	-10011
타격	-10012
튜버	-10013
티즈	-10014
팩넷	-10015
프가	-10016
피치	-10017
픽은	-10018
함이	-10019
해봐	-10020
해질	-10021
허그	-10022
협회	-10023
화면	-10024
회로	-10025
회수	-10026
효준	-10027
훈련	-10028
휴식	-10029
희찬	-10030
▁37	-10031
▁SK	-10032
▁ᄂᄌ	-10033
▁ᄋᄃ	-10034
▁ᄌᄌ	-10035
▁가격	-10036
▁가난	-10037
▁갈자	-10038
▁개선	-10039
▁갤러	-10040
▁겨울	-10041
▁고기	-10042
▁고어	-10043
▁고작	-10044
▁괴롭	-10045
▁구분	-10046
▁구원	-10047
▁굴러	-10048
▁그렉	-10049
▁근대	-10050
▁금방	-10051
▁금칰	-10052
▁기용	-10053
▁길빵	-10054
▁나발	-10055
▁나지	-10056
▁남는	-10057
▁내구	-10058
▁내보	-10059
▁네임	-10060
▁누굴	-10061
▁다녀	-10062
▁다섯	-10063
▁담구	-10064
▁답이	-10065
▁독립	-10066
▁동원	-10067
▁됐네	-10068
▁되고	-10069
▁듣보	-10070
▁들었	-10071
▁똑똑	-10072
▁릅판	-10073
▁마고	-10074
▁마크	-10075
▁맛이	-10076
▁망주	-10077
▁맞짱	-10078
▁매니	-10079
▁몇위	-10080
▁몰라	-10081
▁무죄	-10082
▁미소	-10083
▁미화	-10084
▁밀웤	-10085
▁방화	-10086
▁벼룩	-10087
▁보게	-10088
▁보반	-10089
▁보약	-10090
▁복싱	-10091
▁부자	-10092
▁부터	-10093
▁비웃	-10094
▁비정	-10095
▁빠진	-10096
▁빡친	-10097
▁빨간	-10098
▁빨면	-10099
▁사과	-10100
▁상징	-10101
▁샤킬	-10102
▁선두	-10103
▁선제	-10104
▁세리	-10105
▁세명	-10106
▁속이	-10107
▁손목	-10108
▁손에	-10109
▁수가	-10110
▁쉬운	-10111
▁슛팅	-10112
▁스윗	-10113
▁승차	-10114
▁시험	-10115
▁신이	-10116
▁심상	-10117
▁아갈	-10118
▁안뛰	-10119
▁안믿	-10120
▁안써	-10121
▁안쓴	-10122
▁안팔	-10123
▁안풀	-10124
▁암살	-10125
▁야유	-10126
▁약점	-10127
▁어어	-10128
▁얻어	-10129
▁여초	-10130
▁예뻐	-10131
▁오랄	-10132
▁오르	-10133
▁온갖	-10134
▁올렸	-10135
▁요키	-10136
▁우완	-10137
▁운도	-10138
▁운이	-10139
▁워렌	-10140
▁원인	-10141
▁원준	-10142
▁위대	-10143
▁윈윈	-10144
▁유출	-10145
▁육덕	-10146
▁이겻	-10147
▁이렇	-10148
▁이면	-10149
▁이뻐	-10150
▁이사	-10151
▁인구	-10152
▁인천	-10153
▁임대	-10154
▁입국	-10155
▁입금	-10156
▁자료	-10157
▁자비	-10158
▁전용	-10159
▁정권	-10160
▁정배	-10161
▁제이	-10162
▁조직	-10163
▁좋긴	-10164
▁주말	-10165
▁주성	-10166
▁주식	-10167
▁주영	-10168
▁주이	-10169
▁죽은	-10170
▁중앙	-10171
▁지분	-10172
▁진압	-10173
▁채널	-10174
▁처참	-10175
▁천재	-10176
▁축제	-10177
▁출근	-10178
▁출연	-10179
▁취향	-10180
▁코드	-10181
▁쿼터	-10182
▁크네	-10183
▁클레	-10184
▁키무	-10185
▁킹갓	-10186
▁타티	-10187
▁터트	-10188
▁테롤	-10189
▁템포	-10190
▁투자	-10191
▁트로	-10192
▁티어	-10193
▁팀들	-10194
▁파포	-10195
▁팍팍	-10196
▁패전	-10197
▁피곤	-10198
▁한강	-10199
▁한듯	-10200
▁한때	-10201
▁한수	-10202
▁한창	-10203
▁할까	-10204
▁할배	-10205
▁핫한	-10206
▁해방	-10207
▁했죠	-10208
▁호불	-10209
▁🌑🌑	-10210
갔을때	-10211
거같애	-10212
거리네	-10213
겟는데	-10214
고싶어	-10215
다는거	-10216
된다고	-10217
디스윙	-10218
라네요	-10219
려나요	-10220
를국감	-10221
리겠네	-10222
만나면	-10223
말고는	-10224
맞네요	-10225
명이나	-10226
못한다	-10227
버렸네	-10228
버리는	-10229
베이는	-10230
봅시다	-10231
시절엔	-10232
씨발년	-10233
안타를	-10234
없다고	-10235
없으니	-10236
연아퀸	-10237
오네요	-10238
오는거	-10239
오니까	-10240
우는거	-10241
원으로	-10242
은거냐	-10243
을건데	-10244
이구만	-10245
이닝은	-10246
이었죠	-10247
이즈원	-10248
잡으면	-10249
주니어	-10250
체스가	-10251
체스터	-10252
치는게	-10253
켰는데	-10254
크로스	-10255
클러치	-10256
타운스	-10257
하는놈	-10258
하라는	-10259
하신분	-10260
함ᄏᄏ	-10261
해봤자	-10262
해야됨	-10263
해주네	-10264
해주는	-10265
했어야	-10266
휴스턴	-10267
news	-10268
▁125	-10269
▁>>>	-10270
▁??:	-10271
▁BLM	-10272
▁YAK	-10273
▁가야지	-10274
▁갈메기	-10275
▁개똥볼	-10276
▁개막전	-10277
▁개씹좆	-10278
▁개저스	-10279
▁개처럼	-10280
▁갤럭시	-10281
▁걸리면	-10282
▁경기에	-10283
▁고맙다	-10284
▁공격력	-10285
▁관중석	-10286
▁구단이	-10287
▁구연신	-10288
▁국거박	-10289
▁그랜드	-10290
▁급발진	-10291
▁기대가	-10292
▁기대치	-10293
▁기억에	-10294
▁김대중	-10295
▁김연아	-10296
▁꺼져라	-10297
▁끝판왕	-10298
▁나가고	-10299
▁나가니	-10300
▁나네요	-10301
▁나와야	-10302
▁나이키	-10303
▁념글에	-10304
▁느바는	-10305
▁다니는	-10306
▁당신은	-10307
▁댄토니	-10308
▁더블헤	-10309
▁데려와	-10310
▁덴버는	-10311
▁두하신	-10312
▁드럽게	-10313
▁똥꼬쇼	-10314
▁똥칰은	-10315
▁라모스	-10316
▁라쿠텐	-10317
▁로저스	-10318
▁롤드컵	-10319
▁릅몬스	-10320
▁릴장군	-10321
▁마스코	-10322
▁마운드	-10323
▁많아서	-10324
▁많은거	-10325
▁맞는말	-10326
▁먹어야	-10327
▁먹히는	-10328
▁모두가	-10329
▁모르고	-10330
▁모르냐	-10331
▁모리스	-10332
▁무근본	-10333
▁무뇌콘	-10334
▁무섭다	-10335
▁뭐하고	-10336
▁뭘까요	-10337
▁미만잡	-10338
▁미스터	-10339
▁믿는다	-10340
▁믿을건	-10341
▁반자이	-10342
▁반좆간	-10343
▁받아먹	-10344
▁받아야	-10345
▁병신임	-10346
▁분동님	-10347
▁분들은	-10348
▁브라운	-10349
▁비디오	-10350
▁비욤보	-10351
▁뻥글이	-10352
▁사기꾼	-10353
▁사나이	-10354
▁사이트	-10355
▁살아나	-10356
▁삼국지	-10357
▁상우콜	-10358
▁상위에	-10359
▁새로잔	-10360
▁샌디는	-10361
▁선신신	-10362
▁센세는	-10363
▁센터로	-10364
▁셉첸코	-10365
▁쇼다운	-10366
▁수비력	-10367
▁스크린	-10368
▁스타트	-10369
▁시발롬	-10370
▁신기록	-10371
▁씨발롬	-10372
▁씹왁도	-10373
▁씹자르	-10374
▁아니노	-10375
▁아닐까	-10376
▁아스날	-10377
▁아역귀	-10378
▁아이피	-10379
▁안나올	-10380
▁안보는	-10381
▁않았음	-10382
▁알았음	-10383
▁애들아	-10384
▁애무만	-10385
▁애비가	-10386
▁앨리웁	-10387
▁얘들아	-10388
▁어딘지	-10389
▁어려운	-10390
▁엄마가	-10391
▁여동생	-10392
▁연고지	-10393
▁연타석	-10394
▁염갈량	-10395
▁오른쪽	-10396
▁오지환	-10397
▁오타니	-10398
▁올라갔	-10399
▁와씨발	-10400
▁와일드	-10401
▁완벽한	-10402
▁왜저리	-10403
▁우규민	-10404
▁움직임	-10405
▁웃기지	-10406
▁워크에	-10407
▁원정콜	-10408
▁윈나우	-10409
▁유리몸	-10410
▁은행신	-10411
▁음해당	-10412
▁음해한	-10413
▁이겨도	-10414
▁이바카	-10415
▁이유를	-10416
▁이장석	-10417
▁재능이	-10418
▁잰슨락	-10419
▁저거는	-10420
▁저러고	-10421
▁적당히	-10422
▁전재산	-10423
▁제갈량	-10424
▁젠가질	-10425
▁조딸신	-10426
▁졷기에	-10427
▁좆같다	-10428
▁좆본이	-10429
▁좆장수	-10430
▁좆크보	-10431
▁좆탠튼	-10432
▁좋다고	-10433
▁좋더라	-10434
▁지금이	-10435
▁지리긴	-10436
▁지만초	-10437
▁진작에	-10438
▁집어넣	-10439
▁차이점	-10440
▁추센세	-10441
▁출루율	-10442
▁친정팀	-10443
▁캐릭터	-10444
▁케인이	-10445
▁킹시코	-10446
▁탁구장	-10447
▁태인콜	-10448
▁투수전	-10449
▁팀에서	-10450
▁팩파트	-10451
▁퍼포먼	-10452
▁폴신은	-10453
▁하겠네	-10454
▁하더라	-10455
▁하루에	-10456
▁하메스	-10457
▁하성쿤	-10458
▁하위가	-10459
▁한가지	-10460
▁한거냐	-10461
▁한건지	-10462
▁한번은	-10463
▁할머니	-10464
▁함바볼	-10465
▁해민신	-10466
▁해볼만	-10467
▁해설은	-10468
▁해설자	-10469
▁했어야	-10470
▁허민은	-10471
▁혐든이	-10472
▁홍어네	-10473
▁화들짝	-10474
▁휘두르	-10475
▁휴지가	-10476
▁흥좆이	-10477
▁희대의	-10478
▁힉스신	-10479
노ᄏᄏᄏ	-10480
노답국회	-10481
다이노스	-10482
되겠네요	-10483
된다니까	-10484
드래프트	-10485
레이커스	-10486
리그에서	-10487
병신새끼	-10488
보고싶다	-10489
보이네요	-10490
신이네요	-10491
애미뒤진	-10492
이겠네요	-10493
이었나요	-10494
하는거봐	-10495
하지않나	-10496
66366	-10497
wwwww	-10498
▁2019	-10499
▁가능성은	-10500
▁가능성이	-10501
▁가을창녀	-10502
▁강하네요	-10503
▁개민찬호	-10504
▁개좆같은	-10505
▁개지리네	-10506
▁고등학교	-10507
▁공정은행	-10508
▁국대에서	-10509
▁나가니까	-10510
▁나오니까	-10511
▁나왔으면	-10512
▁넘어가네	-10513
▁넘어가는	-10514
▁넣으라고	-10515
▁노비츠키	-10516
▁동나이대	-10517
▁드론맨은	-10518
▁레너드가	-10519
▁루카쿠가	-10520
▁리즈너블	-10521
▁말아먹네	-10522
▁망했네요	-10523
▁멕시코에	-10524
▁몰랐는데	-10525
▁미스테리	-10526
▁밀어내기	-10527
▁밀워키가	-10528
▁버틀러가	-10529
▁병디놈들	-10530
▁병디멸망	-10531
▁병디한테	-10532
▁보이트신	-10533
▁불안한데	-10534
▁브래들리	-10535
▁사람들은	-10536
▁생각나네	-10537
▁세베리노	-10538
▁슬라이딩	-10539
▁시바사키	-10540
▁실력으로	-10541
▁쓰로워가	-10542
▁아니었냐	-10543
▁아데바요	-10544
▁아리에타	-10545
▁아시안컵	-10546
▁알려준다	-10547
▁암만봐도	-10548
▁어마어마	-10549
▁영입하면	-10550
▁울산화재	-10551
▁이기고있	-10552
▁이럴거면	-10553
▁인디애나	-10554
▁일본에서	-10555
▁있겠네요	-10556
▁잘나가는	-10557
▁잘하는건	-10558
▁잘했는데	-10559
▁전성기때	-10560
▁전형적인	-10561
▁좆르투와	-10562
▁좆한민국	-10563
▁좋아하냐	-10564
▁좋았는데	-10565
▁지난시즌	-10566
▁지랄났네	-10567
▁최지만은	-10568
▁카라부리	-10569
▁커리한테	-10570
▁팩팩한데	-10571
▁풍전커스	-10572
▁프랑스가	-10573
▁플옵가면	-10574
▁할카스는	-10575
▁할카스짤	-10576
▁해붕이들	-10577
▁해외야구	-10578
▁후반전에	-10579
아아아아아	-10580
펭수를국감	-10581
해야되는거	-10582
▁ᅲᅲᅲᅲᅲ	-10583
▁가짜시즌에	-10584
▁개씨발년아	-10585
▁개야갤분들	-10586
▁개좆마이어	-10587
▁꼬라지보니	-10588
▁대일본제국	-10589
▁레이커스가	-10590
▁르브론보다	-10591
▁마이클조던	-10592
▁모르겠는데	-10593
▁미친새끼야	-10594
▁불쌍하네요	-10595
▁심각하네요	-10596
▁쓰레기새끼	-10597
▁씨발련들아	-10598
▁아킬레스건	-10599
▁죄송합니다	-10600
▁클레이탐슨	-10601
▁템파베이가	-10602
▁플레이오프	-10603
ᅳᅳᅳᅳᅳᅳᅳ	-10604
▁ᄉᄇᄏᄏᄏᄏ	-10605
▁국저스타디움	-10606
▁다저스타디움	-10607
노답국회추미애	-10608
▁ᄅᄌᄂᄇ하네요	-10609
▁그립지않습니까	-10610
▁스카우팅리포트	-10611
연아퀸보고딸치는	-10612
펭수를국감부르는	-10613
?????????	-10614
이즈원접대주작맞다	-10615
펭수를국감부르는노답국회추미애	-10616
,3	-10617
99	-10618
?!	-10619
?"	-10620
LA	-10621
fl	-10622
he	-10623
td	-10624
~3	-10625
ᄅᄅ	-10626
ᅵᅵ	-10627
▁Q	-10628
▁i	-10629
▁깎	-10630
▁꼽	-10631
▁꽉	-10632
▁놔	-10633
▁뚝	-10634
▁렉	-10635
▁롸	-10636
▁맠	-10637
▁밈	-10638
▁븅	-10639
▁샀	-10640
▁쌉	-10641
▁즉	-10642
▁춘	-10643
▁켈	-10644
▁큼	-10645
▁탔	-10646
▁팽	-10647
▁퓨	-10648
▁핏	-10649
▁흙	-10650
가나	-10651
가스	-10652
강철	-10653
개만	-10654
걸고	-10655
걸레	-10656
겟죠	-10657
겨라	-10658
결정	-10659
고든	-10660
고생	-10661
고서	-10662
곳이	-10663
관계	-10664
구토	-10665
군은	-10666
극혐	-10667
근이	-10668
기노	-10669
기원	-10670
깁슨	-10671
내요	-10672
내용	-10673
너는	-10674
니노	-10675
다닐	-10676
다리	-10677
다음	-10678
대비	-10679
더볼	-10680
더비	-10681
덩이	-10682
데뷔	-10683
덴버	-10684
돌려	-10685
돌파	-10686
동료	-10687
되니	-10688
두는	-10689
드릭	-10690
등급	-10691
따고	-10692
때만	-10693
럽다	-10694
레파	-10695
련들	-10696
롱컵	-10697
뢰더	-10698
루미	-10699
루투	-10700
르만	-10701
링크	-10702
마려	-10703
말곤	-10704
맞네	-10705
맞는	-10706
맞추	-10707
명재	-10708
모자	-10709
무새	-10710
무슨	-10711
무시	-10712
미남	-10713
밀어	-10714
바라	-10715
바람	-10716
바르	-10717
바퀴	-10718
박살	-10719
박은	-10720
방해	-10721
벅지	-10722
범신	-10723
범이	-10724
베닐	-10725
베어	-10726
벨라	-10727
부는	-10728
부인	-10729
빈신	-10730
빈은	-10731
빈저	-10732
상철	-10733
생긴	-10734
서부	-10735
선정	-10736
성기	-10737
성한	-10738
세가	-10739
세일	-10740
수를	-10741
숙신	-10742
쉽게	-10743
슬람	-10744
승률	-10745
승우	-10746
승은	-10747
승환	-10748
시고	-10749
시면	-10750
실분	-10751
실책	-10752
심함	-10753
아리	-10754
앗냐	-10755
았던	-10756
애가	-10757
애비	-10758
얼굴	-10759
없나	-10760
연소	-10761
였어	-10762
요약	-10763
용병	-10764
용이	-10765
운빨	-10766
원태	-10767
월에	-10768
위치	-10769
윤식	-10770
이번	-10771
인걸	-10772
일정	-10773
자면	-10774
작전	-10775
잘못	-10776
재민	-10777
저히	-10778
적기	-10779
전도	-10780
전술	-10781
전쟁	-10782
점도	-10783
정환	-10784
제기	-10785
조작	-10786
조차	-10787
좆집	-10788
중간	-10789
즈니	-10790
지구	-10791
지죠	-10792
진않	-10793
찬규	-10794
창훈	-10795
채흥	-10796
천억	-10797
천재	-10798
추천	-10799
출전	-10800
치게	-10801
치지	-10802
칠래	-10803
캘리	-10804
타입	-10805
탱이	-10806
테랑	-10807
토막	-10808
판에	-10809
팩스	-10810
팩팩	-10811
편성	-10812
포틀	-10813
폭삼	-10814
프닝	-10815
피어	-10816
하겠	-10817
하손	-10818
학생	-10819
학주	-10820
한마	-10821
한수	-10822
할꺼	-10823
해짐	-10824
핸드	-10825
햇네	-10826
혀서	-10827
호돈	-10828
화상	-10829
활약	-10830
힌다	-10831
-18	-10832
ing	-10833
ᄀᄏᄏ	-10834
▁03	-10835
▁07	-10836
▁31	-10837
▁41	-10838
▁5%	-10839
▁87	-10840
▁AL	-10841
▁BJ	-10842
▁ch	-10843
▁jj	-10844
▁ᄌ밥	-10845
▁가기	-10846
▁가나	-10847
▁가네	-10848
▁갈듯	-10849
▁감동	-10850
▁감안	-10851
▁갑분	-10852
▁개소	-10853
▁개처	-10854
▁객관	-10855
▁검거	-10856
▁계산	-10857
▁고즈	-10858
▁공갈	-10859
▁공감	-10860
▁공에	-10861
▁관종	-10862
▁광주	-10863
▁교육	-10864
▁군기	-10865
▁근처	-10866
▁긁어	-10867
▁긍정	-10868
▁기도	-10869
▁까면	-10870
▁꼬마	-10871
▁나갈	-10872
▁내는	-10873
▁내부	-10874
▁내주	-10875
▁넘사	-10876
▁노리	-10877
▁놈은	-10878
▁눈팅	-10879
▁늦게	-10880
▁대깨	-10881
▁대출	-10882
▁대행	-10883
▁대화	-10884
▁돈을	-10885
▁동반	-10886
▁동의	-10887
▁두하	-10888
▁떡락	-10889
▁레드	-10890
▁레벨	-10891
▁로우	-10892
▁롱고	-10893
▁루머	-10894
▁류용	-10895
▁마땅	-10896
▁만만	-10897
▁많다	-10898
▁말투	-10899
▁맛있	-10900
▁머야	-10901
▁먹지	-10902
▁먼데	-10903
▁멜빈	-10904
▁모른	-10905
▁모양	-10906
▁모어	-10907
▁모터	-10908
▁몸뚱	-10909
▁못뚫	-10910
▁반도	-10911
▁배운	-10912
▁베인	-10913
▁보상	-10914
▁보쉬	-10915
▁복장	-10916
▁본적	-10917
▁본즈	-10918
▁볼질	-10919
▁볼티	-10920
▁분은	-10921
▁불가	-10922
▁블게	-10923
▁블랙	-10924
▁비겁	-10925
▁빼야	-10926
▁뿜는	-10927
▁사주	-10928
▁살벌	-10929
▁상삼	-10930
▁상승	-10931
▁설리	-10932
▁성사	-10933
▁성형	-10934
▁세게	-10935
▁세일	-10936
▁세잎	-10937
▁소방	-10938
▁손절	-10939
▁수지	-10940
▁숫자	-10941
▁스겜	-10942
▁슬퍼	-10943
▁승원	-10944
▁시각	-10945
▁시급	-10946
▁시동	-10947
▁시점	-10948
▁시체	-10949
▁식단	-10950
▁신라	-10951
▁실제	-10952
▁싫은	-10953
▁심리	-10954
▁십새	-10955
▁싶어	-10956
▁싹다	-10957
▁써야	-10958
▁썬더	-10959
▁쏟아	-10960
▁쓰찌	-10961
▁씨바	-10962
▁씨빨	-10963
▁아내	-10964
▁아우	-10965
▁안경	-10966
▁안당	-10967
▁안뒤	-10968
▁안뽑	-10969
▁안사	-10970
▁안심	-10971
▁안터	-10972
▁약속	-10973
▁양반	-10974
▁양보	-10975
▁어때	-10976
▁어쩐	-10977
▁에드	-10978
▁에러	-10979
▁엠생	-10980
▁여경	-10981
▁역귀	-10982
▁연결	-10983
▁연예	-10984
▁연인	-10985
▁염색	-10986
▁영구	-10987
▁영표	-10988
▁와플	-10989
▁원더	-10990
▁위로	-10991
▁유형	-10992
▁유효	-10993
▁으로	-10994
▁이과	-10995
▁이랬	-10996
▁일은	-10997
▁일주	-10998
▁일침	-10999
▁입털	-11000
▁있노	-11001
▁잉쿠	-11002
▁작살	-11003
▁잘잡	-11004
▁잠재	-11005
▁적이	-11006
▁전원	-11007
▁전화	-11008
▁정대	-11009
▁정사	-11010
▁제로	-11011
▁제시	-11012
▁존에	-11013
▁종결	-11014
▁좆된	-11015
▁좆물	-11016
▁좆방	-11017
▁좆뱀	-11018
▁좋게	-11019
▁좋고	-11020
▁주네	-11021
▁주멘	-11022
▁주사	-11023
▁죽을	-11024
▁중독	-11025
▁줘도	-11026
▁지바	-11027
▁지잡	-11028
▁진다	-11029
▁질질	-11030
▁짤방	-11031
▁찔러	-11032
▁착한	-11033
▁책임	-11034
▁챔시	-11035
▁처럼	-11036
▁처먹	-11037
▁천국	-11038
▁최저	-11039
▁최전	-11040
▁추억	-11041
▁치료	-11042
▁카일	-11043
▁커하	-11044
▁쿠바	-11045
▁큰거	-11046
▁키드	-11047
▁토니	-11048
▁통일	-11049
▁투표	-11050
▁트젠	-11051
▁팅글	-11052
▁팍스	-11053
▁팝플	-11054
▁퍼거	-11055
▁펜스	-11056
▁포핏	-11057
▁피닉	-11058
▁하라	-11059
▁하려	-11060
▁하셨	-11061
▁하승	-11062
▁한숨	-11063
▁할줄	-11064
▁합의	-11065
▁해본	-11066
▁해봤	-11067
▁햅신	-11068
▁혁신	-11069
▁호좆	-11070
▁황제	-11071
▁후계	-11072
▁후려	-11073
▁흥분	-11074
가면서	-11075
각이다	-11076
갑니까	-11077
것같다	-11078
경기가	-11079
급인지	-11080
기에는	-11081
긴하죠	-11082
나가서	-11083
다는걸	-11084
답니까	-11085
대에서	-11086
대표팀	-11087
되는게	-11088
들어간	-11089
라테롤	-11090
라호마	-11091
랄까봐	-11092
러그맨	-11093
르투아	-11094
립니다	-11095
만달러	-11096
매니아	-11097
매니지	-11098
문학상	-11099
발장전	-11100
병신들	-11101
봅니까	-11102
분동안	-11103
브라이	-11104
빠지게	-11105
사기네	-11106
사사구	-11107
생각에	-11108
선생님	-11109
세이브	-11110
셨는지	-11111
손흥민	-11112
시는분	-11113
시즌은	-11114
실점은	-11115
안타가	-11116
안하냐	-11117
었나요	-11118
였어도	-11119
오지네	-11120
올리는	-11121
우승이	-11122
유니폼	-11123
으로서	-11124
을수도	-11125
읍니다	-11126
이란게	-11127
이었지	-11128
이였네	-11129
일쉬고	-11130
있다고	-11131
있을때	-11132
쟁이들	-11133
점차는	-11134
주는데	-11135
질하네	-11136
차전에	-11137
쳐먹네	-11138
케이스	-11139
팀이네	-11140
팀한테	-11141
팬들은	-11142
하나로	-11143
하세요	-11144
하시네	-11145
해놓고	-11146
했다는	-11147
했더니	-11148
히네요	-11149
7777	-11150
feat	-11151
ᄀᄀᄀᄀ	-11152
▁3:0	-11153
▁KKK	-11154
▁kbl	-11155
▁sbs	-11156
▁ᄋᄉᄐ	-11157
▁갓데의	-11158
▁강철신	-11159
▁같은거	-11160
▁개공황	-11161
▁개조선	-11162
▁개중일	-11163
▁개쳐맞	-11164
▁거하게	-11165
▁경기끝	-11166
▁계신지	-11167
▁광고가	-11168
▁괜찮네	-11169
▁군대가	-11170
▁귀화를	-11171
▁기회를	-11172
▁김진욱	-11173
▁김형준	-11174
▁까는거	-11175
▁꼴랑이	-11176
▁꼴아박	-11177
▁놓치네	-11178
▁누구나	-11179
▁누구랑	-11180
▁눈감아	-11181
▁단톡방	-11182
▁당하네	-11183
▁대도시	-11184
▁대타로	-11185
▁더이상	-11186
▁덕분에	-11187
▁데려온	-11188
▁덴마크	-11189
▁도배좌	-11190
▁돈으로	-11191
▁돌리네	-11192
▁될까요	-11193
▁뒤지게	-11194
▁드럼통	-11195
▁들어온	-11196
▁디즈니	-11197
▁딘위디	-11198
▁따까리	-11199
▁똑같이	-11200
▁똥클은	-11201
▁뛰는거	-11202
▁뛰어난	-11203
▁락다운	-11204
▁레스형	-11205
▁롯데가	-11206
▁롯데는	-11207
▁루미신	-11208
▁리베라	-11209
▁리벤지	-11210
▁만놀엑	-11211
▁만루포	-11212
▁만패가	-11213
▁말고는	-11214
▁맛자욱	-11215
▁망했네	-11216
▁맞는듯	-11217
▁매력있	-11218
▁맥시멈	-11219
▁머니볼	-11220
▁먹는게	-11221
▁모든걸	-11222
▁몰랐다	-11223
▁못가는	-11224
▁못넣네	-11225
▁못하죠	-11226
▁못할거	-11227
▁미니멈	-11228
▁미래가	-11229
▁미쳣노	-11230
▁민병헌	-11231
▁바에즈	-11232
▁박효준	-11233
▁베로나	-11234
▁벤치성	-11235
▁병디도	-11236
▁병신같	-11237
▁보댕이	-11238
▁본적이	-11239
▁볼핸들	-11240
▁봅니다	-11241
▁부상당	-11242
▁부커는	-11243
▁북유럽	-11244
▁브랜든	-11245
▁블렛소	-11246
▁빅마켓	-11247
▁빡브롱	-11248
▁뻥피엘	-11249
▁사이드	-11250
▁살면서	-11251
▁상위로	-11252
▁상황이	-11253
▁샌좆간	-11254
▁샐러리	-11255
▁생각나	-11256
▁생각남	-11257
▁서양인	-11258
▁서울에	-11259
▁서준원	-11260
▁서형욱	-11261
▁선수를	-11262
▁성규신	-11263
▁세리에	-11264
▁소개팅	-11265
▁순간에	-11266
▁스노우	-11267
▁스무스	-11268
▁스윙이	-11269
▁승리를	-11270
▁시즌은	-11271
▁시청자	-11272
▁식당이	-11273
▁싫으면	-11274
▁쓰는데	-11275
▁씹ᄏᄏ	-11276
▁씹봑노	-11277
▁씹지통	-11278
▁씹틀러	-11279
▁아는척	-11280
▁안보이	-11281
▁안할거	-11282
▁않았나	-11283
▁알고있	-11284
▁알았네	-11285
▁암울신	-11286
▁압도적	-11287
▁야니스	-11288
▁약팀이	-11289
▁없는듯	-11290
▁없었음	-11291
▁엑필준	-11292
▁여자랑	-11293
▁영봉패	-11294
▁영혼의	-11295
▁예쁘다	-11296
▁예스런	-11297
▁오늘이	-11298
▁올해의	-11299
▁와시발	-11300
▁왁겆전	-11301
▁완전체	-11302
▁왜이러	-11303
▁우리도	-11304
▁워크맨	-11305
▁위기의	-11306
▁윌리엄	-11307
▁유투브	-11308
▁유튜버	-11309
▁은성신	-11310
▁이거야	-11311
▁이름력	-11312
▁이번주	-11313
▁있겠죠	-11314
▁있으니	-11315
▁있을거	-11316
▁자욱신	-11317
▁잘생기	-11318
▁잘할듯	-11319
▁저능아	-11320
▁저러다	-11321
▁전문가	-11322
▁접대는	-11323
▁정확히	-11324
▁젖통이	-11325
▁제정신	-11326
▁조툰신	-11327
▁조회수	-11328
▁좆간지	-11329
▁좆린저	-11330
▁좆시피	-11331
▁좋은게	-11332
▁주제를	-11333
▁죽어라	-11334
▁죽었다	-11335
▁중계진	-11336
▁지단이	-11337
▁직구만	-11338
▁창모신	-11339
▁채드벨	-11340
▁처맞네	-11341
▁쳤는데	-11342
▁최채흥	-11343
▁최형우	-11344
▁캐나다	-11345
▁커리도	-11346
▁컨텐더	-11347
▁쿰갈통	-11348
▁퀄리티	-11349
▁크데신	-11350
▁클블은	-11351
▁타이불	-11352
▁터지는	-11353
▁테니스	-11354
▁투남충	-11355
▁트위치	-11356
▁팔끼우	-11357
▁편하게	-11358
▁풀발기	-11359
▁풀시즌	-11360
▁풀타임	-11361
▁필리건	-11362
▁하는건	-11363
▁하는짓	-11364
▁한남들	-11365
▁해준게	-11366
▁헛소리	-11367
▁현찰맨	-11368
▁호감인	-11369
▁홍보리	-11370
▁확률이	-11371
▁황리안	-11372
▁황카쿠	-11373
▁황탠튼	-11374
▁황틀러	-11375
▁황희찬	-11376
▁후반기	-11377
▁휴지는	-11378
▁흑호쿤	-11379
더라고요	-11380
더브란트	-11381
도없는데	-11382
먹튀새끼	-11383
상황에서	-11384
수준인데	-11385
안했으면	-11386
없으니까	-11387
었다네요	-11388
었다는데	-11389
지않았나	-11390
하는거지	-11391
한다네요	-11392
할거같냐	-11393
해보이는	-11394
▁1617	-11395
▁ᄇᄉ들아	-11396
▁ᄌᄉᄇ걸	-11397
▁ᄏᄏᄏᄀ	-11398
▁ᅮᅮᅮᅮ	-11399
▁개라스코	-11400
▁개지랄을	-11401
▁개털리네	-11402
▁그새끼는	-11403
▁기준으로	-11404
▁꼬라지가	-11405
▁나가뒤져	-11406
▁내년에는	-11407
▁네좆새끼	-11408
▁늡붕이들	-11409
▁다나카가	-11410
▁다나카는	-11411
▁다나카상	-11412
▁다음이닝	-11413
▁대가리깨	-11414
▁더블헤더	-11415
▁도배일시	-11416
▁드레이크	-11417
▁론조볼은	-11418
▁롯데리아	-11419
▁르브론도	-11420
▁마르케스	-11421
▁만루에서	-11422
▁멋있네요	-11423
▁메르텐스	-11424
▁멸망ᄏᄏ	-11425
▁못하는건	-11426
▁못하는지	-11427
▁미친년이	-11428
▁밀워키에	-11429
▁바우어는	-11430
▁벨기에랑	-11431
▁병신이냐	-11432
▁병신이네	-11433
▁보시는지	-11434
▁부상으로	-11435
▁불펜데이	-11436
▁비슷한데	-11437
▁사보니스	-11438
▁선두타자	-11439
▁선수생활	-11440
▁스찌거부	-11441
▁스카우터	-11442
▁시작이네	-11443
▁시즌전에	-11444
▁쓰로워는	-11445
▁씹왁이랑	-11446
▁아니었음	-11447
▁아다메스	-11448
▁아롤디스	-11449
▁아버지가	-11450
▁안하는게	-11451
▁알겠네요	-11452
▁양키스의	-11453
▁어제부터	-11454
▁없습니다	-11455
▁여자들이	-11456
▁왜저렇게	-11457
▁유효슈팅	-11458
▁응원해야	-11459
▁인생경기	-11460
▁일본이랑	-11461
▁있는거냐	-11462
▁자가격리	-11463
▁자동아웃	-11464
▁잘하던데	-11465
▁재밌는데	-11466
▁저미분들	-11467
▁전력분석	-11468
▁정품코스	-11469
▁조현우가	-11470
▁존나이쁘	-11471
▁좆병신들	-11472
▁준원놀라	-11473
▁중위에서	-11474
▁지금보니	-11475
▁지만신은	-11476
▁지역떡밥	-11477
▁체리셰프	-11478
▁최대포텐	-11479
▁카우찡요	-11480
▁쿠르트와	-11481
▁타르콜이	-11482
▁토론토가	-11483
▁투수구장	-11484
▁파이널은	-11485
▁프라이스	-11486
▁하는건지	-11487
▁하성신은	-11488
▁하위리그	-11489
▁흡연충들	-11490
신이었으면	-11491
해보이는데	-11492
▁ᄉᄇᄏᄏᄏ	-11493
▁ᄋᄉᄉᄉᄉ	-11494
▁그랜드슬램	-11495
▁기대되네요	-11496
▁노벨문학상	-11497
▁다행이네요	-11498
▁로드매니지	-11499
▁로아이찬호	-11500
▁바르셀로나	-11501
▁버럭신이냐	-11502
▁베이즈모어	-11503
▁사직모른다	-11504
▁손흥민보다	-11505
▁스트라이커	-11506
▁스페인에서	-11507
▁승리의기운	-11508
▁씹왁새끼들	-11509
▁아니었나요	-11510
▁아로자네라	-11511
▁어떻게되냐	-11512
▁역대급으로	-11513
▁우승못하면	-11514
▁지금이라도	-11515
▁클리퍼스는	-11516
▁키좆마이어	-11517
▁프랜차이즈	-11518
▁홍어마이어	-11519
▁황어마이어	-11520
▁희플이라도	-11521
~~~~~~~	-11522
ᄃᄃᄃᄃᄃᄃᄃ	-11523
▁ᄋᄋᄋᄋᄋᄋ	-11524
▁가짜시즌이라	-11525
▁봐야된다니까	-11526
▁시환아레나도	-11527
▁씹ᄏᄏᄏᄏᄏ	-11528
▁해충새끼들아	-11529
▁ᅲᅲᅲᅲᅲᅲᅲᅲ	-11530
▁멸망ᄏᄏᄏᄏᄏᄏ	-11531
▁씨발ᄏᄏᄏᄏᄏᄏ	-11532
▁ᄉᄉᄉᄉᄉᄉᄉᄉᄉ	-11533
▁뫅이즈원접대주작맞다	-11534
심은하황수정신라호텔ᄉ	-11535
>>>>>>>>>>>>>>>>	-11536
????????????????	-11537
''	-11538
-5	-11539
IP	-11540
OM	-11541
RA	-11542
un	-11543
ᄂᄋ	-11544
ᄆᄎ	-11545
ᄋᄃ	-11546
ᄌᄇ	-11547
▁귑	-11548
▁뎁	-11549
▁뜸	-11550
▁래	-11551
▁랩	-11552
▁밖	-11553
▁뱀	-11554
▁섭	-11555
▁솩	-11556
▁습	-11557
▁쌀	-11558
▁쎈	-11559
▁씀	-11560
▁잃	-11561
▁쟞	-11562
▁졋	-11563
▁죠	-11564
▁죶	-11565
▁줬	-11566
▁짠	-11567
▁째	-11568
▁컬	-11569
▁컷	-11570
▁쿡	-11571
》》	-11572
갈비	-11573
갔냐	-11574
강남	-11575
개팀	-11576
걸이	-11577
겟노	-11578
경직	-11579
경험	-11580
골은	-11581
골이	-11582
관련	-11583
구려	-11584
국에	-11585
군이	-11586
규가	-11587
급인	-11588
기대	-11589
기들	-11590
기서	-11591
기싫	-11592
끼는	-11593
나감	-11594
낫네	-11595
낸거	-11596
녀가	-11597
놈아	-11598
놓은	-11599
누가	-11600
달아	-11601
닮은	-11602
더러	-11603
더블	-11604
데가	-11605
덴홀	-11606
동작	-11607
되게	-11608
될거	-11609
될까	-11610
드림	-11611
드슨	-11612
드업	-11613
디다	-11614
때랑	-11615
라며	-11616
라식	-11617
럭키	-11618
렉스	-11619
려다	-11620
룩스	-11621
를게	-11622
리핀	-11623
린이	-11624
마니	-11625
만든	-11626
많아	-11627
매물	-11628
맥스	-11629
먹네	-11630
모름	-11631
못한	-11632
미는	-11633
민은	-11634
박아	-11635
반데	-11636
백수	-11637
버드	-11638
보셈	-11639
보영	-11640
보트	-11641
볼때	-11642
볼에	-11643
부레	-11644
부절	-11645
부진	-11646
부활	-11647
브라	-11648
블리	-11649
빌런	-11650
빠가	-11651
사히	-11652
살다	-11653
상도	-11654
상삼	-11655
상에	-11656
선언	-11657
선택	-11658
성님	-11659
세트	-11660
셔틀	-11661
소나	-11662
송구	-11663
스텟	-11664
승제	-11665
식당	-11666
실바	-11667
싫어	-11668
심장	-11669
씨가	-11670
아깝	-11671
아네	-11672
아다	-11673
아픈	-11674
알바	-11675
알아	-11676
았죠	-11677
애우	-11678
언급	-11679
언론	-11680
엇음	-11681
에겐	-11682
엘스	-11683
여야	-11684
엿노	-11685
영웅	-11686
오닐	-11687
요소	-11688
원김	-11689
원툴	-11690
위네	-11691
위도	-11692
위면	-11693
위인	-11694
으나	-11695
을땐	-11696
이길	-11697
이요	-11698
이자	-11699
이터	-11700
인네	-11701
인도	-11702
일뽕	-11703
일으	-11704
잇음	-11705
잉글	-11706
저리	-11707
정권	-11708
정화	-11709
제목	-11710
제션	-11711
졌나	-11712
졌냐	-11713
졌노	-11714
조는	-11715
주노	-11716
지르	-11717
직구	-11718
진형	-11719
차지	-11720
추신	-11721
취업	-11722
치료	-11723
침대	-11724
카페	-11725
타스	-11726
퇴근	-11727
틀어	-11728
판이	-11729
팔이	-11730
퍼가	-11731
퍼거	-11732
포기	-11733
풍기	-11734
플옵	-11735
픽이	-11736
한정	-11737
해념	-11738
행시	-11739
헌곤	-11740
호는	-11741
.70	-11742
tsd	-11743
ypO	-11744
ᄐᄏᄏ	-11745
▁''	-11746
▁48	-11747
▁73	-11748
▁Fa	-11749
▁bj	-11750
▁ws	-11751
▁ᄉᄑ	-11752
▁ᄌ같	-11753
▁ᄏᄀ	-11754
▁◇◇	-11755
▁◇♤	-11756
▁가냐	-11757
▁가비	-11758
▁가성	-11759
▁감자	-11760
▁같긴	-11761
▁개망	-11762
▁개집	-11763
▁갤주	-11764
▁걔는	-11765
▁거절	-11766
▁거짓	-11767
▁걸렸	-11768
▁게릿	-11769
▁고르	-11770
▁고생	-11771
▁골넣	-11772
▁곳이	-11773
▁공동	-11774
▁관계	-11775
▁관상	-11776
▁광우	-11777
▁구로	-11778
▁구승	-11779
▁규정	-11780
▁그따	-11781
▁기세	-11782
▁기태	-11783
▁까고	-11784
▁까비	-11785
▁깨지	-11786
▁나랑	-11787
▁나왓	-11788
▁날조	-11789
▁남의	-11790
▁낫냐	-11791
▁넘긴	-11792
▁넣었	-11793
▁노릴	-11794
▁노트	-11795
▁논리	-11796
▁놀란	-11797
▁높냐	-11798
▁누르	-11799
▁누워	-11800
▁느꼈	-11801
▁능욕	-11802
▁니노	-11803
▁다가	-11804
▁다큐	-11805
▁단어	-11806
▁달린	-11807
▁달아	-11808
▁답다	-11809
▁당한	-11810
▁대상	-11811
▁대우	-11812
▁대처	-11813
▁뎀벨	-11814
▁도복	-11815
▁독재	-11816
▁돈고	-11817
▁동접	-11818
▁드래	-11819
▁따리	-11820
▁딴건	-11821
▁때는	-11822
▁떠나	-11823
▁떠오	-11824
▁똥양	-11825
▁뚜까	-11826
▁뛰냐	-11827
▁띠오	-11828
▁라고	-11829
▁라면	-11830
▁로테	-11831
▁루니	-11832
▁릅멜	-11833
▁릅은	-11834
▁리딩	-11835
▁링크	-11836
▁마쓰	-11837
▁마약	-11838
▁마진	-11839
▁말년	-11840
▁망함	-11841
▁매기	-11842
▁매일	-11843
▁맥켄	-11844
▁맴버	-11845
▁머구	-11846
▁먼가	-11847
▁멀뚱	-11848
▁메뽕	-11849
▁멤피	-11850
▁명품	-11851
▁목숨	-11852
▁목표	-11853
▁못간	-11854
▁못던	-11855
▁못쓰	-11856
▁못터	-11857
▁못했	-11858
▁무패	-11859
▁문자	-11860
▁민주	-11861
▁믿음	-11862
▁밀웍	-11863
▁박경	-11864
▁받냐	-11865
▁발생	-11866
▁발언	-11867
▁발음	-11868
▁배달	-11869
▁배당	-11870
▁배드	-11871
▁버리	-11872
▁버전	-11873
▁버텨	-11874
▁벅스	-11875
▁벨린	-11876
▁병역	-11877
▁보냈	-11878
▁보정	-11879
▁봤냐	-11880
▁부담	-11881
▁부부	-11882
▁부분	-11883
▁불만	-11884
▁비결	-11885
▁비하	-11886
▁빈볼	-11887
▁빠져	-11888
▁뽑은	-11889
▁사구	-11890
▁사임	-11891
▁삼각	-11892
▁삼영	-11893
▁새깅	-11894
▁생명	-11895
▁선물	-11896
▁선배	-11897
▁성인	-11898
▁세스	-11899
▁세종	-11900
▁센가	-11901
▁소추	-11902
▁속도	-11903
▁솔직	-11904
▁수정	-11905
▁순도	-11906
▁슈터	-11907
▁스벅	-11908
▁승패	-11909
▁시구	-11910
▁시몬	-11911
▁싱커	-11912
▁쏠쏠	-11913
▁씹년	-11914
▁씻팔	-11915
▁아키	-11916
▁안다	-11917
▁안대	-11918
▁안전	-11919
▁안쳐	-11920
▁않아	-11921
▁알게	-11922
▁알지	-11923
▁야누	-11924
▁약을	-11925
▁약튼	-11926
▁양쪽	-11927
▁어김	-11928
▁어땟	-11929
▁어릴	-11930
▁어필	-11931
▁얼른	-11932
▁없던	-11933
▁엘롯	-11934
▁영접	-11935
▁예비	-11936
▁예선	-11937
▁예수	-11938
▁오팁	-11939
▁올드	-11940
▁올핸	-11941
▁완료	-11942
▁완투	-11943
▁요미	-11944
▁욕심	-11945
▁용돈	-11946
▁워싱	-11947
▁월튼	-11948
▁웬들	-11949
▁위안	-11950
▁위협	-11951
▁윌튼	-11952
▁윙백	-11953
▁유선	-11954
▁유전	-11955
▁육성	-11956
▁응징	-11957
▁이글	-11958
▁이쁨	-11959
▁이종	-11960
▁입고	-11961
▁입단	-11962
▁자극	-11963
▁자말	-11964
▁자자	-11965
▁잔뜩	-11966
▁잔루	-11967
▁잡는	-11968
▁잡혔	-11969
▁장담	-11970
▁장석	-11971
▁재활	-11972
▁잭슨	-11973
▁저것	-11974
▁저새	-11975
▁전기	-11976
▁전면	-11977
▁전향	-11978
▁접전	-11979
▁정후	-11980
▁제정	-11981
▁져도	-11982
▁조롱	-11983
▁조사	-11984
▁조현	-11985
▁존내	-11986
▁좆구	-11987
▁좆든	-11988
▁좆일	-11989
▁좆틀	-11990
▁죄가	-11991
▁주요	-11992
▁주워	-11993
▁주지	-11994
▁죽자	-11995
▁중간	-11996
▁지렸	-11997
▁지워	-11998
▁집단	-11999
▁집안	-12000
▁창단	-12001
▁쳐바	-12002
▁총맞	-12003
▁치냐	-12004
▁치매	-12005
▁칼럼	-12006
▁코인	-12007
▁크루	-12008
▁키키	-12009
▁킬러	-12010
▁타도	-12011
▁태화	-12012
▁터짐	-12013
▁토레	-12014
▁통계	-12015
▁투코	-12016
▁티켓	-12017
▁파파	-12018
▁팔고	-12019
▁퍄퍄	-12020
▁퍼킹	-12021
▁평정	-12022
▁폐족	-12023
▁폐지	-12024
▁포백	-12025
▁표현	-12026
▁풀로	-12027
▁풀어	-12028
▁풀업	-12029
▁학폭	-12030
▁한복	-12031
▁해준	-12032
▁해줘	-12033
▁핸들	-12034
▁현수	-12035
▁현타	-12036
▁혈막	-12037
▁혜첩	-12038
▁홈에	-12039
▁화가	-12040
▁화려	-12041
▁환영	-12042
▁휴즈	-12043
▁힘이	-12044
가야지	-12045
강점기	-12046
같아서	-12047
같은애	-12048
거라고	-12049
거리는	-12050
겠다고	-12051
겠어서	-12052
경기로	-12053
경기를	-12054
경기에	-12055
기는게	-12056
나온다	-12057
나이에	-12058
년도에	-12059
다가도	-12060
대는거	-12061
댔는데	-12062
던지고	-12063
드맘바	-12064
들에게	-12065
디에고	-12066
따리는	-12067
떨어진	-12068
라이넨	-12069
러데이	-12070
레이션	-12071
레이트	-12072
력으로	-12073
르는지	-12074
리버거	-12075
마일이	-12076
만큼만	-12077
메이징	-12078
뭐하냐	-12079
병신은	-12080
보는지	-12081
봣는데	-12082
봤네요	-12083
빠들은	-12084
뻘개이	-12085
사는데	-12086
선발은	-12087
세끼들	-12088
수있나	-12089
스웨덴	-12090
시발아	-12091
신이면	-12092
았어도	-12093
애들도	-12094
억달러	-12095
였군요	-12096
였다면	-12097
올리네	-12098
옵션이	-12099
요일에	-12100
웠는데	-12101
유망주	-12102
은이유	-12103
이기면	-12104
이지만	-12105
이후로	-12106
인가보	-12107
장에서	-12108
절부절	-12109
정신병	-12110
좀해라	-12111
주는게	-12112
준다고	-12113
쪽으로	-12114
쳤으면	-12115
초만에	-12116
축구가	-12117
축구는	-12118
커리어	-12119
콘서트	-12120
타이밍	-12121
테스트	-12122
투수가	-12123
트트릭	-12124
포티비	-12125
하길래	-12126
하냐고	-12127
하는걸	-12128
하는것	-12129
하더만	-12130
하잖아	-12131
한건가	-12132
한마당	-12133
할려면	-12134
할수있	-12135
할카스	-12136
해주면	-12137
~!~!	-12138
ᄋᄋᄋᄋ	-12139
▁0.1	-12140
▁0.2	-12141
▁0.6	-12142
▁147	-12143
▁1~2	-12144
▁40%	-12145
▁500	-12146
▁BTS	-12147
▁KBL	-12148
▁WAR	-12149
▁jjj	-12150
▁nfl	-12151
▁ᄆᄎᄃ	-12152
▁ᄋᄉᄃ	-12153
▁ᄌᄂ잘	-12154
▁ᄏᄏᄀ	-12155
▁◇◇◇	-12156
▁가네요	-12157
▁갈까요	-12158
▁갈수록	-12159
▁갈아서	-12160
▁갓매기	-12161
▁갓본은	-12162
▁갓직히	-12163
▁갓초아	-12164
▁강재민	-12165
▁강정호	-12166
▁개같은	-12167
▁개눈깔	-12168
▁개쇼잉	-12169
▁개이득	-12170
▁개쩐다	-12171
▁개하성	-12172
▁결국엔	-12173
▁결정력	-12174
▁결혼은	-12175
▁경기당	-12176
▁고트는	-12177
▁괜찮지	-12178
▁구속은	-12179
▁국대에	-12180
▁국적이	-12181
▁권창훈	-12182
▁귀화는	-12183
▁그대는	-12184
▁그런게	-12185
▁기다려	-12186
▁기주신	-12187
▁기준이	-12188
▁김태균	-12189
▁김헌곤	-12190
▁꽃미남	-12191
▁꾀원태	-12192
▁끝났네	-12193
▁나는데	-12194
▁나올듯	-12195
▁나왔냐	-12196
▁나은데	-12197
▁나은지	-12198
▁나혼자	-12199
▁날리네	-12200
▁내려간	-12201
▁냄새가	-12202
▁넘버원	-12203
▁넘어간	-12204
▁노리는	-12205
▁눈물의	-12206
▁뉴올이	-12207
▁느바가	-12208
▁늙어서	-12209
▁다노신	-12210
▁다르게	-12211
▁다르네	-12212
▁다음주	-12213
▁달린다	-12214
▁달찬빈	-12215
▁대기록	-12216
▁대깨문	-12217
▁대은리	-12218
▁대주는	-12219
▁던지냐	-12220
▁던지노	-12221
▁데이터	-12222
▁독일은	-12223
▁동엽갈	-12224
▁두경기	-12225
▁둘중에	-12226
▁뒤에서	-12227
▁뒤지네	-12228
▁드러눕	-12229
▁디빈첸	-12230
▁떠오르	-12231
▁떡밥이	-12232
▁똑바로	-12233
▁랄에서	-12234
▁마에다	-12235
▁말년에	-12236
▁망천이	-12237
▁먹는거	-12238
▁먹는데	-12239
▁메도우	-12240
▁메시랑	-12241
▁몇년전	-12242
▁몇대몇	-12243
▁모르나	-12244
▁모튼은	-12245
▁못이길	-12246
▁못했네	-12247
▁무난한	-12248
▁무난히	-12249
▁무서운	-12250
▁무서움	-12251
▁무섭네	-12252
▁문제임	-12253
▁뭐냐고	-12254
▁뭐칠래	-12255
▁뭔짓을	-12256
▁밀리터	-12257
▁방구석	-12258
▁밴블릿	-12259
▁버기성	-12260
▁베이커	-12261
▁베테랑	-12262
▁보내고	-12263
▁보여준	-12264
▁볼인데	-12265
▁봐야죠	-12266
▁분들이	-12267
▁불리튼	-12268
▁브레이	-12269
▁비인기	-12270
▁빌리빈	-12271
▁빡쳐서	-12272
▁뽑으면	-12273
▁사람도	-12274
▁상대가	-12275
▁생각을	-12276
▁서원김	-12277
▁서커스	-12278
▁선우신	-12279
▁섬노예	-12280
▁성현신	-12281
▁세레모	-12282
▁세상에	-12283
▁센징이	-12284
▁소프트	-12285
▁송구가	-12286
▁수밖에	-12287
▁수상자	-12288
▁수지신	-12289
▁슈뢰더	-12290
▁스머신	-12291
▁스윙맨	-12292
▁스타성	-12293
▁스폰서	-12294
▁시발거	-12295
▁시작한	-12296
▁시즌이	-12297
▁실패한	-12298
▁싶으면	-12299
▁쌍으로	-12300
▁씹캐리	-12301
▁아깝네	-12302
▁아닌듯	-12303
▁아닐지	-12304
▁아샨겜	-12305
▁안돌아	-12306
▁안될팀	-12307
▁안봐도	-12308
▁안쓰고	-12309
▁안어울	-12310
▁안타가	-12311
▁알겠다	-12312
▁암흑타	-12313
▁약빨고	-12314
▁약이튼	-12315
▁양의지	-12316
▁양키가	-12317
▁어땠음	-12318
▁어쩐지	-12319
▁얼마안	-12320
▁없어요	-12321
▁없을때	-12322
▁없잖아	-12323
▁엠비씨	-12324
▁연기력	-12325
▁올려야	-12326
▁올리버	-12327
▁올리지	-12328
▁왜이래	-12329
▁우승의	-12330
▁원맨팀	-12331
▁웨더스	-12332
▁웨이버	-12333
▁윤성빈	-12334
▁으악새	-12335
▁음해를	-12336
▁이겨라	-12337
▁이긴거	-12338
▁이분도	-12339
▁이선수	-12340
▁이승엽	-12341
▁이승진	-12342
▁이태원	-12343
▁인디는	-12344
▁인생이	-12345
▁있었네	-12346
▁있을지	-12347
▁자신감	-12348
▁잘나갈	-12349
▁잘했냐	-12350
▁잡아줬	-12351
▁잡았네	-12352
▁장점이	-12353
▁재미가	-12354
▁재미로	-12355
▁전반에	-12356
▁젠승락	-12357
▁졌네요	-12358
▁조금만	-12359
▁존나못	-12360
▁졸테어	-12361
▁종덕신	-12362
▁좆두가	-12363
▁좆런분	-12364
▁좆목질	-12365
▁좆저스	-12366
▁좋은듯	-12367
▁중학교	-12368
▁줬으면	-12369
▁즈라식	-12370
▁채흥신	-12371
▁쳐맞는	-12372
▁최연소	-12373
▁최초로	-12374
▁최초의	-12375
▁출장시	-12376
▁칼말론	-12377
▁캥동원	-12378
▁크레파	-12379
▁킹자르	-12380
▁킹즈마	-12381
▁터지고	-12382
▁터진다	-12383
▁털리는	-12384
▁테롤신	-12385
▁테이텀	-12386
▁투런포	-12387
▁툴롱컵	-12388
▁트럼프	-12389
▁팅글러	-12390
▁파울콜	-12391
▁팩다미	-12392
▁팩바이	-12393
▁페이커	-12394
▁포수가	-12395
▁포시가	-12396
▁포시때	-12397
▁표정이	-12398
▁프리먼	-12399
▁하고싶	-12400
▁하나씩	-12401
▁하더니	-12402
▁하우스	-12403
▁하위도	-12404
▁한두번	-12405
▁한바퀴	-12406
▁한방에	-12407
▁함부로	-12408
▁합리적	-12409
▁해프닝	-12410
▁했는지	-12411
▁행선지	-12412
▁허문회	-12413
▁허벅지	-12414
▁허삼영	-12415
▁현숙신	-12416
▁혐든은	-12417
▁형님들	-12418
▁혜화는	-12419
▁호돈신	-12420
▁호불호	-12421
▁호포드	-12422
▁홍어의	-12423
▁황재균	-12424
▁후반에	-12425
▁후베닐	-12426
★★★★	-12427
가능하냐	-12428
같았는데	-12429
그레이드	-12430
나오는거	-12431
나오는데	-12432
네요ᄏᄏ	-12433
네이마르	-12434
는겁니까	-12435
도망돼지	-12436
병신이네	-12437
브리스트	-12438
스럽네요	-12439
없었으면	-12440
였습니까	-12441
인가보네	-12442
잡아주네	-12443
적이네요	-12444
트나이트	-12445
하겠는데	-12446
하는이유	-12447
한다던데	-12448
해봅니다	-12449
.0423	-12450
1.175	-12451
▁ᄀᄀᄀᄀ	-12452
▁가겠네요	-12453
▁가짜뉴스	-12454
▁감독새끼	-12455
▁갓한민국	-12456
▁개새끼가	-12457
▁개와이가	-12458
▁개탠튼이	-12459
▁경리신은	-12460
▁괜찮네요	-12461
▁국저스를	-12462
▁궁금한거	-12463
▁기대되는	-12464
▁김하성이	-12465
▁까기시작	-12466
▁나발이고	-12467
▁나오는게	-12468
▁나오는지	-12469
▁날라다니	-12470
▁남았네요	-12471
▁노잼이네	-12472
▁놀랍노는	-12473
▁누가이기	-12474
▁누구누구	-12475
▁누구있음	-12476
▁느바선수	-12477
▁다르네요	-12478
▁다행이다	-12479
▁대가리에	-12480
▁대단하긴	-12481
▁대단하네	-12482
▁대단한게	-12483
▁던지는게	-12484
▁도복순이	-12485
▁독보지에	-12486
▁독일불매	-12487
▁돌아오면	-12488
▁동양인은	-12489
▁레너드는	-12490
▁로스터에	-12491
▁릅퀴들아	-12492
▁리즈시절	-12493
▁마르티네	-12494
▁마차도가	-12495
▁말하는거	-12496
▁맞습니까	-12497
▁맨체스터	-12498
▁먹었으면	-12499
▁멀티이닝	-12500
▁못봤는데	-12501
▁뭐하냐고	-12502
▁미친놈들	-12503
▁미친듯이	-12504
▁미친련아	-12505
▁반투명은	-12506
▁버럭신의	-12507
▁버럭이는	-12508
▁벌괴뉴스	-12509
▁벨기에전	-12510
▁볼돌리기	-12511
▁비슷하게	-12512
▁비엘리차	-12513
▁뻥글랜드	-12514
▁사기리님	-12515
▁사회생활	-12516
▁상황에서	-12517
▁손흥민도	-12518
▁솔로홈런	-12519
▁스웨덴이	-12520
▁스찌도루	-12521
▁시그니쳐	-12522
▁시작하면	-12523
▁시작한다	-12524
▁신기하네	-12525
▁씹새끼가	-12526
▁아깝네요	-12527
▁아니라서	-12528
▁아니었네	-12529
▁안그래도	-12530
▁안나오네	-12531
▁안되겠다	-12532
▁안되나요	-12533
▁안봤는데	-12534
▁안하는데	-12535
▁않았는데	-12536
▁앰디스윙	-12537
▁어림없는	-12538
▁없었는데	-12539
▁에이스는	-12540
▁엠비드가	-12541
▁연예인들	-12542
▁연장가서	-12543
▁올라가서	-12544
▁올라가야	-12545
▁올라왔네	-12546
▁우승못함	-12547
▁우승적기	-12548
▁은퇴해라	-12549
▁이거보고	-12550
▁이긴다고	-12551
▁이미지가	-12552
▁이상으로	-12553
▁이제와서	-12554
▁인정하는	-12555
▁일본한테	-12556
▁잘했다고	-12557
▁저번시즌	-12558
▁전범신은	-12559
▁정신나간	-12560
▁좆레빈저	-12561
▁중위리그	-12562
▁찬빈님은	-12563
▁쳐발리고	-12564
▁최지만이	-12565
▁추신수가	-12566
▁클러치에	-12567
▁클레빈져	-12568
▁키무하손	-12569
▁타구판단	-12570
▁탈아시아	-12571
▁태웃기네	-12572
▁터너타임	-12573
▁토론토는	-12574
▁토쟁이들	-12575
▁토종선발	-12576
▁투수교체	-12577
▁튀기새끼	-12578
▁트라이넨	-12579
▁파출리아	-12580
▁패귀세웅	-12581
▁패귀자욱	-12582
▁포스트업	-12583
▁포지션이	-12584
▁프로야구	-12585
▁프리패스	-12586
▁하위호환	-12587
▁행복회로	-12588
▁홈런치면	-12589
▁홍어한테	-12590
▁확실한건	-12591
▁휴스턴에	-12592
난너뿐이야	-12593
하지않나요	-12594
ᄉᄉᄉᄉᄉᄉ	-12595
▁개새끼들아	-12596
▁꺄아아아아	-12597
▁돼정공야채	-12598
▁로아이시가	-12599
▁모르겠네요	-12600
▁빅게임피쳐	-12601
▁쓰로워네요	-12602
▁씨발년들아	-12603
▁씹ᄏᄏᄏᄏ	-12604
▁아이버슨이	-12605
▁아직모른다	-12606
▁안타깝네요	-12607
▁약로자레나	-12608
▁어느정도냐	-12609
▁이강인이면	-12610
▁일어났는데	-12611
▁젖통이들이	-12612
▁채식주의자	-12613
▁크리스마스	-12614
▁클리퍼스가	-12615
▁트레이드는	-12616
▁폭삼ᄏᄏᄏ	-12617
▁확실하네요	-12618
▁휴지통한테	-12619
>>>>>>>	-12620
▁eAsypO	-12621
▁가짜시즌인데	-12622
▁멸망ᄏᄏᄏᄏ	-12623
▁121.175	-12624
▁99.0423	-12625
▁까기시작하는듯	-12626
▁씨발ᄏᄏᄏᄏᄏ	-12627
▁ᄉᄉᄉᄉᄉᄉᄉᄉ	-12628
ypowerball	-12629
▁꺄아아아아아아아아아	-12630
▁ᄉᄉᄉᄉᄉᄉᄉᄉᄉᄉᄉ	-12631
이낙연조국공공의대연평도	-12632
▁ᄉᄉᄉᄉᄉᄉᄉᄉᄉᄉᄉᄉ	-12633
▁eAsypOwerball	-12634
+@	-12635
21	-12636
CT	-12637
NA	-12638
ck	-12639
es	-12640
ey	-12641
ns	-12642
pn	-12643
ss	-12644
▀█	-12645
▁)	-12646
▁겹	-12647
▁괘	-12648
▁긱	-12649
▁깊	-12650
▁깠	-12651
▁깼	-12652
▁닿	-12653
▁묘	-12654
▁빗	-12655
▁뺴	-12656
▁뻐	-12657
▁섰	-12658
▁썸	-12659
▁앎	-12660
▁좇	-12661
▁쩍	-12662
▁쫌	-12663
▁찡	-12664
▁츠	-12665
▁켐	-12666
▁툰	-12667
▁팸	-12668
▁펜	-12669
▁혀	-12670
☆★	-12671
♥♥	-12672
가루	-12673
가이	-12674
각도	-12675
갑이	-12676
갔음	-12677
강이	-12678
개가	-12679
개씩	-12680
개인	-12681
개째	-12682
갯수	-12683
거국	-12684
걸린	-12685
겟음	-12686
겨도	-12687
결승	-12688
고동	-12689
고은	-12690
고자	-12691
골글	-12692
골넣	-12693
공은	-12694
관중	-12695
구멍	-12696
구면	-12697
구치	-12698
국밥	-12699
권이	-12700
규모	-12701
그럼	-12702
기분	-12703
기자	-12704
기회	-12705
끼꼬	-12706
나왔	-12707
날리	-12708
내기	-12709
내야	-12710
내자	-12711
냈네	-12712
냥이	-12713
넣음	-12714
노비	-12715
높은	-12716
니뮤	-12717
닌까	-12718
다시	-12719
다이	-12720
대상	-12721
댄다	-12722
되노	-12723
들턴	-12724
딸이	-12725
뜨거	-12726
뜨고	-12727
뜨면	-12728
라노	-12729
란한	-12730
랐네	-12731
랑우	-12732
레로	-12733
레미	-12734
력을	-12735
련지	-12736
렷다	-12737
로도	-12738
론데	-12739
루를	-12740
루에	-12741
릅퀴	-12742
링턴	-12743
마초	-12744
말임	-12745
맨날	-12746
무사	-12747
미디	-12748
미팅	-12749
민주	-12750
바꿔	-12751
받기	-12752
받냐	-12753
받음	-12754
배기	-12755
배당	-12756
버는	-12757
버릴	-12758
버쿠	-12759
베르	-12760
보나	-12761
보러	-12762
보장	-12763
부릉	-12764
부심	-12765
부지	-12766
부턴	-12767
비네	-12768
빈데	-12769
빠르	-12770
뿐임	-12771
뿜는	-12772
사에	-12773
살기	-12774
살때	-12775
서울	-12776
선임	-12777
세는	-12778
세상	-12779
세탁	-12780
셨네	-12781
소유	-12782
슈아	-12783
스신	-12784
스카	-12785
스틴	-12786
스파	-12787
시야	-12788
싸개	-12789
써서	-12790
아고	-12791
아프	-12792
악의	-12793
안느	-12794
압살	-12795
앗네	-12796
았어	-12797
억엔	-12798
언츠	-12799
없제	-12800
에로	-12801
예약	-12802
예측	-12803
오니	-12804
오든	-12805
올린	-12806
와꾸	-12807
왔냐	-12808
우네	-12809
운용	-12810
웃음	-12811
은신	-12812
의신	-12813
이런	-12814
이미	-12815
이이	-12816
인원	-12817
인터	-12818
일줄	-12819
잇는	-12820
있었	-12821
자키	-12822
잠지	-12823
잡았	-12824
잡음	-12825
장을	-12826
저걸	-12827
저씨	-12828
점수	-12829
정리	-12830
정보	-12831
정부	-12832
조볼	-12833
조합	-12834
좆나	-12835
좆망	-12836
좆좆	-12837
좋냐	-12838
좋노	-12839
주라	-12840
주로	-12841
주리	-12842
주셈	-12843
주제	-12844
지니	-12845
직금	-12846
진듯	-12847
질은	-12848
쪽이	-12849
차단	-12850
창섭	-12851
천원	-12852
초전	-12853
충격	-12854
충은	-12855
츠가	-12856
치나	-12857
치신	-12858
칠듯	-12859
카이	-12860
컬리	-12861
코비	-12862
쿼에	-12863
클퍼	-12864
타가	-12865
타기	-12866
타나	-12867
타는	-12868
타워	-12869
타율	-12870
태어	-12871
터너	-12872
테르	-12873
투구	-12874
트는	-12875
특징	-12876
판신	-12877
팩심	-12878
펑크	-12879
폐급	-12880
폴락	-12881
한명	-12882
한화	-12883
해본	-12884
해봄	-12885
해줬	-12886
했을	-12887
헤이	-12888
형제	-12889
호군	-12890
회때	-12891
횟수	-12892
후보	-12893
훈아	-12894
히게	-12895
---	-12896
-10	-12897
333	-12898
?..	-12899
WAR	-12900
ang	-12901
avi	-12902
eet	-12903
man	-12904
ᄏᄀᄏ	-12905
▀█▄	-12906
▁3/	-12907
▁44	-12908
▁46	-12909
▁56	-12910
▁59	-12911
▁69	-12912
▁75	-12913
▁86	-12914
▁WS	-12915
▁md	-12916
▁nc	-12917
▁ᄇᄇ	-12918
▁가망	-12919
▁가상	-12920
▁가즈	-12921
▁간잽	-12922
▁갈거	-12923
▁감이	-12924
▁강속	-12925
▁개나	-12926
▁개뿔	-12927
▁개상	-12928
▁개스	-12929
▁개씨	-12930
▁개입	-12931
▁개졸	-12932
▁개최	-12933
▁겆이	-12934
▁경력	-12935
▁경북	-12936
▁경제	-12937
▁계기	-12938
▁계획	-12939
▁공간	-12940
▁공굴	-12941
▁공략	-12942
▁공리	-12943
▁공존	-12944
▁과자	-12945
▁광대	-12946
▁괘씸	-12947
▁교통	-12948
▁교환	-12949
▁구걸	-12950
▁구독	-12951
▁구린	-12952
▁구할	-12953
▁국룰	-12954
▁국저	-12955
▁국제	-12956
▁권한	-12957
▁그팀	-12958
▁극딜	-12959
▁글은	-12960
▁기계	-12961
▁기괴	-12962
▁기만	-12963
▁기적	-12964
▁길게	-12965
▁김상	-12966
▁김정	-12967
▁깔고	-12968
▁깝깝	-12969
▁깡패	-12970
▁깨달	-12971
▁꼰대	-12972
▁꼴리	-12973
▁끼고	-12974
▁나락	-12975
▁나을	-12976
▁난다	-12977
▁날이	-12978
▁낫네	-12979
▁낮잠	-12980
▁내후	-12981
▁너는	-12982
▁넘겼	-12983
▁넣은	-12984
▁넣을	-12985
▁넥센	-12986
▁녹색	-12987
▁놀아	-12988
▁농담	-12989
▁높게	-12990
▁느려	-12991
▁다낚	-12992
▁닮지	-12993
▁대려	-12994
▁더러	-12995
▁더한	-12996
▁데빌	-12997
▁덴노	-12998
▁델피	-12999
▁돈많	-13000
▁됐다	-13001
▁되야	-13002
▁될듯	-13003
▁두놈	-13004
▁두들	-13005
▁듀랭	-13006
▁듀미	-13007
▁등극	-13008
▁디펜	-13009
▁때리	-13010
▁뛰던	-13011
▁라멜	-13012
▁라윤	-13013
▁로마	-13014
▁루크	-13015
▁마려	-13016
▁만났	-13017
▁말은	-13018
▁망가	-13019
▁망친	-13020
▁망할	-13021
▁맞나	-13022
▁매복	-13023
▁머피	-13024
▁먹여	-13025
▁먹자	-13026
▁먹혔	-13027
▁메달	-13028
▁명언	-13029
▁몇살	-13030
▁모를	-13031
▁몰락	-13032
▁못믿	-13033
▁못박	-13034
▁못털	-13035
▁무빈	-13036
▁무한	-13037
▁문학	-13038
▁뭐다	-13039
▁뭐로	-13040
▁뭐하	-13041
▁뭘까	-13042
▁민간	-13043
▁믿어	-13044
▁바뀔	-13045
▁바닥	-13046
▁반쪽	-13047
▁반흑	-13048
▁발라	-13049
▁발사	-13050
▁방문	-13051
▁방향	-13052
▁배정	-13053
▁버려	-13054
▁벌떡	-13055
▁벨뽕	-13056
▁보셈	-13057
▁보임	-13058
▁보직	-13059
▁본능	-13060
▁볼까	-13061
▁볼을	-13062
▁봉인	-13063
▁봐줘	-13064
▁비유	-13065
▁비참	-13066
▁빠졌	-13067
▁빨고	-13068
▁빨지	-13069
▁뻥축	-13070
▁사용	-13071
▁사후	-13072
▁살다	-13073
▁샘슨	-13074
▁샤워	-13075
▁선동	-13076
▁세월	-13077
▁섹머	-13078
▁섹시	-13079
▁셋다	-13080
▁소득	-13081
▁소문	-13082
▁쇼맨	-13083
▁수동	-13084
▁수십	-13085
▁술마	-13086
▁숨참	-13087
▁쉬고	-13088
▁쉽지	-13089
▁슛은	-13090
▁시뻘	-13091
▁시야	-13092
▁시킨	-13093
▁식비	-13094
▁신체	-13095
▁실바	-13096
▁써드	-13097
▁써라	-13098
▁쓰레	-13099
▁씹둥	-13100
▁씹콱	-13101
▁씹텍	-13102
▁아린	-13103
▁악마	-13104
▁안감	-13105
▁안남	-13106
▁안녕	-13107
▁안만	-13108
▁안목	-13109
▁안빼	-13110
▁안속	-13111
▁액션	-13112
▁야스	-13113
▁약시	-13114
▁양대	-13115
▁어딧	-13116
▁업뎃	-13117
▁없을	-13118
▁에미	-13119
▁에바	-13120
▁여태	-13121
▁예고	-13122
▁오사	-13123
▁오줌	-13124
▁와야	-13125
▁왕보	-13126
▁울릉	-13127
▁원본	-13128
▁원빈	-13129
▁원폭	-13130
▁유승	-13131
▁이슈	-13132
▁인류	-13133
▁인명	-13134
▁인상	-13135
▁일을	-13136
▁입증	-13137
▁자격	-13138
▁자멸	-13139
▁자원	-13140
▁작정	-13141
▁잡지	-13142
▁장정	-13143
▁재롱	-13144
▁저개	-13145
▁적은	-13146
▁전략	-13147
▁전적	-13148
▁절친	-13149
▁정모	-13150
▁제니	-13151
▁조각	-13152
▁조기	-13153
▁조정	-13154
▁졸로	-13155
▁좁밥	-13156
▁좃나	-13157
▁종범	-13158
▁좆고	-13159
▁좆됨	-13160
▁좆디	-13161
▁좆이	-13162
▁좆주	-13163
▁좋죠	-13164
▁죤나	-13165
▁주바	-13166
▁주역	-13167
▁중원	-13168
▁줘야	-13169
▁지식	-13170
▁지어	-13171
▁지켜	-13172
▁직선	-13173
▁질싸	-13174
▁짜른	-13175
▁짝짓	-13176
▁짤이	-13177
▁쩌리	-13178
▁쩐다	-13179
▁쪽후	-13180
▁쫓겨	-13181
▁쭈쭈	-13182
▁차례	-13183
▁차범	-13184
▁찬성	-13185
▁챔결	-13186
▁처분	-13187
▁천적	-13188
▁철거	-13189
▁청정	-13190
▁쳐봐	-13191
▁초대	-13192
▁초딩	-13193
▁최종	-13194
▁출발	-13195
▁커버	-13196
▁커서	-13197
▁커즌	-13198
▁코어	-13199
▁쿠퍼	-13200
▁클락	-13201
▁탈갤	-13202
▁탑급	-13203
▁텐션	-13204
▁토끼	-13205
▁토론	-13206
▁통수	-13207
▁통증	-13208
▁통한	-13209
▁퇴갤	-13210
▁툴뽕	-13211
▁특급	-13212
▁특히	-13213
▁팀빨	-13214
▁파이	-13215
▁파인	-13216
▁파피	-13217
▁판결	-13218
▁패는	-13219
▁패싱	-13220
▁팩쇼	-13221
▁평속	-13222
▁평화	-13223
▁프차	-13224
▁플래	-13225
▁플레	-13226
▁피쳐	-13227
▁핀토	-13228
▁필수	-13229
▁하러	-13230
▁하여	-13231
▁한놈	-13232
▁한짤	-13233
▁한팀	-13234
▁할만	-13235
▁해명	-13236
▁했냐	-13237
▁했노	-13238
▁헐리	-13239
▁헬스	-13240
▁현직	-13241
▁형제	-13242
▁호주	-13243
▁화내	-13244
▁후배	-13245
▁흔한	-13246
▁히히	-13247
▁힘드	-13248
가나요	-13249
가즈아	-13250
갔는지	-13251
같은게	-13252
개장수	-13253
거같지	-13254
건우솩	-13255
것보다	-13256
경기도	-13257
고서저	-13258
고있냐	-13259
구단주	-13260
국대에	-13261
군훈련	-13262
그렇지	-13263
기록이	-13264
네이더	-13265
넼ᄏᄏ	-13266
년들은	-13267
년전에	-13268
년차에	-13269
놈들도	-13270
놓으면	-13271
는데도	-13272
달라는	-13273
덴홀저	-13274
드리지	-13275
들끼리	-13276
라는거	-13277
라는건	-13278
라운더	-13279
랑우탄	-13280
레이스	-13281
레일리	-13282
레전드	-13283
롭네요	-13284
르브론	-13285
리그가	-13286
리나리	-13287
리드먼	-13288
리어스	-13289
린거냐	-13290
메리카	-13291
못해서	-13292
문조사	-13293
밀워키	-13294
받으면	-13295
버리노	-13296
버쿠젠	-13297
보는게	-13298
보세요	-13299
보스턴	-13300
빠들이	-13301
사랑해	-13302
사이버	-13303
새키들	-13304
선발로	-13305
셨으면	-13306
수아비	-13307
스럽다	-13308
스에서	-13309
시나요	-13310
시던데	-13311
시키는	-13312
신이네	-13313
실점이	-13314
심하네	-13315
씨발련	-13316
씨발아	-13317
아는데	-13318
아아아	-13319
아이돌	-13320
안되냐	-13321
안된다	-13322
앞에서	-13323
억이면	-13324
없는듯	-13325
에비해	-13326
엿는데	-13327
오나요	-13328
올리고	-13329
옵니다	-13330
우승도	-13331
웠네요	-13332
위까지	-13333
으니깐	-13334
으실듯	-13335
은거죠	-13336
은거지	-13337
을걸요	-13338
을수있	-13339
이나네	-13340
이비스	-13341
이었나	-13342
이었어	-13343
이유는	-13344
인거죠	-13345
인이유	-13346
일휴식	-13347
임ᄏᄏ	-13348
있냐고	-13349
있어도	-13350
적으론	-13351
제임스	-13352
좋겠다	-13353
지도않	-13354
집니까	-13355
채우고	-13356
축알못	-13357
충들이	-13358
칸인지	-13359
캐스트	-13360
커스가	-13361
커스는	-13362
쿼터에	-13363
타이어	-13364
타자가	-13365
파베이	-13366
페이스	-13367
하겟네	-13368
하구나	-13369
하던가	-13370
하시죠	-13371
한거야	-13372
한데요	-13373
한테서	-13374
할따리	-13375
해졌네	-13376
해주고	-13377
했으니	-13378
ᄋᄉᄅᄉ	-13379
▁1+1	-13380
▁345	-13381
▁4-1	-13382
▁<->	-13383
▁ETR	-13384
▁Psg	-13385
▁dtd	-13386
▁eas	-13387
▁per	-13388
▁www	-13389
▁ᄇᄉ아	-13390
▁ᄋᄉᄒ	-13391
▁ᄋᄐᄉ	-13392
▁ᄒᄒᄒ	-13393
▁ᅳᅳᅳ	-13394
▁가나요	-13395
▁가는데	-13396
▁각이다	-13397
▁갈통쿤	-13398
▁감독을	-13399
▁갑분싸	-13400
▁갓데도	-13401
▁강간당	-13402
▁강팀이	-13403
▁같나요	-13404
▁같은지	-13405
▁개그맨	-13406
▁개꿀조	-13407
▁개똥싸	-13408
▁개사기	-13409
▁개새꺄	-13410
▁개치로	-13411
▁거르네	-13412
▁거르면	-13413
▁거지들	-13414
▁건가요	-13415
▁경기만	-13416
▁고랄이	-13417
▁고릴라	-13418
▁고마워	-13419
▁골든볼	-13420
▁골스에	-13421
▁공격이	-13422
▁공통점	-13423
▁괜찮게	-13424
▁구승민	-13425
▁구위는	-13426
▁그렇죠	-13427
▁그리즈	-13428
▁그린은	-13429
▁기록이	-13430
▁기훈신	-13431
▁김기훈	-13432
▁김동엽	-13433
▁까놓고	-13434
▁까는게	-13435
▁깔끔한	-13436
▁꼴리는	-13437
▁꾀릿콜	-13438
▁끼리신	-13439
▁나가네	-13440
▁나라가	-13441
▁나을듯	-13442
▁나이에	-13443
▁나종덕	-13444
▁나한테	-13445
▁내년이	-13446
▁냈으면	-13447
▁넘겨라	-13448
▁넘어갔	-13449
▁누누히	-13450
▁느바로	-13451
▁느바에	-13452
▁늡갤에	-13453
▁다른건	-13454
▁대구의	-13455
▁대폭발	-13456
▁덕배는	-13457
▁던져도	-13458
▁던져서	-13459
▁돈지랄	-13460
▁동부는	-13461
▁되니까	-13462
▁된거냐	-13463
▁됩니다	-13464
▁뒤져도	-13465
▁뒤지는	-13466
▁드러누	-13467
▁들어올	-13468
▁들어와	-13469
▁디펜스	-13470
▁딥쓰리	-13471
▁따지고	-13472
▁딱인데	-13473
▁똥클이	-13474
▁라디오	-13475
▁론도가	-13476
▁릅갈이	-13477
▁리버스	-13478
▁마누라	-13479
▁마음에	-13480
▁마음이	-13481
▁마포주	-13482
▁막아야	-13483
▁막으면	-13484
▁많던데	-13485
▁말박이	-13486
▁망한거	-13487
▁맥흥민	-13488
▁맨유가	-13489
▁머리에	-13490
▁멍청한	-13491
▁메끼꼬	-13492
▁메시도	-13493
▁메시를	-13494
▁메이드	-13495
▁명재신	-13496
▁몰리나	-13497
▁못넣노	-13498
▁못하긴	-13499
▁못한게	-13500
▁못해서	-13501
▁무관중	-13502
▁무뇌신	-13503
▁문제지	-13504
▁미국이	-13505
▁밑으로	-13506
▁바꿔서	-13507
▁바라는	-13508
▁반대로	-13509
▁반즈신	-13510
▁받는데	-13511
▁받아서	-13512
▁배팅볼	-13513
▁보그단	-13514
▁보려고	-13515
▁보세요	-13516
▁보여줄	-13517
▁보영신	-13518
▁본사람	-13519
▁봐야됨	-13520
▁부러운	-13521
▁북경수	-13522
▁븅신들	-13523
▁브로니	-13524
▁빅맨이	-13525
▁빌드업	-13526
▁빚전드	-13527
▁빠는거	-13528
▁빠따는	-13529
▁빠르게	-13530
▁빠르네	-13531
▁빠지면	-13532
▁사기당	-13533
▁사이즈	-13534
▁생각에	-13535
▁생기면	-13536
▁생기지	-13537
▁세웅신	-13538
▁세이버	-13539
▁수미로	-13540
▁수비형	-13541
▁순수실	-13542
▁슛돌이	-13543
▁스브스	-13544
▁스찌는	-13545
▁스찌도	-13546
▁스찌로	-13547
▁스탯은	-13548
▁스티브	-13549
▁시작된	-13550
▁시즌에	-13551
▁신기함	-13552
▁신들의	-13553
▁신발끈	-13554
▁심상치	-13555
▁심판탓	-13556
▁심하긴	-13557
▁십새끼	-13558
▁쓰는지	-13559
▁쓰라고	-13560
▁씨발럼	-13561
▁씨이발	-13562
▁씹왁의	-13563
▁아마도	-13564
▁아이솔	-13565
▁안되고	-13566
▁안보임	-13567
▁안타는	-13568
▁안해주	-13569
▁않을까	-13570
▁알려줘	-13571
▁알링턴	-13572
▁앗뜨거	-13573
▁애틀이	-13574
▁얘기가	-13575
▁얘기는	-13576
▁어거지	-13577
▁어땠냐	-13578
▁어머니	-13579
▁얼만데	-13580
▁없어도	-13581
▁엑윽은	-13582
▁엑윽이	-13583
▁엘리트	-13584
▁여기는	-13585
▁여기에	-13586
▁역사가	-13587
▁역전승	-13588
▁영구결	-13589
▁영원히	-13590
▁옐리치	-13591
▁오스틴	-13592
▁오승환	-13593
▁오푼이	-13594
▁오현우	-13595
▁올린거	-13596
▁와이드	-13597
▁외모가	-13598
▁외야수	-13599
▁우리털	-13600
▁우승시	-13601
▁웃기긴	-13602
▁워저미	-13603
▁월시가	-13604
▁의문의	-13605
▁의외의	-13606
▁이겼네	-13607
▁이경기	-13608
▁이길수	-13609
▁이런데	-13610
▁이민호	-13611
▁이쁘네	-13612
▁일본전	-13613
▁일뽕이	-13614
▁임찬규	-13615
▁있겠네	-13616
▁있다면	-13617
▁잘한거	-13618
▁잘해야	-13619
▁잡아줘	-13620
▁장바지	-13621
▁저걸못	-13622
▁저딴게	-13623
▁절대안	-13624
▁접대가	-13625
▁정공신	-13626
▁정확한	-13627
▁젠슨이	-13628
▁졌는데	-13629
▁졌잘싸	-13630
▁조상우	-13631
▁족켈리	-13632
▁좆되는	-13633
▁좆된다	-13634
▁좆레스	-13635
▁좆슨이	-13636
▁좆으로	-13637
▁좆프트	-13638
▁좋은편	-13639
▁주자살	-13640
▁죽어도	-13641
▁중간에	-13642
▁중국이	-13643
▁지거국	-13644
▁직업이	-13645
▁짜르고	-13646
▁차도신	-13647
▁찰장군	-13648
▁쳐맞은	-13649
▁쳤나요	-13650
▁추레기	-13651
▁축구력	-13652
▁축구로	-13653
▁치네요	-13654
▁치우고	-13655
▁칠리가	-13656
▁카운트	-13657
▁컨셉을	-13658
▁코미디	-13659
▁콜라렉	-13660
▁키움은	-13661
▁킹바페	-13662
▁타격이	-13663
▁타일러	-13664
▁태화싹	-13665
▁탬파가	-13666
▁터졌네	-13667
▁터지냐	-13668
▁터지네	-13669
▁터진거	-13670
▁터진게	-13671
▁테임즈	-13672
▁토토충	-13673
▁통피로	-13674
▁퇴직금	-13675
▁트로피	-13676
▁틀딱이	-13677
▁팀동료	-13678
▁팀으로	-13679
▁팀이냐	-13680
▁팀하쥬	-13681
▁파울은	-13682
▁팔로우	-13683
▁팔로워	-13684
▁패널티	-13685
▁패스가	-13686
▁패스를	-13687
▁팩더레	-13688
▁팩팩트	-13689
▁페레즈	-13690
▁페타주	-13691
▁평범한	-13692
▁평소에	-13693
▁포시에	-13694
▁폴보지	-13695
▁프레임	-13696
▁플옵도	-13697
▁필요가	-13698
▁하려고	-13699
▁한국도	-13700
▁한글날	-13701
▁한번에	-13702
▁한일전	-13703
▁할까요	-13704
▁합쳐서	-13705
▁해놓고	-13706
▁해리스	-13707
▁해설이	-13708
▁헬조선	-13709
▁헬조센	-13710
▁혜화퐈	-13711
▁홈런친	-13712
▁홍상삼	-13713
▁홍어날	-13714
▁홍창기	-13715
▁화이티	-13716
▁화재가	-13717
▁황스턴	-13718
▁후계자	-13719
▁흑묘군	-13720
▁흑호신	-13721
▁흙수저	-13722
▁흥행을	-13723
거리는거	-13724
경기에서	-13725
다는것도	-13726
되자마자	-13727
들어가면	-13728
마드리드	-13729
볼때마다	-13730
생각하면	-13731
수있나요	-13732
스찌스찌	-13733
스테이트	-13734
스트라이	-13735
시는분들	-13736
을거같은	-13737
을때마다	-13738
이라더니	-13739
이상으로	-13740
이였네요	-13741
줄알았다	-13742
중에서도	-13743
팀이네요	-13744
하고있네	-13745
하노ᄏᄏ	-13746
할수밖에	-13747
해지네요	-13748
해지는거	-13749
▁1000	-13750
▁1500	-13751
▁2013	-13752
▁2016	-13753
▁CLDS	-13754
▁ᄉᄇ년아	-13755
▁가드너신	-13756
▁갈매기도	-13757
▁갓본이다	-13758
▁개리드먼	-13759
▁개베리노	-13760
▁개스머가	-13761
▁개씹롸잇	-13762
▁개씹차도	-13763
▁개야갤이	-13764
▁개인기량	-13765
▁걸쳤는데	-13766
▁게이리그	-13767
▁경기보면	-13768
▁골키퍼가	-13769
▁군대에서	-13770
▁귀화하고	-13771
▁귀화해야	-13772
▁그따구로	-13773
▁그새끼가	-13774
▁기어들어	-13775
▁깔끔하게	-13776
▁꿀잼이네	-13777
▁남았는데	-13778
▁내야안타	-13779
▁누가보면	-13780
▁뉴욕에서	-13781
▁다시봐도	-13782
▁단축리그	-13783
▁담당일진	-13784
▁돌버츠가	-13785
▁동양인이	-13786
▁되지않냐	-13787
▁듀좆통은	-13788
▁들어가네	-13789
▁디빈첸조	-13790
▁떨어진거	-13791
▁러시아가	-13792
▁레버쿠젠	-13793
▁릅신보다	-13794
▁리그에서	-13795
▁먹나카가	-13796
▁멕시코전	-13797
▁멱살잡고	-13798
▁못했는데	-13799
▁뫅겆대전	-13800
▁무서워서	-13801
▁믿습니다	-13802
▁밀워키랑	-13803
▁발작하는	-13804
▁버럭엔딩	-13805
▁벨기에를	-13806
▁벨좆간이	-13807
▁병신같이	-13808
▁병신이라	-13809
▁보겠네요	-13810
▁보트원준	-13811
▁비교하는	-13812
▁사람샬럿	-13813
▁사랑해요	-13814
▁사후경직	-13815
▁성적부진	-13816
▁세상에서	-13817
▁스노우볼	-13818
▁스찌네요	-13819
▁스찌타임	-13820
▁스카우트	-13821
▁스트레스	-13822
▁슬프네요	-13823
▁승희신은	-13824
▁시그니처	-13825
▁시발ᄏᄏ	-13826
▁시발놈아	-13827
▁시작하네	-13828
▁시작하는	-13829
▁시즌중에	-13830
▁식당볼은	-13831
▁신의한수	-13832
▁쓸데없이	-13833
▁씨발련이	-13834
▁씹뫅한테	-13835
▁씹새끼는	-13836
▁씹타비노	-13837
▁아시아인	-13838
▁아키야마	-13839
▁안잡아줘	-13840
▁안절부절	-13841
▁안하나요	-13842
▁안하는지	-13843
▁알칸타라	-13844
▁야구만화	-13845
▁야구야구	-13846
▁야구에서	-13847
▁어메이징	-13848
▁없겠네요	-13849
▁엠흑카쿠	-13850
▁오늘따라	-13851
▁올라가는	-13852
▁올라오네	-13853
▁올리는거	-13854
▁왔습니다	-13855
▁요미우리	-13856
▁요키치가	-13857
▁워크에씩	-13858
▁유튜브에	-13859
▁이기겠네	-13860
▁이길거같	-13861
▁이길까요	-13862
▁이길확률	-13863
▁이번에는	-13864
▁이상한거	-13865
▁인명피해	-13866
▁입장에서	-13867
▁있었는지	-13868
▁작년이랑	-13869
▁잘치네요	-13870
▁잘커봐야	-13871
▁잘하더라	-13872
▁잘했네요	-13873
▁정규리그	-13874
▁조따리는	-13875
▁좆밥새끼	-13876
▁좆이마르	-13877
▁좆차리토	-13878
▁주성소바	-13879
▁진짜리그	-13880
▁진출하면	-13881
▁찾아보니	-13882
▁초구부터	-13883
▁추하네요	-13884
▁카세미루	-13885
▁카지노도	-13886
▁커퀴들이	-13887
▁쿠르투와	-13888
▁클퍼한테	-13889
▁탈락하고	-13890
▁탕프먼이	-13891
▁투수들이	-13892
▁파울리뉴	-13893
▁프리드먼	-13894
▁프리미어	-13895
▁프리허그	-13896
▁하는거지	-13897
▁학력떡밥	-13898
▁해리케인	-13899
▁핸드릭스	-13900
▁황국신민	-13901
▁후반기에	-13902
▁후전드가	-13903
▁히어로즈	-13904
▁🌑🌑🌑🌑	-13905
사이버펑크	-13906
지안카를로	-13907
ᄏᄏᄏᄏᄏᄀ	-13908
▁17-18	-13909
▁ᄋᄉᄌᄉᄉ	-13910
▁개장수장수	-13911
▁귀화하라는	-13912
▁기대했는데	-13913
▁나오는건지	-13914
▁누구인가요	-13915
▁디비전따리	-13916
▁멸망ᄏᄏᄏ	-13917
▁못참겠어서	-13918
▁미친놈이네	-13919
▁밝혀졌네요	-13920
▁병신새끼가	-13921
▁브라질이랑	-13922
▁새크라멘토	-13923
▁스무스하게	-13924
▁스탯캐스트	-13925
▁스트레찬빈	-13926
▁시작됐네요	-13927
▁시작하네요	-13928
▁쓰로워새끼	-13929
▁씨발새끼가	-13930
▁아니었네요	-13931
▁아니었어도	-13932
▁에이징커브	-13933
▁여자들한테	-13934
▁오클라호마	-13935
▁올라왔으면	-13936
▁우루과이가	-13937
▁원중디아즈	-13938
▁이번시리즈	-13939
▁이번시즌은	-13940
▁잉글랜드가	-13941
▁정리해준다	-13942
▁좆본새끼들	-13943
▁좆시코한테	-13944
▁최도망약물	-13945
▁최지만한테	-13946
▁타코새끼들	-13947
▁페르난지뉴	-13948
▁호감이네요	-13949
▁홍어꼬리존	-13950
▁휴지통이랑	-13951
▁110.70	-13952
▁가짜재능새끼	-13953
▁볼만하겠네요	-13954
▁스찌ᄏᄏᄏᄏ	-13955
▁앰창팀이네요	-13956
▁양키스타디움	-13957
▁엌ᄏᄏᄏᄏᄏ	-13958
ᄉᄉᄉᄉᄉᄉᄉᄉ	-13959
▁로드매니지먼트	-13960
▁99.0423%	-13961
▁ᄃᄃᄃᄃᄃᄃᄃᄃᄃᄃ	-13962
▁멸망ᄏᄏᄏᄏᄏᄏᄏᄏᄏ	-13963
!!!!!!!!!!!!!!!!	-13964
!.	-13965
)-	-13966
,7	-13967
-4	-13968
/2	-13969
45	-13970
48	-13971
89	-13972
:3	-13973
BS	-13974
FA	-13975
FL	-13976
RC	-13977
ay	-13978
ch	-13979
ja	-13980
~4	-13981
ᄃᄉ	-13982
ᄋᄌ	-13983
ᄏᄁ	-13984
▁V	-13985
▁X	-13986
▁z	-13987
▁ノ	-13988
▁日	-13989
▁甲	-13990
▁갚	-13991
▁갠	-13992
▁껌	-13993
▁낄	-13994
▁늑	-13995
▁닫	-13996
▁돕	-13997
▁듬	-13998
▁벅	-13999
▁벵	-14000
▁붐	-14001
▁뻗	-14002
▁씌	-14003
▁엥	-14004
▁옴	-14005
▁잰	-14006
▁쫒	-14007
▁콧	-14008
▁퀵	-14009
▁폄	-14010
▁푹	-14011
▁헷	-14012
▁흰	-14013
▁힙	-14014
가든	-14015
가솔	-14016
가장	-14017
갈거	-14018
갈이	-14019
갓다	-14020
강따	-14021
같노	-14022
같아	-14023
개그	-14024
갤은	-14025
걸요	-14026
검사	-14027
게생	-14028
격의	-14029
계속	-14030
고만	-14031
고환	-14032
골처	-14033
공이	-14034
과의	-14035
광대	-14036
괜찮	-14037
구도	-14038
구린	-14039
국이	-14040
군데	-14041
그먼	-14042
급만	-14043
기냐	-14044
기옥	-14045
기지	-14046
긴다	-14047
까라	-14048
꼴이	-14049
꾀지	-14050
날은	-14051
났노	-14052
낼듯	-14053
너마	-14054
너신	-14055
넌트	-14056
넘은	-14057
넣어	-14058
네임	-14059
녀석	-14060
뉴비	-14061
는줄	-14062
답답	-14063
대단	-14064
대우	-14065
던은	-14066
던컨	-14067
도않	-14068
도환	-14069
돌림	-14070
동신	-14071
돼서	-14072
됐노	-14073
되야	-14074
될뻔	-14075
됬다	-14076
두술	-14077
드랲	-14078
드려	-14079
득한	-14080
듣보	-14081
들면	-14082
등신	-14083
디시	-14084
딩요	-14085
딩크	-14086
떠서	-14087
란츠	-14088
란히	-14089
레딕	-14090
렷네	-14091
렸죠	-14092
례식	-14093
루스	-14094
루트	-14095
르헨	-14096
름이	-14097
리랑	-14098
리샴	-14099
리즘	-14100
리학	-14101
마사	-14102
마요	-14103
마음	-14104
마진	-14105
만도	-14106
머냐	-14107
멀뚱	-14108
메츠	-14109
멜스	-14110
명의	-14111
목록	-14112
무엇	-14113
무일	-14114
미국	-14115
미존	-14116
미좆	-14117
밑에	-14118
반대	-14119
배는	-14120
배야	-14121
백한	-14122
버티	-14123
벌떡	-14124
본능	-14125
부네	-14126
부족	-14127
분간	-14128
분도	-14129
불러	-14130
블럼	-14131
블루	-14132
사다	-14133
사단	-14134
사례	-14135
사마	-14136
사상	-14137
사항	-14138
산신	-14139
살면	-14140
살어	-14141
성지	-14142
세우	-14143
슈터	-14144
스위	-14145
스의	-14146
스펙	-14147
승부	-14148
시로	-14149
시먼	-14150
시민	-14151
시원	-14152
시지	-14153
식사	-14154
실수	-14155
심한	-14156
쏘는	-14157
씹왁	-14158
아나	-14159
아치	-14160
안나	-14161
았을	-14162
앰흑	-14163
양심	-14164
양주	-14165
어저	-14166
없노	-14167
엇냐	-14168
여행	-14169
연이	-14170
였누	-14171
였을	-14172
영화	-14173
예선	-14174
오나	-14175
오브	-14176
오자	-14177
온게	-14178
왕택	-14179
외로	-14180
우드	-14181
우라	-14182
운다	-14183
운영	-14184
워크	-14185
원은	-14186
월튼	-14187
웠던	-14188
위냐	-14189
유입	-14190
은적	-14191
을만	-14192
을뻔	-14193
이겼	-14194
이보	-14195
이전	-14196
일도	-14197
입고	-14198
입은	-14199
자살	-14200
작년	-14201
잡이	-14202
재밋	-14203
재훈	-14204
저게	-14205
전용	-14206
정돈	-14207
젖통	-14208
제구	-14209
제왕	-14210
존잘	-14211
종자	-14212
좆본	-14213
주전	-14214
중국	-14215
중요	-14216
지키	-14217
질거	-14218
집값	-14219
짤은	-14220
쨋든	-14221
쪽에	-14222
찍고	-14223
찾아	-14224
채우	-14225
처형	-14226
초반	-14227
카나	-14228
카락	-14229
카와	-14230
캐치	-14231
케르	-14232
케팅	-14233
코시	-14234
콘이	-14235
콜릿	-14236
콜이	-14237
크네	-14238
크는	-14239
크라	-14240
타순	-14241
태클	-14242
테크	-14243
텐튼	-14244
통합	-14245
투스	-14246
튜베	-14247
티브	-14248
티치	-14249
팅은	-14250
파고	-14251
파악	-14252
패네	-14253
패닉	-14254
패로	-14255
팬덤	-14256
평균	-14257
평양	-14258
포스	-14259
폭격	-14260
프는	-14261
하진	-14262
한걸	-14263
한신	-14264
한척	-14265
햇음	-14266
행기	-14267
혐든	-14268
형은	-14269
혜화	-14270
호은	-14271
호텔	-14272
환신	-14273
회도	-14274
회신	-14275
회의	-14276
훔바	-14277
휘두	-14278
희관	-14279
,,,	-14280
-17	-14281
-30	-14282
10.	-14283
ᄒᄐᄎ	-14284
ᅲᅲᅲ	-14285
▁4/	-14286
▁6/	-14287
▁MD	-14288
▁No	-14289
▁if	-14290
▁in	-14291
▁lg	-14292
▁ne	-14293
▁no	-14294
▁or	-14295
▁tv	-14296
▁가게	-14297
▁가동	-14298
▁가수	-14299
▁가오	-14300
▁가죽	-14301
▁각도	-14302
▁간절	-14303
▁갈것	-14304
▁갈리	-14305
▁감흥	-14306
▁갔네	-14307
▁강원	-14308
▁강탈	-14309
▁강호	-14310
▁강화	-14311
▁개독	-14312
▁개미	-14313
▁개부	-14314
▁개졷	-14315
▁개좃	-14316
▁개쫄	-14317
▁개퍼	-14318
▁거북	-14319
▁건다	-14320
▁건영	-14321
▁걷어	-14322
▁겆뫅	-14323
▁겆왁	-14324
▁결말	-14325
▁골라	-14326
▁곱게	-14327
▁공도	-14328
▁공주	-14329
▁공지	-14330
▁공항	-14331
▁광기	-14332
▁교수	-14333
▁교진	-14334
▁구조	-14335
▁국병	-14336
▁굴리	-14337
▁귀국	-14338
▁귀찮	-14339
▁규모	-14340
▁그딴	-14341
▁그지	-14342
▁극복	-14343
▁글렀	-14344
▁기부	-14345
▁기생	-14346
▁기업	-14347
▁기여	-14348
▁긴급	-14349
▁김영	-14350
▁김학	-14351
▁깨질	-14352
▁꺼내	-14353
▁꺼지	-14354
▁끌려	-14355
▁끝냈	-14356
▁나네	-14357
▁나달	-14358
▁나서	-14359
▁나카	-14360
▁날린	-14361
▁내리	-14362
▁내면	-14363
▁넣네	-14364
▁년은	-14365
▁놀이	-14366
▁놓고	-14367
▁눈빛	-14368
▁눈을	-14369
▁늘동	-14370
▁늘중	-14371
▁다닐	-14372
▁달랐	-14373
▁달러	-14374
▁당당	-14375
▁당첨	-14376
▁당황	-14377
▁대가	-14378
▁대만	-14379
▁대선	-14380
▁대참	-14381
▁덕분	-14382
▁돈만	-14383
▁돌림	-14384
▁동갑	-14385
▁동상	-14386
▁됐지	-14387
▁되기	-14388
▁될거	-14389
▁두렵	-14390
▁두상	-14391
▁뒤로	-14392
▁뒤짐	-14393
▁듣고	-14394
▁등등	-14395
▁떡발	-14396
▁떳다	-14397
▁뚱뚱	-14398
▁뜻이	-14399
▁라도	-14400
▁랜선	-14401
▁로고	-14402
▁로리	-14403
▁루까	-14404
▁리셋	-14405
▁리핏	-14406
▁마군	-14407
▁마냥	-14408
▁마저	-14409
▁마켓	-14410
▁막고	-14411
▁막히	-14412
▁만기	-14413
▁말로	-14414
▁말했	-14415
▁맞긴	-14416
▁매우	-14417
▁메쟈	-14418
▁면접	-14419
▁몇분	-14420
▁몇승	-14421
▁몇점	-14422
▁모기	-14423
▁모아	-14424
▁모여	-14425
▁모으	-14426
▁몸풀	-14427
▁못된	-14428
▁못쳐	-14429
▁무료	-14430
▁무발	-14431
▁민상	-14432
▁밀려	-14433
▁바꼈	-14434
▁바꿀	-14435
▁바클	-14436
▁박제	-14437
▁반골	-14438
▁받기	-14439
▁받음	-14440
▁배구	-14441
▁버는	-14442
▁버드	-14443
▁번역	-14444
▁벌레	-14445
▁벵거	-14446
▁병원	-14447
▁보것	-14448
▁보단	-14449
▁보던	-14450
▁보수	-14451
▁보자	-14452
▁보토	-14453
▁볼륨	-14454
▁부드	-14455
▁북괴	-14456
▁북산	-14457
▁불렀	-14458
▁붙어	-14459
▁브리	-14460
▁비건	-14461
▁비틀	-14462
▁빠름	-14463
▁빤쓰	-14464
▁빨딱	-14465
▁뽑히	-14466
▁뿌려	-14467
▁사네	-14468
▁사먹	-14469
▁살살	-14470
▁상당	-14471
▁상무	-14472
▁새미	-14473
▁서막	-14474
▁서면	-14475
▁서버	-14476
▁선전	-14477
▁선즈	-14478
▁선호	-14479
▁세개	-14480
▁세번	-14481
▁세얼	-14482
▁세운	-14483
▁소년	-14484
▁솔솔	-14485
▁수익	-14486
▁수입	-14487
▁수학	-14488
▁쉬는	-14489
▁스파	-14490
▁시킬	-14491
▁시한	-14492
▁식민	-14493
▁신계	-14494
▁신데	-14495
▁실존	-14496
▁싫다	-14497
▁쌍도	-14498
▁쎄게	-14499
▁씹왘	-14500
▁씹유	-14501
▁씹지	-14502
▁아껴	-14503
▁아녔	-14504
▁아랫	-14505
▁아모	-14506
▁아싸	-14507
▁아잇	-14508
▁안고	-14509
▁안도	-14510
▁안된	-14511
▁안마	-14512
▁안볼	-14513
▁안산	-14514
▁안쏘	-14515
▁안죽	-14516
▁안털	-14517
▁않고	-14518
▁않네	-14519
▁앗차	-14520
▁앙망	-14521
▁애기	-14522
▁앰백	-14523
▁약데	-14524
▁약지	-14525
▁약한	-14526
▁얘도	-14527
▁어쨌	-14528
▁어플	-14529
▁업셋	-14530
▁업소	-14531
▁업적	-14532
▁없긴	-14533
▁엔씨	-14534
▁엠엘	-14535
▁여긴	-14536
▁열정	-14537
▁열폭	-14538
▁오고	-14539
▁오는	-14540
▁온거	-14541
▁올인	-14542
▁옮겨	-14543
▁옵션	-14544
▁와도	-14545
▁외부	-14546
▁왼손	-14547
▁요구	-14548
▁요샌	-14549
▁우연	-14550
▁울리	-14551
▁원톱	-14552
▁위력	-14553
▁유땅	-14554
▁유머	-14555
▁유쾌	-14556
▁은꼴	-14557
▁응디	-14558
▁의견	-14559
▁의존	-14560
▁의지	-14561
▁이근	-14562
▁이론	-14563
▁이만	-14564
▁이말	-14565
▁이명	-14566
▁이씹	-14567
▁이팀	-14568
▁익숙	-14569
▁인식	-14570
▁인지	-14571
▁읽어	-14572
▁입터	-14573
▁잇냐	-14574
▁잇음	-14575
▁자국	-14576
▁자빠	-14577
▁자위	-14578
▁장현	-14579
▁저럼	-14580
▁접씨	-14581
▁정성	-14582
▁정준	-14583
▁져서	-14584
▁조리	-14585
▁조쉬	-14586
▁조작	-14587
▁조절	-14588
▁조쿡	-14589
▁좆랄	-14590
▁좆창	-14591
▁좌투	-14592
▁쥐훈	-14593
▁쥬지	-14594
▁즐기	-14595
▁직캠	-14596
▁진리	-14597
▁찌찌	-14598
▁차출	-14599
▁착지	-14600
▁처형	-14601
▁천사	-14602
▁천지	-14603
▁체격	-14604
▁쳐다	-14605
▁쳐서	-14606
▁추워	-14607
▁축신	-14608
▁출격	-14609
▁춤추	-14610
▁취업	-14611
▁측면	-14612
▁치기	-14613
▁치차	-14614
▁치터	-14615
▁친목	-14616
▁친한	-14617
▁침착	-14618
▁칩성	-14619
▁카림	-14620
▁카페	-14621
▁커뮤	-14622
▁콤비	-14623
▁쿠로	-14624
▁쿠폰	-14625
▁크브	-14626
▁크지	-14627
▁크폴	-14628
▁클탐	-14629
▁타투	-14630
▁태국	-14631
▁털렸	-14632
▁텐튼	-14633
▁톰슨	-14634
▁통통	-14635
▁퇴임	-14636
▁퇴출	-14637
▁투톱	-14638
▁트롤	-14639
▁특별	-14640
▁파괴	-14641
▁파닭	-14642
▁팔려	-14643
▁팩짜	-14644
▁팬서	-14645
▁팬은	-14646
▁편안	-14647
▁폄하	-14648
▁폭동	-14649
▁폴잦	-14650
▁플랜	-14651
▁피구	-14652
▁피떡	-14653
▁피아	-14654
▁필독	-14655
▁핑계	-14656
▁학살	-14657
▁한적	-14658
▁한정	-14659
▁할매	-14660
▁할수	-14661
▁합격	-14662
▁합법	-14663
▁항문	-14664
▁해봐	-14665
▁했지	-14666
▁행동	-14667
▁행사	-14668
▁허재	-14669
▁헷갈	-14670
▁협회	-14671
▁호투	-14672
▁호흡	-14673
▁홈즈	-14674
▁화끈	-14675
▁회사	-14676
▁후디	-14677
▁휘둘	-14678
▁흐뭇	-14679
▁흘러	-14680
가능한	-14681
가야죠	-14682
강진출	-14683
같은놈	-14684
개구단	-14685
것같냐	-14686
것이지	-14687
겠지만	-14688
그대로	-14689
그자체	-14690
글라스	-14691
기운이	-14692
긴하다	-14693
끝나면	-14694
나는거	-14695
났다고	-14696
년으로	-14697
느리네	-14698
다고요	-14699
다니깐	-14700
대전은	-14701
던지는	-14702
던지면	-14703
데리고	-14704
돼지가	-14705
됐는데	-14706
됐다고	-14707
됐으면	-14708
되니까	-14709
드는데	-14710
드리블	-14711
들보다	-14712
따리로	-14713
라하네	-14714
랍더볼	-14715
랐는데	-14716
레이튼	-14717
려는데	-14718
렸을때	-14719
루까지	-14720
루이스	-14721
르미누	-14722
리아노	-14723
린거임	-14724
립니까	-14725
마일로	-14726
마일은	-14727
마일을	-14728
마지막	-14729
만으로	-14730
만하네	-14731
맘들이	-14732
명으로	-14733
모란트	-14734
못하면	-14735
무라는	-14736
뭔가요	-14737
밖에안	-14738
받는건	-14739
받는다	-14740
받아서	-14741
버럭이	-14742
버리면	-14743
번으로	-14744
번이나	-14745
보려고	-14746
볼만한	-14747
봐야지	-14748
부리그	-14749
분만에	-14750
브랜드	-14751
브리그	-14752
비호감	-14753
빠는거	-14754
뿐이네	-14755
사이즈	-14756
새기야	-14757
새끼를	-14758
새낀가	-14759
새낀데	-14760
선수냐	-14761
선수를	-14762
성적이	-14763
세대가	-14764
시까지	-14765
시노부	-14766
시대에	-14767
시발련	-14768
시스템	-14769
시켜야	-14770
아버지	-14771
안타는	-14772
안하는	-14773
안한다	-14774
어야함	-14775
없나요	-14776
없어도	-14777
없을때	-14778
온다고	-14779
옵션은	-14780
위인데	-14781
을때가	-14782
이겠지	-14783
이닝도	-14784
이라던	-14785
이라며	-14786
이스가	-14787
이없다	-14788
인들은	-14789
일수록	-14790
있어서	-14791
잉그램	-14792
재평가	-14793
쟁이가	-14794
저새끼	-14795
적이다	-14796
적인데	-14797
점이면	-14798
정도만	-14799
졌으니	-14800
주머니	-14801
줘야함	-14802
지ᄏᄏ	-14803
지않는	-14804
짓거리	-14805
쳐맞고	-14806
충새끼	-14807
친다고	-14808
카와이	-14809
캐스터	-14810
탓거다	-14811
탠튼신	-14812
트릭스	-14813
파이브	-14814
패스가	-14815
프런트	-14816
핀무브	-14817
하기로	-14818
하나가	-14819
하나는	-14820
하던거	-14821
하려나	-14822
할수록	-14823
해지는	-14824
했을듯	-14825
형님들	-14826
.223	-14827
▁!!!	-14828
▁0.3	-14829
▁0.9	-14830
▁1-0	-14831
▁10%	-14832
▁118	-14833
▁2-1	-14834
▁2.1	-14835
▁3.9	-14836
▁3~4	-14837
▁NFL	-14838
▁SBS	-14839
▁WCS	-14840
▁Yak	-14841
▁dna	-14842
▁kbo	-14843
▁txt	-14844
▁ᄀᄋᄃ	-14845
▁ᄅᄋ임	-14846
▁ᄒᄐᄎ	-14847
▁가까이	-14848
▁가난한	-14849
▁가는건	-14850
▁가능할	-14851
▁가슴이	-14852
▁가치가	-14853
▁감독들	-14854
▁감스트	-14855
▁갓기에	-14856
▁갓본의	-14857
▁갓태용	-14858
▁갔어도	-14859
▁강민호	-14860
▁강속구	-14861
▁강진성	-14862
▁강하다	-14863
▁같아서	-14864
▁개덕배	-14865
▁개뽀록	-14866
▁개삼영	-14867
▁개씹창	-14868
▁개장석	-14869
▁개조센	-14870
▁개좆망	-14871
▁개좋네	-14872
▁개쩌네	-14873
▁개쩌는	-14874
▁거지볼	-14875
▁걸려서	-14876
▁겆파가	-14877
▁겆파는	-14878
▁견제사	-14879
▁경기네	-14880
▁경상도	-14881
▁고닉들	-14882
▁고베어	-14883
▁골건적	-14884
▁공수교	-14885
▁관심도	-14886
▁관중도	-14887
▁광고를	-14888
▁광고에	-14889
▁구원할	-14890
▁구위가	-14891
▁국대는	-14892
▁국뽕이	-14893
▁귀도망	-14894
▁그정도	-14895
▁극대노	-14896
▁금수저	-14897
▁급하게	-14898
▁기복이	-14899
▁기억남	-14900
▁긴장감	-14901
▁길거리	-14902
▁김성근	-14903
▁꾀지신	-14904
▁꾸레알	-14905
▁끝내자	-14906
▁나가는	-14907
▁나오기	-14908
▁나오죠	-14909
▁날개존	-14910
▁남양주	-14911
▁낭만이	-14912
▁내년은	-14913
▁내려라	-14914
▁냥냥한	-14915
▁노인네	-14916
▁녹데는	-14917
▁농구를	-14918
▁농잘알	-14919
▁누군데	-14920
▁뉴올에	-14921
▁뉴욕이	-14922
▁느껴짐	-14923
▁느바도	-14924
▁늡갤이	-14925
▁다른데	-14926
▁다를게	-14927
▁다음이	-14928
▁대기업	-14929
▁대진표	-14930
▁대표팀	-14931
▁대해서	-14932
▁데스쥬	-14933
▁뎀벨레	-14934
▁도넛맨	-14935
▁도미니	-14936
▁도저히	-14937
▁독일을	-14938
▁동영상	-14939
▁동조선	-14940
▁됐네요	-14941
▁되겠네	-14942
▁되는게	-14943
▁되려면	-14944
▁두번째	-14945
▁두산은	-14946
▁들어간	-14947
▁들어갔	-14948
▁들어왔	-14949
▁등번호	-14950
▁디발라	-14951
▁라이언	-14952
▁랄경기	-14953
▁롸동희	-14954
▁류돼지	-14955
▁르나우	-14956
▁릅신을	-14957
▁릅퀴는	-14958
▁리니지	-14959
▁린스컴	-14960
▁마사히	-14961
▁마이노	-14962
▁막판에	-14963
▁만제왕	-14964
▁말라고	-14965
▁매드맨	-14966
▁맥컬럼	-14967
▁먹어도	-14968
▁먹어본	-14969
▁먹탠튼	-14970
▁멘탈이	-14971
▁멜로가	-14972
▁명나라	-14973
▁몇개야	-14974
▁몇번을	-14975
▁모르면	-14976
▁몸상태	-14977
▁못넣냐	-14978
▁못던지	-14979
▁못데려	-14980
▁못따라	-14981
▁몽고메	-14982
▁뫅무국	-14983
▁무득점	-14984
▁묶어서	-14985
▁문제네	-14986
▁문제다	-14987
▁문회신	-14988
▁묻은팀	-14989
▁미개한	-14990
▁미쳣다	-14991
▁미친거	-14992
▁밀리네	-14993
▁바꿔라	-14994
▁바르고	-14995
▁바운드	-14996
▁박문성	-14997
▁박정희	-14998
▁받아들	-14999
▁발데스	-15000
▁밥깁슨	-15001
▁방법이	-15002
▁백코트	-15003
▁버스타	-15004
▁버티는	-15005
▁번트나	-15006
▁베트남	-15007
▁병디야	-15008
▁병신된	-15009
▁보고도	-15010
▁보근신	-15011
▁보이지	-15012
▁보지마	-15013
▁보트태	-15014
▁봅니까	-15015
▁부두술	-15016
▁부상이	-15017
▁부진한	-15018
▁분명히	-15019
▁불펜도	-15020
▁불펜에	-15021
▁브룩스	-15022
▁빠는건	-15023
▁뻘게이	-15024
▁사는게	-15025
▁사람의	-15026
▁사이에	-15027
▁상상도	-15028
▁색히들	-15029
▁선수도	-15030
▁설리신	-15031
▁성공할	-15032
▁성민규	-15033
▁섹머신	-15034
▁섹스턴	-15035
▁센터가	-15036
▁소시아	-15037
▁소식은	-15038
▁손잡고	-15039
▁솔로런	-15040
▁수비로	-15041
▁수비에	-15042
▁수혜자	-15043
▁쉬프트	-15044
▁스윙은	-15045
▁스찌에	-15046
▁스찌임	-15047
▁스탭백	-15048
▁스테픈	-15049
▁스텝업	-15050
▁스플릿	-15051
▁시간에	-15052
▁시간이	-15053
▁시발튼	-15054
▁시원한	-15055
▁시절은	-15056
▁신경쓰	-15057
▁신경안	-15058
▁신민재	-15059
▁싫어함	-15060
▁싫은데	-15061
▁심판들	-15062
▁쓸거면	-15063
▁씨ᅳ발	-15064
▁씹기에	-15065
▁씹레스	-15066
▁씹새들	-15067
▁씹스머	-15068
▁아디다	-15069
▁아마레	-15070
▁아무튼	-15071
▁아쉽다	-15072
▁아이고	-15073
▁아이작	-15074
▁아저씨	-15075
▁아줌마	-15076
▁악플은	-15077
▁안가는	-15078
▁안던지	-15079
▁안바꾸	-15080
▁안보면	-15081
▁안정감	-15082
▁안좋다	-15083
▁안치면	-15084
▁안하나	-15085
▁안해서	-15086
▁알바가	-15087
▁애들도	-15088
▁애미가	-15089
▁앰뒤진	-15090
▁야구도	-15091
▁야구장	-15092
▁약하네	-15093
▁어디다	-15094
▁어디야	-15095
▁어렵게	-15096
▁어빙은	-15097
▁어빙이	-15098
▁어어어	-15099
▁어제도	-15100
▁어중간	-15101
▁억제기	-15102
▁없는건	-15103
▁없을듯	-15104
▁엉덩이	-15105
▁에이전	-15106
▁엘롯기	-15107
▁여친이	-15108
▁역사는	-15109
▁역전패	-15110
▁염경엽	-15111
▁였으면	-15112
▁오늘만	-15113
▁오진다	-15114
▁올라주	-15115
▁올려도	-15116
▁올려서	-15117
▁올리네	-15118
▁와꾸가	-15119
▁와꾸는	-15120
▁왔네요	-15121
▁왜하냐	-15122
▁우리흥	-15123
▁우승에	-15124
▁운도망	-15125
▁월시를	-15126
▁월시면	-15127
▁월요일	-15128
▁웬일로	-15129
▁위라고	-15130
▁유강남	-15131
▁유리신	-15132
▁유리한	-15133
▁유소년	-15134
▁유승안	-15135
▁의대생	-15136
▁이강철	-15137
▁이딴거	-15138
▁이로써	-15139
▁이름도	-15140
▁이름에	-15141
▁이태양	-15142
▁이학주	-15143
▁이후에	-15144
▁인테르	-15145
▁일어날	-15146
▁있는건	-15147
▁있어요	-15148
▁있었던	-15149
▁있을듯	-15150
▁잘던짐	-15151
▁잘어울	-15152
▁잘하누	-15153
▁잘하던	-15154
▁잘했던	-15155
▁장난질	-15156
▁장례식	-15157
▁장칼로	-15158
▁재능임	-15159
▁재밌긴	-15160
▁재밌어	-15161
▁재밌었	-15162
▁재밌지	-15163
▁재취업	-15164
▁저놈은	-15165
▁저러면	-15166
▁저색기	-15167
▁전경기	-15168
▁전문직	-15169
▁전준우	-15170
▁정도만	-15171
▁정신을	-15172
▁정우영	-15173
▁제구도	-15174
▁제라드	-15175
▁제레미	-15176
▁졌지만	-15177
▁조선족	-15178
▁조합이	-15179
▁존재감	-15180
▁졸셀라	-15181
▁졸튜브	-15182
▁좆거지	-15183
▁좆거품	-15184
▁좆두는	-15185
▁좆망한	-15186
▁좆방남	-15187
▁좆운스	-15188
▁좆이돌	-15189
▁좆파니	-15190
▁죽어서	-15191
▁준우신	-15192
▁중요함	-15193
▁중위가	-15194
▁지겠네	-15195
▁지는게	-15196
▁짤있는	-15197
▁찍으면	-15198
▁첼애우	-15199
▁최고는	-15200
▁최고다	-15201
▁추가점	-15202
▁축구계	-15203
▁축구랑	-15204
▁축구지	-15205
▁축구화	-15206
▁출산률	-15207
▁친구들	-15208
▁캠지통	-15209
▁커쇼는	-15210
▁코비는	-15211
▁콜도망	-15212
▁콱통피	-15213
▁쿰보도	-15214
▁큰그림	-15215
▁클래식	-15216
▁클레멘	-15217
▁키스톤	-15218
▁키움이	-15219
▁타구가	-15220
▁타이거	-15221
▁탈모가	-15222
▁태명장	-15223
▁태콱이	-15224
▁태평양	-15225
▁택진이	-15226
▁터틀딱	-15227
▁테스형	-15228
▁퇴근존	-15229
▁투수도	-15230
▁투수를	-15231
▁튀기신	-15232
▁티라노	-15233
▁팀승희	-15234
▁팀인데	-15235
▁파울이	-15236
▁판사님	-15237
▁팔아넘	-15238
▁팔아서	-15239
▁패스도	-15240
▁팩세웅	-15241
▁팩스플	-15242
▁팩하성	-15243
▁퍼펙트	-15244
▁평가가	-15245
▁포나야	-15246
▁포제션	-15247
▁포징이	-15248
▁폴잠지	-15249
▁푸이그	-15250
▁푸홀스	-15251
▁플라이	-15252
▁피펜이	-15253
▁필리페	-15254
▁하겠다	-15255
▁하나를	-15256
▁하버드	-15257
▁한국국	-15258
▁한남이	-15259
▁한녀들	-15260
▁한마리	-15261
▁한번씩	-15262
▁할거면	-15263
▁할만큼	-15264
▁해줘야	-15265
▁핸드폰	-15266
▁했을듯	-15267
▁행복사	-15268
▁허도환	-15269
▁허벌창	-15270
▁현대가	-15271
▁호무런	-15272
▁혼자서	-15273
▁홈구장	-15274
▁홍어볼	-15275
▁화이트	-15276
▁후라이	-15277
▁훔멜스	-15278
▁흑누나	-15279
▁흑인들	-15280
▁흑인은	-15281
▁힘들다	-15282
겠는데요	-15283
골처박고	-15284
너마이트	-15285
더라구요	-15286
라스버그	-15287
리겠네요	-15288
리는거봐	-15289
말아먹네	-15290
무섭네요	-15291
선수들은	-15292
안타치고	-15293
없는새끼	-15294
이라는거	-15295
인가보오	-15296
인건가요	-15297
잘하는데	-15298
트레이드	-15299
편인가요	-15300
하기전에	-15301
하나보네	-15302
하네ᄏᄏ	-15303
하는건데	-15304
하는구나	-15305
하셨네요	-15306
하십니까	-15307
한다는게	-15308
할때까지	-15309
해줘야죠	-15310
했다던데	-15311
했습니까	-15312
했을텐데	-15313
~~~~~	-15314
ᄉᄉᄉᄉᄉ	-15315
ᄏᄏᄏᄏᄀ	-15316
▁2012	-15317
▁2014	-15318
▁>>>>	-15319
▁ptsd	-15320
▁wwww	-15321
▁ᄉᄇᄏᄏ	-15322
▁ᄉᄑᄏᄏ	-15323
▁ᄋᄀᄅᄋ	-15324
▁ᄒᄃᄃᄃ	-15325
▁가능하다	-15326
▁가을귀쇼	-15327
▁가을커쇼	-15328
▁가짜우승	-15329
▁갈리나리	-15330
▁갈매기를	-15331
▁같지않냐	-15332
▁개역겹네	-15333
▁개좆병신	-15334
▁개판이네	-15335
▁겆파베이	-15336
▁게이피칭	-15337
▁결정적인	-15338
▁계십니까	-15339
▁고나우영	-15340
▁골스한테	-15341
▁구종가치	-15342
▁국저스도	-15343
▁국저스의	-15344
▁궁금한데	-15345
▁귀신같은	-15346
▁귀화해도	-15347
▁그린야갤	-15348
▁꼴보기싫	-15349
▁꼼수겸장	-15350
▁끝났네요	-15351
▁남았으면	-15352
▁네좆마르	-15353
▁다미신이	-15354
▁다음경기	-15355
▁다저스랑	-15356
▁닮았네요	-15357
▁닮았는데	-15358
▁대단한거	-15359
▁던지라고	-15360
▁독재정권	-15361
▁돌아다니	-15362
▁돌아와라	-15363
▁동고서저	-15364
▁동엽갈로	-15365
▁되는건지	-15366
▁되자마자	-15367
▁뒤졌으면	-15368
▁들어와라	-15369
▁뜬금없이	-15370
▁레너드랑	-15371
▁레이스의	-15372
▁레전드는	-15373
▁론조볼이	-15374
▁루친스키	-15375
▁르브론의	-15376
▁릅갈커스	-15377
▁릅신멜신	-15378
▁리틀야구	-15379
▁마스코트	-15380
▁마이너스	-15381
▁만들어서	-15382
▁많습니까	-15383
▁말하지만	-15384
▁맞다니까	-15385
▁매복사랑	-15386
▁머리카락	-15387
▁멀뚱멀뚱	-15388
▁멕시코를	-15389
▁못넘기네	-15390
▁못하던데	-15391
▁못했으면	-15392
▁뫅지통은	-15393
▁무키저슨	-15394
▁미국홍어	-15395
▁미쳤는데	-15396
▁바디페인	-15397
▁박찬호가	-15398
▁방투방은	-15399
▁병디감독	-15400
▁병디엔딩	-15401
▁보스턴이	-15402
▁보여주는	-15403
▁보여준거	-15404
▁부덴홀저	-15405
▁불펜에서	-15406
▁븅신들아	-15407
▁브라질에	-15408
▁브라질을	-15409
▁사무국은	-15410
▁사이에서	-15411
▁사이클링	-15412
▁살기좋은	-15413
▁새끼한테	-15414
▁생각하냐	-15415
▁생겼는데	-15416
▁생명연장	-15417
▁샤킬오닐	-15418
▁선발진이	-15419
▁선수한테	-15420
▁세계에서	-15421
▁세계최고	-15422
▁수전노에	-15423
▁수준이네	-15424
▁숙제완료	-15425
▁스네이더	-15426
▁스미스신	-15427
▁스웨덴을	-15428
▁스타벅스	-15429
▁스탠튼을	-15430
▁스탠튼의	-15431
▁승부조작	-15432
▁승차가면	-15433
▁시너지가	-15434
▁시즌내내	-15435
▁시즌초에	-15436
▁신기한게	-15437
▁신데렐라	-15438
▁심판새끼	-15439
▁십새끼야	-15440
▁쓰레기가	-15441
▁쓰쓰고는	-15442
▁씨발년들	-15443
▁씹오지네	-15444
▁씹왁사망	-15445
▁아니시발	-15446
▁아니었나	-15447
▁아니였냐	-15448
▁아무래도	-15449
▁아자르는	-15450
▁안나오면	-15451
▁안보이냐	-15452
▁안했는데	-15453
▁안했어도	-15454
▁알아보자	-15455
▁애미씨발	-15456
▁어디가고	-15457
▁어땠을까	-15458
▁어시스트	-15459
▁어이없는	-15460
▁언제복귀	-15461
▁에이스가	-15462
▁여지없이	-15463
▁역전투런	-15464
▁역전하면	-15465
▁영구결번	-15466
▁영화배우	-15467
▁오늘지면	-15468
▁오랑우탄	-15469
▁오지는데	-15470
▁오클에서	-15471
▁올라오는	-15472
▁올라와서	-15473
▁왁고메리	-15474
▁왁무국이	-15475
▁요키치는	-15476
▁우승못한	-15477
▁월시까지	-15478
▁윌리안이	-15479
▁응원하자	-15480
▁의미없죠	-15481
▁이강인도	-15482
▁이길수도	-15483
▁이런애들	-15484
▁이상하지	-15485
▁이정도로	-15486
▁이피엘만	-15487
▁인정안해	-15488
▁일발장전	-15489
▁일본경기	-15490
▁있다는게	-15491
▁잉쿠볼하	-15492
▁자살한다	-15493
▁자이언츠	-15494
▁잘던지는	-15495
▁잘하나요	-15496
▁잘하는지	-15497
▁재미없다	-15498
▁재미있는	-15499
▁재밌는지	-15500
▁재밌을듯	-15501
▁저걸잡네	-15502
▁저정도는	-15503
▁접대스키	-15504
▁정신나갈	-15505
▁제외하고	-15506
▁조따리가	-15507
▁조따리랑	-15508
▁존나웃긴	-15509
▁졸스신은	-15510
▁졸장새끼	-15511
▁좆니구린	-15512
▁좆니그린	-15513
▁좆리퍼스	-15514
▁좆병신이	-15515
▁좆세미루	-15516
▁좋겠어요	-15517
▁중요하다	-15518
▁지들끼리	-15519
▁지바롯데	-15520
▁축구얘기	-15521
▁출전시간	-15522
▁침대축구	-15523
▁카를로스	-15524
▁코스프레	-15525
▁쿠즈마는	-15526
▁크레파스	-15527
▁타격방해	-15528
▁태어나면	-15529
▁터지는거	-15530
▁털리는거	-15531
▁투수코치	-15532
▁틀딱새끼	-15533
▁파울이네	-15534
▁파인타르	-15535
▁패귀종훈	-15536
▁팩켓몬은	-15537
▁편파해설	-15538
▁포수리드	-15539
▁포시진출	-15540
▁포시창녀	-15541
▁필요하다	-15542
▁하는거임	-15543
▁하드캐리	-15544
▁하위가서	-15545
▁하킴스쿨	-15546
▁학교에서	-15547
▁한국이랑	-15548
▁한국인들	-15549
▁해방운동	-15550
▁홍어노들	-15551
▁확정이네	-15552
▁흑호군은	-15553
▁흑호군이	-15554
갈거같은데	-15555
버리고싶네	-15556
신이였으면	-15557
원다이노스	-15558
인가보네요	-15559
줄알앗는데	-15560
해보이네요	-15561
해야겠네요	-15562
▁ᄋᄉᄃᄌᄉ	-15563
▁ᄌᄉᄇ인지	-15564
▁감사합니다	-15565
▁갓데리아는	-15566
▁골밑마무리	-15567
▁국저스경기	-15568
▁국저스놈들	-15569
▁귀화하라고	-15570
▁그자체네요	-15571
▁나가뒤져라	-15572
▁나오자마자	-15573
▁라디오스타	-15574
▁레이커스랑	-15575
▁맥클레모어	-15576
▁메이저리거	-15577
▁못하겠네요	-15578
▁무실점으로	-15579
▁미네소타는	-15580
▁박스스코어	-15581
▁병신새끼는	-15582
▁사람새끼가	-15583
▁사퇴하는데	-15584
▁세계적으로	-15585
▁스트레이트	-15586
▁스페인으로	-15587
▁시발새끼야	-15588
▁시작합니다	-15589
▁아니랄까봐	-15590
▁아니였는지	-15591
▁아웃카운트	-15592
▁안넘어가네	-15593
▁안잡아주네	-15594
▁않았습니까	-15595
▁애미뒤졌네	-15596
▁약쟁이새끼	-15597
▁양심있으면	-15598
▁어이없네요	-15599
▁엌ᄏᄏᄏᄏ	-15600
▁여기까지가	-15601
▁올라가네요	-15602
▁우승했는데	-15603
▁응원합니다	-15604
▁제임스하든	-15605
▁좆쥐새끼들	-15606
▁지랄하는거	-15607
▁지안카를로	-15608
▁처음보는데	-15609
▁탈압박하고	-15610
▁툰브리스트	-15611
▁튀기콘서트	-15612
▁파이널에서	-15613
▁팩팩트이닝	-15614
▁할카스보다	-15615
▁현실적으로	-15616
▁현지에서도	-15617
▁확정이네요	-15618
██████	-15619
▁777777	-15620
▁ᄅᄌᄂᄇ한지	-15621
▁ᄌᄉᄇ이네요	-15622
▁ᄏᄏᄏᄏᄏᄀ	-15623
▁복귀하자마자	-15624
▁스트라스버그	-15625
▁씨발새끼들아	-15626
▁아닌거같은데	-15627
▁이길거같은데	-15628
▁포트나이트야	-15629
▁하이패스트볼	-15630
▁히가시오카가	-15631
멸망ᄏᄏᄏᄏᄏ	-15632
보고딸치는연아	-15633
▁멸망ᄏᄏᄏᄏᄏ	-15634
▁박찬호최지우한	-15635
▁포스트시즌에서	-15636
최지우한고은이승연	-15637
▁멸망ᄏᄏᄏᄏᄏᄏᄏ	-15638
▁씨발ᄏᄏᄏᄏᄏᄏᄏ	-15639
▁펭수보고딸치는연아	-15640
!!!!!!!!!!!	-15641
심은하황수정신라호텔섹스머신ᄅ	-15642
가짜시즌가짜시즌가짜시즌가짜시즌	-15643
,9	-15644
98	-15645
:2	-15646
=>	-15647
ES	-15648
FC	-15649
LL	-15650
PB	-15651
SK	-15652
TD	-15653
de	-15654
eu	-15655
ic	-15656
le	-15657
mp	-15658
mw	-15659
oo	-15660
re	-15661
ut	-15662
~5	-15663
~8	-15664
ᄌᄃ	-15665
ᅥᅥ	-15666
ᅧᅧ	-15667
ᅵ발	-15668
▁*	-15669
▁;	-15670
▁ᄍ	-15671
▁겸	-15672
▁곡	-15673
▁곽	-15674
▁굵	-15675
▁균	-15676
▁깃	-15677
▁깍	-15678
▁껐	-15679
▁끓	-15680
▁놨	-15681
▁덤	-15682
▁덮	-15683
▁뒹	-15684
▁땀	-15685
▁똘	-15686
▁뜰	-15687
▁람	-15688
▁램	-15689
▁룸	-15690
▁맺	-15691
▁묵	-15692
▁므	-15693
▁뷔	-15694
▁뺐	-15695
▁뺨	-15696
▁뼛	-15697
▁삑	-15698
▁색	-15699
▁셤	-15700
▁액	-15701
▁앱	-15702
▁얄	-15703
▁엣	-15704
▁였	-15705
▁옳	-15706
▁옹	-15707
▁젓	-15708
▁줏	-15709
▁쯔	-15710
▁쯤	-15711
▁찝	-15712
▁첸	-15713
▁촉	-15714
▁켜	-15715
▁탠	-15716
▁팰	-15717
▁팻	-15718
▁펴	-15719
▁펼	-15720
▁횡	-15721
▁훼	-15722
가놈	-15723
각은	-15724
갈지	-15725
갑은	-15726
갓드	-15727
강대	-15728
강도	-15729
강두	-15730
강을	-15731
개를	-15732
거에	-15733
건물	-15734
건창	-15735
검증	-15736
것봐	-15737
겠누	-15738
경우	-15739
고는	-15740
고딩	-15741
고한	-15742
골라	-15743
골로	-15744
공개	-15745
공도	-15746
교환	-15747
권은	-15748
균신	-15749
그너	-15750
그랬	-15751
근황	-15752
기게	-15753
기스	-15754
김치	-15755
까비	-15756
꺼임	-15757
꺼지	-15758
끄는	-15759
끌고	-15760
끌어	-15761
끝난	-15762
끝내	-15763
나구	-15764
나미	-15765
나야	-15766
남불	-15767
너가	-15768
너지	-15769
네코	-15770
년을	-15771
는것	-15772
는듯	-15773
니즘	-15774
닦고	-15775
단계	-15776
답네	-15777
당당	-15778
당시	-15779
당할	-15780
대도	-15781
대진	-15782
던놈	-15783
던졌	-15784
데기	-15785
데도	-15786
돌리	-15787
됏네	-15788
되긴	-15789
두리	-15790
두면	-15791
두형	-15792
둘자	-15793
드냐	-15794
드론	-15795
든지	-15796
들지	-15797
디가	-15798
디언	-15799
따면	-15800
때리	-15801
뛰면	-15802
라뱅	-15803
라탄	-15804
랏네	-15805
래가	-15806
러니	-15807
런좆	-15808
레라	-15809
렌더	-15810
려니	-15811
르다	-15812
르퀴	-15813
르텔	-15814
리니	-15815
리던	-15816
리버	-15817
린트	-15818
링이	-15819
링키	-15820
마라	-15821
마비	-15822
막는	-15823
만점	-15824
많냐	-15825
말에	-15826
맛에	-15827
맥두	-15828
맥주	-15829
먹방	-15830
먹여	-15831
먹음	-15832
먼지	-15833
멸치	-15834
명사	-15835
명장	-15836
모양	-15837
못감	-15838
못차	-15839
무룩	-15840
문신	-15841
묻은	-15842
미녀	-15843
미로	-15844
미리	-15845
미만	-15846
미언	-15847
민족	-15848
믿고	-15849
박스	-15850
반도	-15851
반스	-15852
방출	-15853
방탄	-15854
번트	-15855
벌이	-15856
벤치	-15857
변화	-15858
보가	-15859
보던	-15860
보성	-15861
보의	-15862
보전	-15863
본즈	-15864
봤네	-15865
부모	-15866
부커	-15867
붕이	-15868
비계	-15869
비용	-15870
빠리	-15871
빼곤	-15872
뽈락	-15873
뿐만	-15874
쁜데	-15875
사설	-15876
사인	-15877
사일	-15878
삭스	-15879
상승	-15880
생아	-15881
서가	-15882
선출	-15883
세에	-15884
센스	-15885
셨나	-15886
손혁	-15887
수고	-15888
수상	-15889
수수	-15890
수염	-15891
수창	-15892
수한	-15893
슛만	-15894
스맨	-15895
스칼	-15896
슨님	-15897
슨상	-15898
승도	-15899
시드	-15900
시안	-15901
식스	-15902
식은	-15903
신경	-15904
실히	-15905
심각	-15906
싼거	-15907
써도	-15908
씨피	-15909
아내	-15910
아무	-15911
아빠	-15912
아신	-15913
악한	-15914
안좋	-15915
암흑	-15916
애기	-15917
애는	-15918
애니	-15919
애서	-15920
애임	-15921
억에	-15922
언트	-15923
얼마	-15924
엇지	-15925
여포	-15926
염병	-15927
영표	-15928
오픈	-15929
온나	-15930
왕은	-15931
왜안	-15932
왤케	-15933
외모	-15934
운터	-15935
워주	-15936
워커	-15937
원을	-15938
월생	-15939
월컵	-15940
월클	-15941
위임	-15942
유도	-15943
유지	-15944
으며	-15945
은퇴	-15946
은행	-15947
의밤	-15948
이여	-15949
이였	-15950
이츠	-15951
인분	-15952
인의	-15953
인절	-15954
인종	-15955
인치	-15956
일것	-15957
일날	-15958
일만	-15959
일베	-15960
자격	-15961
자늠	-15962
자도	-15963
자임	-15964
잔데	-15965
잡을	-15966
장난	-15967
재거	-15968
재환	-15969
적화	-15970
전문	-15971
절대	-15972
점더	-15973
정면	-15974
제성	-15975
젤라	-15976
조정	-15977
족이	-15978
좆턴	-15979
주루	-15980
주민	-15981
주입	-15982
주행	-15983
줄게	-15984
중엔	-15985
즈업	-15986
즈원	-15987
지로	-15988
지역	-15989
지표	-15990
직원	-15991
진데	-15992
진도	-15993
진지	-15994
질로	-15995
질만	-15996
질을	-15997
집안	-15998
쯤에	-15999
찍찍	-16000
차에	-16001
찬성	-16002
참기	-16003
챈트	-16004
철신	-16005
첼시	-16006
출장	-16007
취소	-16008
친화	-16009
카냐	-16010
커도	-16011
쿠나	-16012
크기	-16013
크블	-16014
킬러	-16015
택동	-16016
터로	-16017
터리	-16018
터프	-16019
턴옵	-16020
털림	-16021
통궈	-16022
통에	-16023
투로	-16024
투맥	-16025
투입	-16026
툴이	-16027
튀기	-16028
트란	-16029
트으	-16030
트트	-16031
튼데	-16032
팀의	-16033
팀임	-16034
파라	-16035
패배	-16036
패턴	-16037
팬은	-16038
편을	-16039
편임	-16040
포심	-16041
포함	-16042
폴신	-16043
푼이	-16044
프라	-16045
플은	-16046
하내	-16047
하드	-16048
하래	-16049
학력	-16050
할래	-16051
할팀	-16052
해봤	-16053
해준	-16054
햇다	-16055
행은	-16056
헌신	-16057
혁이	-16058
호사	-16059
호선	-16060
화밭	-16061
황제	-16062
회엔	-16063
효율	-16064
후방	-16065
후쿤	-16066
힌건	-16067
-20	-16068
-94	-16069
.38	-16070
172	-16071
ake	-16072
mvp	-16073
zzz	-16074
ᄀᄀᄃ	-16075
ᄀᄀᄋ	-16076
ᄋᄋᄋ	-16077
ᄐᄐᄐ	-16078
▁53	-16079
▁67	-16080
▁71	-16081
▁81	-16082
▁BA	-16083
▁CF	-16084
▁KT	-16085
▁aa	-16086
▁ps	-16087
▁ᄌᄇ	-16088
▁ᄡ들	-16089
▁가깝	-16090
▁가와	-16091
▁가호	-16092
▁간판	-16093
▁감성	-16094
▁강점	-16095
▁강제	-16096
▁개딕	-16097
▁개명	-16098
▁개장	-16099
▁개정	-16100
▁개쪽	-16101
▁개편	-16102
▁갱단	-16103
▁거른	-16104
▁거를	-16105
▁거포	-16106
▁건데	-16107
▁건져	-16108
▁걸렀	-16109
▁경문	-16110
▁계집	-16111
▁고양	-16112
▁고척	-16113
▁골을	-16114
▁곰팡	-16115
▁공교	-16116
▁공앱	-16117
▁공포	-16118
▁과외	-16119
▁광역	-16120
▁괜찬	-16121
▁교복	-16122
▁구별	-16123
▁구축	-16124
▁국시	-16125
▁국어	-16126
▁군머	-16127
▁굴굴	-16128
▁굴렀	-16129
▁귑스	-16130
▁균형	-16131
▁그랜	-16132
▁근거	-16133
▁근래	-16134
▁글을	-16135
▁금연	-16136
▁기능	-16137
▁기쁘	-16138
▁기좆	-16139
▁길어	-16140
▁김구	-16141
▁김병	-16142
▁까라	-16143
▁꺼라	-16144
▁꼬박	-16145
▁꼴칰	-16146
▁꼼짝	-16147
▁꾀병	-16148
▁끝낸	-16149
▁나갔	-16150
▁나눠	-16151
▁나빠	-16152
▁나초	-16153
▁나치	-16154
▁낚시	-16155
▁날뛰	-16156
▁남성	-16157
▁남친	-16158
▁남호	-16159
▁낮에	-16160
▁내용	-16161
▁넘길	-16162
▁넘음	-16163
▁네졷	-16164
▁네츠	-16165
▁노출	-16166
▁노친	-16167
▁논쟁	-16168
▁높네	-16169
▁높이	-16170
▁놓치	-16171
▁놓친	-16172
▁뇌가	-16173
▁누님	-16174
▁눈썩	-16175
▁느린	-16176
▁늙은	-16177
▁니발	-16178
▁다나	-16179
▁단타	-16180
▁닭집	-16181
▁닮았	-16182
▁답은	-16183
▁대권	-16184
▁대비	-16185
▁댄스	-16186
▁더먹	-16187
▁데드	-16188
▁독도	-16189
▁동물	-16190
▁될지	-16191
▁두부	-16192
▁듀발	-16193
▁드신	-16194
▁들음	-16195
▁땅에	-16196
▁떠날	-16197
▁똥줄	-16198
▁뜨면	-16199
▁뜬공	-16200
▁라는	-16201
▁라울	-16202
▁랜들	-16203
▁런한	-16204
▁레깅	-16205
▁레일	-16206
▁레플	-16207
▁로그	-16208
▁롤플	-16209
▁롸잇	-16210
▁루틴	-16211
▁류오	-16212
▁리메	-16213
▁리치	-16214
▁릴라	-16215
▁마구	-16216
▁마녀	-16217
▁마치	-16218
▁마트	-16219
▁막기	-16220
▁막냐	-16221
▁막는	-16222
▁막았	-16223
▁막은	-16224
▁막지	-16225
▁만원	-16226
▁많았	-16227
▁맛집	-16228
▁망상	-16229
▁맞기	-16230
▁맞춘	-16231
▁맠가	-16232
▁매팅	-16233
▁머가	-16234
▁머해	-16235
▁먹기	-16236
▁먹음	-16237
▁멋잇	-16238
▁멘트	-16239
▁몇임	-16240
▁모래	-16241
▁모바	-16242
▁모텔	-16243
▁목록	-16244
▁몰려	-16245
▁몸도	-16246
▁못감	-16247
▁못갔	-16248
▁못내	-16249
▁뫅판	-16250
▁무능	-16251
▁무려	-16252
▁무식	-16253
▁무지	-16254
▁문과	-16255
▁물려	-16256
▁미모	-16257
▁민규	-16258
▁민재	-16259
▁민증	-16260
▁밀고	-16261
▁밀면	-16262
▁바뀜	-16263
▁반만	-16264
▁반반	-16265
▁반은	-16266
▁반할	-16267
▁발기	-16268
▁발악	-16269
▁발이	-16270
▁발표	-16271
▁방해	-16272
▁벌벌	-16273
▁벌크	-16274
▁벗어	-16275
▁베팅	-16276
▁벼락	-16277
▁변경	-16278
▁보낸	-16279
▁보드	-16280
▁보또	-16281
▁보배	-16282
▁볼때	-16283
▁부끄	-16284
▁부딪	-16285
▁분탕	-16286
▁불과	-16287
▁불어	-16288
▁불타	-16289
▁붕붕	-16290
▁붙고	-16291
▁붙을	-16292
▁비빈	-16293
▁비춰	-16294
▁비트	-16295
▁빨기	-16296
▁빵빵	-16297
▁빼자	-16298
▁뺏기	-16299
▁뻑유	-16300
▁뽑힌	-16301
▁사례	-16302
▁사상	-16303
▁사서	-16304
▁사업	-16305
▁사장	-16306
▁살리	-16307
▁삼육	-16308
▁상주	-16309
▁샐캡	-16310
▁생길	-16311
▁샤크	-16312
▁선진	-16313
▁선출	-16314
▁설득	-16315
▁설렜	-16316
▁설사	-16317
▁세울	-16318
▁소뱅	-16319
▁소송	-16320
▁소토	-16321
▁속옷	-16322
▁손건	-16323
▁손권	-16324
▁송재	-16325
▁수록	-16326
▁수석	-16327
▁수호	-16328
▁수훈	-16329
▁숨은	-16330
▁슈맥	-16331
▁스미	-16332
▁스케	-16333
▁시골	-16334
▁시티	-16335
▁식사	-16336
▁신난	-16337
▁신은	-16338
▁신청	-16339
▁실드	-16340
▁심함	-16341
▁싸울	-16342
▁싼다	-16343
▁썩은	-16344
▁쏘네	-16345
▁쓰러	-16346
▁쓴다	-16347
▁쓸어	-16348
▁씹고	-16349
▁씹스	-16350
▁씹털	-16351
▁아낀	-16352
▁아네	-16353
▁아홉	-16354
▁안깨	-16355
▁안넘	-16356
▁안돌	-16357
▁안밀	-16358
▁안받	-16359
▁안뻗	-16360
▁안치	-16361
▁안한	-16362
▁앉혀	-16363
▁않이	-16364
▁알던	-16365
▁알렌	-16366
▁알칸	-16367
▁압승	-16368
▁애널	-16369
▁애잔	-16370
▁앨런	-16371
▁앰생	-16372
▁야발	-16373
▁약팀	-16374
▁어버	-16375
▁어색	-16376
▁어서	-16377
▁어쩜	-16378
▁언냐	-16379
▁언어	-16380
▁에서	-16381
▁엘스	-16382
▁엠뒤	-16383
▁여혐	-16384
▁역적	-16385
▁연금	-16386
▁연락	-16387
▁연상	-16388
▁염가	-16389
▁영광	-16390
▁옐로	-16391
▁오닐	-16392
▁오랫	-16393
▁오코	-16394
▁온몸	-16395
▁왁전	-16396
▁왁홍	-16397
▁왕따	-16398
▁왜빠	-16399
▁요리	-16400
▁요번	-16401
▁욕을	-16402
▁우린	-16403
▁우타	-16404
▁운용	-16405
▁웃고	-16406
▁월급	-16407
▁위에	-16408
▁위인	-16409
▁윗급	-16410
▁유벤	-16411
▁유부	-16412
▁유임	-16413
▁윤리	-16414
▁음바	-16415
▁음악	-16416
▁의료	-16417
▁의혹	-16418
▁이노	-16419
▁이시	-16420
▁이안	-16421
▁이중	-16422
▁이하	-16423
▁일기	-16424
▁일리	-16425
▁일상	-16426
▁일으	-16427
▁일이	-16428
▁일제	-16429
▁읽고	-16430
▁입대	-16431
▁잊혀	-16432
▁자는	-16433
▁자르	-16434
▁자본	-16435
▁자책	-16436
▁작아	-16437
▁잘넣	-16438
▁잘라	-16439
▁잘안	-16440
▁잘큰	-16441
▁잠식	-16442
▁잠이	-16443
▁잠잠	-16444
▁잡자	-16445
▁잡혀	-16446
▁장작	-16447
▁재발	-16448
▁재학	-16449
▁재현	-16450
▁쟤도	-16451
▁적극	-16452
▁적기	-16453
▁적용	-16454
▁전북	-16455
▁전패	-16456
▁정병	-16457
▁정석	-16458
▁정식	-16459
▁제작	-16460
▁제한	-16461
▁져라	-16462
▁조국	-16463
▁조또	-16464
▁졸뱀	-16465
▁졸탄	-16466
▁좁혀	-16467
▁종훈	-16468
▁좆바	-16469
▁좆배	-16470
▁좆쇼	-16471
▁좌빨	-16472
▁주공	-16473
▁주력	-16474
▁주문	-16475
▁주택	-16476
▁중딩	-16477
▁중소	-16478
▁지략	-16479
▁지뢰	-16480
▁지루	-16481
▁지를	-16482
▁지진	-16483
▁진건	-16484
▁진게	-16485
▁진퉁	-16486
▁징크	-16487
▁짜르	-16488
▁짜리	-16489
▁쫄보	-16490
▁쫄튀	-16491
▁차분	-16492
▁차붐	-16493
▁참가	-16494
▁채우	-16495
▁천만	-16496
▁첫해	-16497
▁체육	-16498
▁체크	-16499
▁쳤네	-16500
▁초록	-16501
▁초중	-16502
▁총격	-16503
▁총액	-16504
▁최단	-16505
▁최신	-16506
▁최정	-16507
▁최후	-16508
▁추진	-16509
▁충전	-16510
▁카레	-16511
▁카터	-16512
▁칼라	-16513
▁캘리	-16514
▁커막	-16515
▁커맨	-16516
▁커엽	-16517
▁커탐	-16518
▁커플	-16519
▁켐바	-16520
▁코리	-16521
▁콜업	-16522
▁콥등	-16523
▁크고	-16524
▁크러	-16525
▁클라	-16526
▁클릭	-16527
▁키스	-16528
▁키운	-16529
▁키워	-16530
▁키큰	-16531
▁타순	-16532
▁탄식	-16533
▁탄탄	-16534
▁태좆	-16535
▁택도	-16536
▁터뜨	-16537
▁터져	-16538
▁터프	-16539
▁털퀴	-16540
▁테일	-16541
▁토비	-16542
▁토크	-16543
▁투심	-16544
▁투탑	-16545
▁트릭	-16546
▁트윈	-16547
▁트탐	-16548
▁티그	-16549
▁팀임	-16550
▁파란	-16551
▁파멸	-16552
▁파악	-16553
▁파크	-16554
▁판명	-16555
▁팔팔	-16556
▁패네	-16557
▁패덱	-16558
▁팩근	-16559
▁팩또	-16560
▁포머	-16561
▁포장	-16562
▁표본	-16563
▁푸른	-16564
▁풀풀	-16565
▁품격	-16566
▁피겨	-16567
▁피셜	-16568
▁피챠	-16569
▁피케	-16570
▁핏챠	-16571
▁하니	-16572
▁하일	-16573
▁한줄	-16574
▁한판	-16575
▁합쳐	-16576
▁항복	-16577
▁해피	-16578
▁핸디	-16579
▁허접	-16580
▁헤럴	-16581
▁헬멧	-16582
▁현피	-16583
▁형이	-16584
▁호구	-16585
▁호들	-16586
▁홀드	-16587
▁확진	-16588
▁활동	-16589
▁활용	-16590
▁후달	-16591
▁후임	-16592
▁힘듦	-16593
가능함	-16594
감인데	-16595
갑자기	-16596
갔어도	-16597
강까지	-16598
강두천	-16599
강백호	-16600
개씨발	-16601
걸까요	-16602
게임차	-16603
경기네	-16604
경기만	-16605
계약은	-16606
고동저	-16607
고싶음	-16608
구단이	-16609
근신이	-16610
금세대	-16611
급이다	-16612
기사정	-16613
깁니까	-16614
꺼같냐	-16615
꺼같음	-16616
나마나	-16617
냈네요	-16618
넣어라	-16619
넣으면	-16620
넨워스	-16621
년들이	-16622
년마다	-16623
년부터	-16624
년생만	-16625
노들은	-16626
노들이	-16627
놈인데	-16628
누ᄏᄏ	-16629
당할듯	-16630
대학교	-16631
던거죠	-16632
던지노	-16633
데이터	-16634
도르는	-16635
돌려줘	-16636
된건지	-16637
될텐데	-16638
둘자바	-16639
들이네	-16640
들이지	-16641
때문임	-16642
뛰는데	-16643
라길래	-16644
라면서	-16645
라우더	-16646
랐네요	-16647
럽네요	-16648
레벌떡	-16649
렷네요	-16650
렸어도	-16651
렸으니	-16652
로남불	-16653
로라도	-16654
린다고	-16655
만들어	-16656
맞으면	-16657
모르는	-16658
못하지	-16659
무관님	-16660
문제는	-16661
바운드	-16662
받네요	-16663
받아도	-16664
버려야	-16665
버린다	-16666
번인데	-16667
베이스	-16668
보인다	-16669
부리네	-16670
분들도	-16671
비디오	-16672
사람들	-16673
산체스	-16674
새끼라	-16675
새끼랑	-16676
생겨서	-16677
선승제	-16678
셨나요	-16679
셨는데	-16680
소리가	-16681
소리는	-16682
손가락	-16683
순위가	-16684
스러움	-16685
스카우	-16686
스쿼드	-16687
스타인	-16688
스탯은	-16689
스테파	-16690
스트로	-16691
스패닉	-16692
시절에	-16693
시절이	-16694
시즌이	-16695
쓰는게	-16696
쓰라고	-16697
씨발놈	-16698
씩이나	-16699
아니야	-16700
아자르	-16701
안되나	-16702
안보고	-16703
안타도	-16704
안하면	-16705
야구가	-16706
야말로	-16707
야소바	-16708
어먹네	-16709
어야됨	-16710
억짜리	-16711
었길래	-16712
에다가	-16713
엘리챠	-16714
연예인	-16715
오는게	-16716
오르그	-16717
올리면	-16718
올림픽	-16719
용으로	-16720
우리촤	-16721
위라고	-16722
위싸움	-16723
을거라	-16724
을때도	-16725
이기고	-16726
이냐면	-16727
이는지	-16728
이닝을	-16729
이쁘네	-16730
이상은	-16731
이엇네	-16732
이에요	-16733
이트트	-16734
인지도	-16735
일부터	-16736
잇는데	-16737
있던데	-16738
자들이	-16739
자레나	-16740
장애인	-16741
저미들	-16742
전에도	-16743
점으로	-16744
점차로	-16745
졋으면	-16746
졌는지	-16747
졌다고	-16748
주나요	-16749
주리산	-16750
주제에	-16751
죽이고	-16752
줄알았	-16753
중이네	-16754
줘야죠	-16755
지는중	-16756
지니까	-16757
차이가	-16758
차전도	-16759
쳤다고	-16760
축구다	-16761
코리타	-16762
키스가	-16763
타령은	-16764
타자들	-16765
테니까	-16766
트트트	-16767
틀어서	-16768
팀이냐	-16769
파이네	-16770
퍼센트	-16771
페즈가	-16772
푸홀스	-16773
프랑스	-16774
프링어	-16775
픽으로	-16776
하고는	-16777
하나만	-16778
하는중	-16779
하신다	-16780
하자나	-16781
하자면	-16782
한거네	-16783
할때가	-16784
할수가	-16785
해보면	-16786
해보임	-16787
해봐라	-16788
햇네요	-16789
했길래	-16790
했던데	-16791
행인데	-16792
홈런은	-16793
화하면	-16794
2020	-16795
orld	-16796
twit	-16797
ᄋᄀᄀᄋ	-16798
ᄏᄏᄀᄏ	-16799
ᄏᄏᄏᄀ	-16800
▁1.3	-16801
▁112	-16802
▁124	-16803
▁145	-16804
▁160	-16805
▁170	-16806
▁190	-16807
▁1:0	-16808
▁2,3	-16809
▁3.3	-16810
▁350	-16811
▁4.5	-16812
▁789	-16813
▁Kbs	-16814
▁MOM	-16815
▁PER	-16816
▁bmw	-16817
▁cam	-16818
▁mls	-16819
▁mom	-16820
▁sns	-16821
▁ᄀᄀᄀ	-16822
▁ᄉᄀᄋ	-16823
▁ᄉᄇ련	-16824
▁ᄋᄉᆳ	-16825
▁ᄌ같이	-16826
▁ᄍᄍᄍ	-16827
▁ᄏᄀᄏ	-16828
▁ᄐᄐ신	-16829
▁ᅲᅲᅮ	-16830
▁가겠다	-16831
▁가겠죠	-16832
▁가리고	-16833
▁가성비	-16834
▁가져가	-16835
▁가지마	-16836
▁갈비신	-16837
▁갈아야	-16838
▁갈통군	-16839
▁감독의	-16840
▁감독탓	-16841
▁갑니다	-16842
▁갓데랑	-16843
▁갔을때	-16844
▁강제로	-16845
▁개거박	-16846
▁개동엽	-16847
▁개민어	-16848
▁개박살	-16849
▁개빠따	-16850
▁개쇼가	-16851
▁개역겹	-16852
▁개오바	-16853
▁개우준	-16854
▁개웃기	-16855
▁개이비	-16856
▁개재원	-16857
▁개졸스	-16858
▁개허벌	-16859
▁거리는	-16860
▁거지도	-16861
▁걸린거	-16862
▁걸어나	-16863
▁게르만	-16864
▁결과물	-16865
▁결국은	-16866
▁경우도	-16867
▁경찰서	-16868
▁계약이	-16869
▁고랄은	-16870
▁고우석	-16871
▁공격자	-16872
▁공받이	-16873
▁공부가	-16874
▁공짜로	-16875
▁공황이	-16876
▁관조는	-16877
▁국대가	-16878
▁국무국	-16879
▁국병전	-16880
▁국힘틀	-16881
▁귀즌스	-16882
▁그걸로	-16883
▁그놈은	-16884
▁그놈의	-16885
▁그러나	-16886
▁그리워	-16887
▁그린신	-16888
▁그링키	-16889
▁그만좀	-16890
▁그만해	-16891
▁그지랄	-16892
▁기냥이	-16893
▁기대됨	-16894
▁기레기	-16895
▁기록을	-16896
▁기분나	-16897
▁기자들	-16898
▁김덕배	-16899
▁김성주	-16900
▁김윤식	-16901
▁김태진	-16902
▁김현수	-16903
▁김호은	-16904
▁까이는	-16905
▁꺼지고	-16906
▁꼬리존	-16907
▁꾀룩스	-16908
▁끝난거	-16909
▁끝날듯	-16910
▁나라는	-16911
▁나란히	-16912
▁나오나	-16913
▁나올거	-16914
▁나와도	-16915
▁나은듯	-16916
▁나이트	-16917
▁나훈아	-16918
▁남자는	-16919
▁낫네요	-16920
▁내가볼	-16921
▁내구성	-16922
▁내려갈	-16923
▁내루미	-16924
▁내야수	-16925
▁너드가	-16926
▁넣어라	-16927
▁노가다	-16928
▁노리고	-16929
▁노스윙	-16930
▁노이어	-16931
▁노히터	-16932
▁놀라신	-16933
▁누워서	-16934
▁눈감고	-16935
▁눈돌아	-16936
▁눈물이	-16937
▁늑무국	-16938
▁능력은	-16939
▁니그로	-16940
▁다낚아	-16941
▁다르죠	-16942
▁다르지	-16943
▁다시는	-16944
▁다음날	-16945
▁다이빙	-16946
▁다행인	-16947
▁다행히	-16948
▁달라진	-16949
▁담배는	-16950
▁담시즌	-16951
▁답네요	-16952
▁당연한	-16953
▁대성공	-16954
▁대수비	-16955
▁대신에	-16956
▁대은신	-16957
▁대참사	-16958
▁대학생	-16959
▁댈무국	-16960
▁던져라	-16961
▁던지게	-16962
▁돈고충	-16963
▁돈주고	-16964
▁돌리기	-16965
▁돌아올	-16966
▁돌아옴	-16967
▁동원신	-16968
▁되네요	-16969
▁되는듯	-16970
▁된다고	-16971
▁두들겨	-16972
▁뒤졌네	-16973
▁듀중이	-16974
▁드너신	-16975
▁드라기	-16976
▁들어감	-16977
▁디비젼	-16978
▁디시전	-16979
▁디자인	-16980
▁딸딸이	-16981
▁딸레기	-16982
▁때까지	-16983
▁떠먹여	-16984
▁떡블락	-16985
▁떨공에	-16986
▁똥부는	-16987
▁뛰어도	-16988
▁뜨거워	-16989
▁라이브	-16990
▁라팍런	-16991
▁러셀이	-16992
▁렉마일	-16993
▁렌프로	-16994
▁로드맨	-16995
▁론도는	-16996
▁론조는	-16997
▁류용근	-16998
▁르브롱	-16999
▁릅갈톰	-17000
▁릅까들	-17001
▁릅버지	-17002
▁릅탄처	-17003
▁리스트	-17004
▁마앰은	-17005
▁마앰이	-17006
▁만든거	-17007
▁많으면	-17008
▁말대로	-17009
▁말도안	-17010
▁맞았다	-17011
▁맥승원	-17012
▁맥투맥	-17013
▁머리가	-17014
▁머하냐	-17015
▁머하는	-17016
▁먹는다	-17017
▁먹을거	-17018
▁먼좆간	-17019
▁멀티힛	-17020
▁멋있다	-17021
▁멋있어	-17022
▁메이져	-17023
▁멜신의	-17024
▁몇개냐	-17025
▁몇개째	-17026
▁모두의	-17027
▁모든게	-17028
▁모르네	-17029
▁모음집	-17030
▁모자에	-17031
▁모튼이	-17032
▁목화밭	-17033
▁몰라서	-17034
▁몰랐음	-17035
▁못나온	-17036
▁못먹는	-17037
▁못생겼	-17038
▁못했음	-17039
▁무고한	-17040
▁무관심	-17041
▁무섭긴	-17042
▁무의미	-17043
▁문상철	-17044
▁문승원	-17045
▁문학상	-17046
▁미네가	-17047
▁미쳤누	-17048
▁미친다	-17049
▁밀어서	-17050
▁바꾸고	-17051
▁바꾸자	-17052
▁박민우	-17053
▁받는거	-17054
▁받는게	-17055
▁받는다	-17056
▁발롱임	-17057
▁밝혀진	-17058
▁밥먹고	-17059
▁방금전	-17060
▁방탄은	-17061
▁방화범	-17062
▁백호군	-17063
▁버디버	-17064
▁벌렌더	-17065
▁베추신	-17066
▁별론데	-17067
▁병디에	-17068
▁병신년	-17069
▁병신턴	-17070
▁보겠네	-17071
▁보트의	-17072
▁본인은	-17073
▁볼이야	-17074
▁봤으면	-17075
▁부상만	-17076
▁부상은	-17077
▁불펜은	-17078
▁붉청도	-17079
▁뷸찬빈	-17080
▁브라이	-17081
▁블로거	-17082
▁비교가	-17083
▁비비고	-17084
▁비비냐	-17085
▁비정규	-17086
▁비행기	-17087
▁빠는게	-17088
▁빠따가	-17089
▁빠따로	-17090
▁빡세게	-17091
▁빻다미	-17092
▁빼라고	-17093
▁사는데	-17094
▁사랑니	-17095
▁사이버	-17096
▁사인훔	-17097
▁사줘도	-17098
▁사진이	-17099
▁사회인	-17100
▁상삼신	-17101
▁상위픽	-17102
▁상태가	-17103
▁새리핀	-17104
▁새크는	-17105
▁새키들	-17106
▁샌즈신	-17107
▁생각은	-17108
▁생긴건	-17109
▁선발들	-17110
▁선발임	-17111
▁선빈신	-17112
▁선수로	-17113
▁선수빨	-17114
▁선수중	-17115
▁설명좀	-17116
▁세인트	-17117
▁센세가	-17118
▁소리가	-17119
▁소방관	-17120
▁손흥좆	-17121
▁수비잘	-17122
▁수호신	-17123
▁순페신	-17124
▁쉴드칠	-17125
▁스넬이	-17126
▁스찌를	-17127
▁승부수	-17128
▁승부처	-17129
▁승우는	-17130
▁시간대	-17131
▁시한부	-17132
▁신나게	-17133
▁실력만	-17134
▁실화임	-17135
▁심각한	-17136
▁심수창	-17137
▁십련아	-17138
▁싸우면	-17139
▁씨발분	-17140
▁씹둥이	-17141
▁씹리튼	-17142
▁씹병신	-17143
▁씹사기	-17144
▁아까운	-17145
▁아깝다	-17146
▁아닌게	-17147
▁아리자	-17148
▁아무짝	-17149
▁아직은	-17150
▁아처를	-17151
▁악물고	-17152
▁악플이	-17153
▁안궁금	-17154
▁안나네	-17155
▁안나는	-17156
▁안내려	-17157
▁안보냐	-17158
▁안빼냐	-17159
▁안쓰는	-17160
▁안올라	-17161
▁안타를	-17162
▁안하노	-17163
▁않겠냐	-17164
▁알버트	-17165
▁앗차거	-17166
▁애니는	-17167
▁야구단	-17168
▁야구의	-17169
▁약릿콜	-17170
▁양아치	-17171
▁양창섭	-17172
▁어느새	-17173
▁어느팀	-17174
▁어디에	-17175
▁어딨냐	-17176
▁어딨음	-17177
▁어림도	-17178
▁어이가	-17179
▁억울한	-17180
▁언젠가	-17181
▁얼굴로	-17182
▁얼굴만	-17183
▁얼굴에	-17184
▁얼마받	-17185
▁없던데	-17186
▁에드워	-17187
▁에반데	-17188
▁에인절	-17189
▁엠비피	-17190
▁여고생	-17191
▁여기도	-17192
▁여자에	-17193
▁역사를	-17194
▁역사에	-17195
▁역시나	-17196
▁염경업	-17197
▁영혼이	-17198
▁예비군	-17199
▁예전엔	-17200
▁오는데	-17201
▁오늘로	-17202
▁오라고	-17203
▁오펜스	-17204
▁올라간	-17205
▁올라감	-17206
▁올라와	-17207
▁올려줘	-17208
▁용규신	-17209
▁우승권	-17210
▁우울은	-17211
▁우익수	-17212
▁우주의	-17213
▁우타자	-17214
▁울릉도	-17215
▁울애미	-17216
▁원기옥	-17217
▁원준신	-17218
▁월시도	-17219
▁위닝님	-17220
▁위협적	-17221
▁윈스턴	-17222
▁유연성	-17223
▁유인구	-17224
▁유인원	-17225
▁유전자	-17226
▁유희관	-17227
▁음해죠	-17228
▁응원함	-17229
▁의미없	-17230
▁이거는	-17231
▁이기네	-17232
▁이긴게	-17233
▁이러고	-17234
▁이러는	-17235
▁이런건	-17236
▁이번이	-17237
▁이분을	-17238
▁이쁘다	-17239
▁이상규	-17240
▁이재성	-17241
▁이적료	-17242
▁인생은	-17243
▁일부로	-17244
▁일어났	-17245
▁잇는데	-17246
▁있구나	-17247
▁있자나	-17248
▁자신의	-17249
▁자체는	-17250
▁자체를	-17251
▁작년엔	-17252
▁작년이	-17253
▁잘봐라	-17254
▁잘하나	-17255
▁잘해주	-17256
▁잘했네	-17257
▁잡는거	-17258
▁잡는다	-17259
▁잡아먹	-17260
▁장전중	-17261
▁장지현	-17262
▁재밌다	-17263
▁재밌을	-17264
▁저기에	-17265
▁저딴걸	-17266
▁저미가	-17267
▁전까지	-17268
▁전설의	-17269
▁전술이	-17270
▁전여친	-17271
▁정도가	-17272
▁정성룡	-17273
▁정수민	-17274
▁정의는	-17275
▁정호신	-17276
▁젠슨상	-17277
▁젠슨은	-17278
▁조던도	-17279
▁조선에	-17280
▁조지고	-17281
▁조지힐	-17282
▁조편성	-17283
▁졸살만	-17284
▁졸타니	-17285
▁좆골스	-17286
▁좆근우	-17287
▁좆된거	-17288
▁좆본도	-17289
▁좆사기	-17290
▁좆수스	-17291
▁좆워드	-17292
▁좆지배	-17293
▁좆틀러	-17294
▁좋겠네	-17295
▁좋나요	-17296
▁좋아요	-17297
▁주인은	-17298
▁죽인다	-17299
▁준희옹	-17300
▁줘야지	-17301
▁쥐카우	-17302
▁즐라탄	-17303
▁즙비드	-17304
▁즙태신	-17305
▁지겠다	-17306
▁지금의	-17307
▁지금쯤	-17308
▁지렸다	-17309
▁지르고	-17310
▁지리노	-17311
▁지리는	-17312
▁지현신	-17313
▁직선타	-17314
▁질문좀	-17315
▁짭영권	-17316
▁차갑다	-17317
▁차범근	-17318
▁차세대	-17319
▁찬규신	-17320
▁찬호벨	-17321
▁찾았다	-17322
▁채식이	-17323
▁첫번째	-17324
▁청문회	-17325
▁체감상	-17326
▁체력은	-17327
▁체프먼	-17328
▁최강의	-17329
▁최강팀	-17330
▁최고로	-17331
▁최고죠	-17332
▁최상급	-17333
▁최재훈	-17334
▁추한게	-17335
▁축구도	-17336
▁축구에	-17337
▁축구의	-17338
▁축구판	-17339
▁축협이	-17340
▁취한다	-17341
▁치는걸	-17342
▁치는데	-17343
▁치라고	-17344
▁카르텔	-17345
▁카메룬	-17346
▁카카오	-17347
▁커느님	-17348
▁커리랑	-17349
▁커리맘	-17350
▁컨파도	-17351
▁켰는데	-17352
▁코끼리	-17353
▁코너킥	-17354
▁코비랑	-17355
▁코스트	-17356
▁쿠어스	-17357
▁쿠팩스	-17358
▁클린업	-17359
▁키쿠치	-17360
▁킹몬스	-17361
▁킹짱남	-17362
▁타격감	-17363
▁타나카	-17364
▁타선도	-17365
▁타자로	-17366
▁타찬빈	-17367
▁타티주	-17368
▁태어난	-17369
▁태칰볼	-17370
▁택진신	-17371
▁터커신	-17372
▁테스트	-17373
▁텐프로	-17374
▁템파는	-17375
▁튀기가	-17376
▁특이한	-17377
▁티아고	-17378
▁팀던컨	-17379
▁파울팁	-17380
▁파워툴	-17381
▁파출부	-17382
▁팔아먹	-17383
▁팝니다	-17384
▁팩무리	-17385
▁팩어율	-17386
▁팩이돌	-17387
▁팩트는	-17388
▁팩트임	-17389
▁팬덤이	-17390
▁페널티	-17391
▁펭수신	-17392
▁포나쟝	-17393
▁포디움	-17394
▁포오오	-17395
▁포틀이	-17396
▁폭탄은	-17397
▁폴자지	-17398
▁풀타입	-17399
▁플러스	-17400
▁플옵때	-17401
▁피홈런	-17402
▁필요함	-17403
▁하고도	-17404
▁하나의	-17405
▁하락세	-17406
▁하루가	-17407
▁하여간	-17408
▁하위국	-17409
▁하위를	-17410
▁한가요	-17411
▁한국을	-17412
▁한맥두	-17413
▁한명은	-17414
▁한복판	-17415
▁할수있	-17416
▁할텐데	-17417
▁합시다	-17418
▁합치면	-17419
▁해버지	-17420
▁해설들	-17421
▁해야됨	-17422
▁해줘라	-17423
▁했나요	-17424
▁현실은	-17425
▁형페즈	-17426
▁혜화랑	-17427
▁호동생	-17428
▁혼신의	-17429
▁홈런의	-17430
▁홍어노	-17431
▁홍어랑	-17432
▁확률은	-17433
▁활약이	-17434
▁후반전	-17435
▁흑묘쿤	-17436
▁흑우들	-17437
▁흡연율	-17438
▁흥궈가	-17439
▁흥궈는	-17440
▁힘리먼	-17441
▁힘틀도	-17442
감독으로	-17443
같지않냐	-17444
고있는거	-17445
고있으면	-17446
급이네요	-17447
나이트님	-17448
년생이냐	-17449
는거보고	-17450
당했네요	-17451
대스포츠	-17452
래스나우	-17453
비네이션	-17454
새끼ᄏᄏ	-17455
선수들이	-17456
수있는데	-17457
수준이네	-17458
스러운데	-17459
시절에도	-17460
실점하고	-17461
아니었냐	-17462
아아이이	-17463
없습니까	-17464
오는거냐	-17465
올라오네	-17466
옵션으로	-17467
을때까지	-17468
이라면서	-17469
이새끼들	-17470
이었는지	-17471
인거같음	-17472
입장에서	-17473
있었는데	-17474
잉글랜드	-17475
자이언츠	-17476
지않을지	-17477
쳤습니다	-17478
클리퍼스	-17479
트으으나	-17480
프로야구	-17481
플레이어	-17482
하겟네요	-17483
하는건가	-17484
하는애들	-17485
하드캐리	-17486
할거같은	-17487
해야한다	-17488
mania	-17489
power	-17490
▁2011	-17491
▁7172	-17492
▁Fact	-17493
▁leet	-17494
▁ᄌᄉᄇ인	-17495
▁가능성도	-17496
▁가능하긴	-17497
▁가능한가	-17498
▁가능할지	-17499
▁가봤는데	-17500
▁가비지로	-17501
▁각이네요	-17502
▁갈리날리	-17503
▁감독이면	-17504
▁개병신들	-17505
▁개병신팀	-17506
▁개상수가	-17507
▁개센징들	-17508
▁개잘한다	-17509
▁개쩌네요	-17510
▁갠적으로	-17511
▁거리는데	-17512
▁거지한테	-17513
▁걸어간다	-17514
▁게오르그	-17515
▁결승가면	-17516
▁경기결과	-17517
▁경기력이	-17518
▁경기보고	-17519
▁계약기간	-17520
▁고랄신은	-17521
▁고평가받	-17522
▁공굴무일	-17523
▁공수교대	-17524
▁관련해서	-17525
▁구단주가	-17526
▁구장에서	-17527
▁구토들이	-17528
▁국가대표	-17529
▁국뽕들은	-17530
▁권한대행	-17531
▁그런거지	-17532
▁그리즈만	-17533
▁그리핀이	-17534
▁기대치가	-17535
▁기억나는	-17536
▁김광현은	-17537
▁꼬꼬노들	-17538
▁꼴리네요	-17539
▁나오겠네	-17540
▁나올까요	-17541
▁나올텐데	-17542
▁나이많은	-17543
▁날아다니	-17544
▁내년까지	-17545
▁내년시즌	-17546
▁너무한데	-17547
▁넣었는데	-17548
▁노잼인데	-17549
▁누적연봉	-17550
▁뉴욕닉스	-17551
▁느리네요	-17552
▁다나카의	-17553
▁다루쿤은	-17554
▁다시보니	-17555
▁다시한번	-17556
▁다저스에	-17557
▁단일시즌	-17558
▁당연하죠	-17559
▁대부분이	-17560
▁던지는데	-17561
▁데려와도	-17562
▁데려와라	-17563
▁데헤아가	-17564
▁도루성공	-17565
▁독보지의	-17566
▁돌아오냐	-17567
▁돌아와서	-17568
▁동농에서	-17569
▁되는거냐	-17570
▁들어가는	-17571
▁들어오면	-17572
▁디스테파	-17573
▁따라하는	-17574
▁똥양인이	-17575
▁뛰어넘은	-17576
▁레전드가	-17577
▁롱고리아	-17578
▁루카쿠는	-17579
▁릅멜대전	-17580
▁리메이크	-17581
▁리플레이	-17582
▁마무리는	-17583
▁마무리로	-17584
▁마사히로	-17585
▁마일스톤	-17586
▁마차도는	-17587
▁만났으면	-17588
▁만들어낸	-17589
▁만들어야	-17590
▁망천이랑	-17591
▁먹었는데	-17592
▁메도우즈	-17593
▁모어랜드	-17594
▁못잡으면	-17595
▁못치네요	-17596
▁못하나요	-17597
▁못하니까	-17598
▁못한거냐	-17599
▁무너지네	-17600
▁무만무득	-17601
▁무서운데	-17602
▁미래에서	-17603
▁미리보는	-17604
▁미주리산	-17605
▁민간인은	-17606
▁민상킨스	-17607
▁바우어가	-17608
▁박지성이	-17609
▁반박불가	-17610
▁반투명이	-17611
▁반흑대전	-17612
▁방송에서	-17613
▁방투방을	-17614
▁백승호는	-17615
▁버럭맘들	-17616
▁버틀러는	-17617
▁베르통권	-17618
▁벨기에인	-17619
▁벨좆간은	-17620
▁병디사망	-17621
▁병신이다	-17622
▁병신이지	-17623
▁병신인게	-17624
▁보고싶은	-17625
▁보나마나	-17626
▁보다보면	-17627
▁보스턴은	-17628
▁보지심판	-17629
▁복귀하고	-17630
▁복귀하냐	-17631
▁부상복귀	-17632
▁불을뿜는	-17633
▁블레이크	-17634
▁비겁하게	-17635
▁비비는건	-17636
▁비엘리챠	-17637
▁빠지니까	-17638
▁빡대가리	-17639
▁뽀록으로	-17640
▁사람인데	-17641
▁산체스가	-17642
▁살다살다	-17643
▁샌디에고	-17644
▁서고동저	-17645
▁설문조사	-17646
▁세얼간이	-17647
▁솔직하게	-17648
▁수비허벌	-17649
▁숨참는다	-17650
▁스몰마켓	-17651
▁스웨덴은	-17652
▁스찌수비	-17653
▁스찌투런	-17654
▁스찌홈런	-17655
▁스페인전	-17656
▁스프린트	-17657
▁시리즈는	-17658
▁시몬스는	-17659
▁시발년들	-17660
▁시발련이	-17661
▁시카고는	-17662
▁식당볼이	-17663
▁신라호텔	-17664
▁신태용이	-17665
▁심각하네	-17666
▁싶었는데	-17667
▁씨발놈이	-17668
▁아까운데	-17669
▁아샨게임	-17670
▁아이러니	-17671
▁안나온다	-17672
▁안던지네	-17673
▁안하는거	-17674
▁알았네요	-17675
▁애미뒤짐	-17676
▁애미애비	-17677
▁앰창새끼	-17678
▁야투율이	-17679
▁양키스도	-17680
▁양키스를	-17681
▁어디갔노	-17682
▁어리버리	-17683
▁어저미들	-17684
▁언론에서	-17685
▁엠흑새끼	-17686
▁여자들은	-17687
▁여자한테	-17688
▁여친이랑	-17689
▁역대최고	-17690
▁연속으로	-17691
▁연속홈런	-17692
▁연예인이	-17693
▁연장가면	-17694
▁영혼까지	-17695
▁예쁘네요	-17696
▁오늘처럼	-17697
▁오프너로	-17698
▁오프너를	-17699
▁오프시즌	-17700
▁올라와도	-17701
▁올라주원	-17702
▁올스타전	-17703
▁올시즌은	-17704
▁왁저미가	-17705
▁완벽하게	-17706
▁왔다갔다	-17707
▁왕택신은	-17708
▁왜이러냐	-17709
▁요시노부	-17710
▁우당탕탕	-17711
▁우승이다	-17712
▁우승하든	-17713
▁우승할듯	-17714
▁우승확률	-17715
▁웃기던데	-17716
▁워리어스	-17717
▁워싱턴은	-17718
▁유격수는	-17719
▁유럽에서	-17720
▁이러는거	-17721
▁이런것도	-17722
▁이번대회	-17723
▁이쁘네요	-17724
▁이시간에	-17725
▁인정한다	-17726
▁인지도가	-17727
▁일본야구	-17728
▁있었나요	-17729
▁자강두천	-17730
▁작년보다	-17731
▁작년부터	-17732
▁잘나가네	-17733
▁잘생기고	-17734
▁잘하는듯	-17735
▁잘하니까	-17736
▁잘했나요	-17737
▁잡았네요	-17738
▁잡았으면	-17739
▁재롱잔치	-17740
▁재미없네	-17741
▁재미없음	-17742
▁저따위로	-17743
▁저럴거면	-17744
▁저정도로	-17745
▁정상적인	-17746
▁정신못차	-17747
▁정신병걸	-17748
▁정신승리	-17749
▁조따리도	-17750
▁조리돌림	-17751
▁조별리그	-17752
▁존나웃김	-17753
▁존나잘함	-17754
▁졸칸타라	-17755
▁좆간지네	-17756
▁좆매기가	-17757
▁좆무위키	-17758
▁좆빠지게	-17759
▁좆치무라	-17760
▁좋아하고	-17761
▁주자살인	-17762
▁중계연습	-17763
▁중심으로	-17764
▁중요하지	-17765
▁중요한게	-17766
▁중일신이	-17767
▁지금처럼	-17768
▁지랄이야	-17769
▁지랄하는	-17770
▁지랄하면	-17771
▁지리는데	-17772
▁지지한다	-17773
▁진짜무토	-17774
▁짱깨리그	-17775
▁쪽바리들	-17776
▁쪽팔려서	-17777
▁찍찍노는	-17778
▁차원에서	-17779
▁채프먼이	-17780
▁챔스우승	-17781
▁초구사망	-17782
▁최전성기	-17783
▁추가시간	-17784
▁축알못들	-17785
▁친구끼리	-17786
▁카루소랑	-17787
▁커리어에	-17788
▁커퀴들은	-17789
▁코레아는	-17790
▁킹매기는	-17791
▁타운스가	-17792
▁타자들이	-17793
▁택진이형	-17794
▁터지네요	-17795
▁투수운용	-17796
▁팀인가요	-17797
▁파이어볼	-17798
▁패귀네요	-17799
▁편인가요	-17800
▁평정하고	-17801
▁포기하고	-17802
▁포머란츠	-17803
▁포시에선	-17804
▁폭삼ᄏᄏ	-17805
▁폴조지는	-17806
▁프랑스는	-17807
▁프로데뷔	-17808
▁피자스쿨	-17809
▁피지컬은	-17810
▁피해의식	-17811
▁필요하지	-17812
▁하는것도	-17813
▁하든한테	-17814
▁하성신이	-17815
▁하프코트	-17816
▁한국인은	-17817
▁한국축구	-17818
▁한이닝에	-17819
▁한일합방	-17820
▁한준희가	-17821
▁할카스가	-17822
▁해외에서	-17823
▁해주세요	-17824
▁해트트릭	-17825
▁했었는데	-17826
▁허수아비	-17827
▁헤리케인	-17828
▁호수비에	-17829
▁호스머가	-17830
▁황드릭스	-17831
▁황족우승	-17832
▁흥민이가	-17833
▁흥좆이는	-17834
것같지않냐	-17835
노ᄏᄏᄏᄏ	-17836
시발ᄏᄏᄏ	-17837
이었을텐데	-17838
일거같은데	-17839
입장에서는	-17840
중ᄏᄏᄏᄏ	-17841
지않았나요	-17842
포트나이트	-17843
하긴하네요	-17844
하는거보소	-17845
하는겁니까	-17846
하는새끼들	-17847
해야하는데	-17848
diedie	-17849
~~~~~~	-17850
ᄋᄀᄀᄋᄂᄋ	-17851
▁93-94	-17852
▁ᄋᄉᄀᄀᄃ	-17853
▁ᄌᄂ웃기네	-17854
▁갈매기보다	-17855
▁갈통더웨이	-17856
▁감독대행이	-17857
▁개병신새끼	-17858
▁개야갤놈들	-17859
▁그립읍니다	-17860
▁끝인가보오	-17861
▁나가토모가	-17862
▁나오겠네요	-17863
▁뉴욕양키스	-17864
▁대단하다고	-17865
▁더블클러치	-17866
▁덕아웃에서	-17867
▁떨어지네요	-17868
▁라커룸에서	-17869
▁루카쿠한테	-17870
▁르브론이랑	-17871
▁마지막까지	-17872
▁만들어야죠	-17873
▁매력있어요	-17874
▁멕시코한테	-17875
▁모드리치는	-17876
▁못생겼네요	-17877
▁무발기사정	-17878
▁미친놈들아	-17879
▁미친새끼는	-17880
▁바디페인팅	-17881
▁발렌시아가	-17882
▁벨기에한테	-17883
▁병신새끼야	-17884
▁분데스리가	-17885
▁비호감인데	-17886
▁사람새끼냐	-17887
▁사람이름이	-17888
▁스찌새끼들	-17889
▁스찌였네요	-17890
▁스플리터는	-17891
▁시발년들아	-17892
▁시발련들아	-17893
▁씹새끼들아	-17894
▁씹왁노들이	-17895
▁아시아에서	-17896
▁안녕하세요	-17897
▁야구선수들	-17898
▁어디인가요	-17899
▁어림도없는	-17900
▁업그레이드	-17901
▁역대최고의	-17902
▁올라왔네요	-17903
▁우승시키면	-17904
▁우울리언스	-17905
▁월드컵우승	-17906
▁유리아스는	-17907
▁응원합시다	-17908
▁이런새끼들	-17909
▁이렇게된거	-17910
▁이번시즌에	-17911
▁인간적으로	-17912
▁임대아파트	-17913
▁입갤ᄏᄏᄏ	-17914
▁잉글랜드는	-17915
▁자연스러운	-17916
▁잘던지네요	-17917
▁잘생겼네요	-17918
▁잡아야한다	-17919
▁재난지원존	-17920
▁재밌겠네요	-17921
▁전세계에서	-17922
▁정대마이어	-17923
▁존나이쁘노	-17924
▁졸로넨워스	-17925
▁좋겠습니다	-17926
▁좋아하는거	-17927
▁주인님이다	-17928
▁죽이고싶네	-17929
▁카라스코는	-17930
▁클레빈저가	-17931
▁탠튼신이면	-17932
▁팩넷ᄏᄏᄏ	-17933
▁팩짜사나이	-17934
▁포인트가드	-17935
▁하는거보니	-17936
▁하위에서도	-17937
▁하일라이트	-17938
▁하지마세요	-17939
▁하프타티스	-17940
▁황로자레나	-17941
넼ᄏᄏᄏᄏᄏ	-17942
이트트트트트	-17943
인줄알았는데	-17944
죽어죽어죽어	-17945
▁개야갤러들아	-17946
▁개야갤러들은	-17947
▁골든스테이트	-17948
▁다이너마이트	-17949
▁롯데자이언츠	-17950
▁미친새끼들아	-17951
▁밀리터리버거	-17952
▁사무라이블루	-17953
▁시작하자마자	-17954
▁우승하겠네요	-17955
▁인기많으실듯	-17956
▁키어마이어가	-17957
▁태호감이네요	-17958
▁175.223	-17959
▁ᄉᄇᄏᄏᄏᄏᄏ	-17960
▁사망ᄏᄏᄏᄏᄏ	-17961
▁포오오트으으나	-17962
▁현무타ᄏᄏᄏᄏ	-17963
사랑해요사랑해요	-17964
>>>>>>>>>	-17965
▁ᄋᄀᄋᄀᄀᄋᄂᄋ	-17966
▁ᅮᅮᅮᅮᅮᅮᅮᅮ	-17967
??????????	-17968
▁미ᅳᅳᅳᅳᅳᅳᅳᅳ	-17969
▁엌ᄏᄏᄏᄏᄏᄏᄏᄏ	-17970
아아이이이트트트트트	-17971
▁씨발ᄏᄏᄏᄏᄏᄏᄏᄏ	-17972
심은하황수정신라호텔ᄀ	-17973
심은하황수정신라호텔ᄑ	-17974
ᅲᅲᅲᅲᅲᅲᅲᅲᅲᅲᅲᅲᅲᅲ	-17975
고은이승연심은하황수정신라호텔	-17976
심은하황수정신라호텔섹스머신ᄂ	-17977
ᄃᄃᄃᄃᄃᄃᄃᄃᄃᄃᄃᄃᄃᄃᄃᄃ	-17978
,4	-17979
,5	-17980
//	-17981
/3	-17982
02	-17983
22	-17984
32	-17985
71	-17986
BD	-17987
IE	-17988
OJ	-17989
OT	-17990
OY	-17991
PN	-17992
aa	-17993
ap	-17994
et	-17995
ho	-17996
la	-17997
me	-17998
oM	-17999
ue	-18000
ᄂᄉ	-18001
ᄂ아	-18002
ᄇᄀ	-18003
ᄑᄉ	-18004
ᅣᅣ	-18005
▁#	-18006
▁I	-18007
▁ᄎ	-18008
▁《	-18009
▁겟	-18010
▁꿰	-18011
▁낀	-18012
▁납	-18013
▁놉	-18014
▁땄	-18015
▁땐	-18016
▁떄	-18017
▁뱉	-18018
▁빳	-18019
▁빽	-18020
▁뽐	-18021
▁샴	-18022
▁쇠	-18023
▁쇳	-18024
▁슼	-18025
▁썻	-18026
▁쐐	-18027
▁얕	-18028
▁얭	-18029
▁얹	-18030
▁엮	-18031
▁엿	-18032
▁왈	-18033
▁왓	-18034
▁잤	-18035
▁잦	-18036
▁잽	-18037
▁줌	-18038
▁줜	-18039
▁쫙	-18040
▁촐	-18041
▁쾅	-18042
▁큽	-18043
▁텄	-18044
▁퉁	-18045
▁틱	-18046
▁획	-18047
▁횽	-18048
▁훠	-18049
▁흡	-18050
▁힛	-18051
가게	-18052
가년	-18053
가동	-18054
가죠	-18055
간듯	-18056
갈아	-18057
감성	-18058
감자	-18059
갓네	-18060
강민	-18061
개면	-18062
개임	-18063
갤에	-18064
거의	-18065
거킹	-18066
건드	-18067
격수	-18068
겻네	-18069
경민	-18070
고의	-18071
공장	-18072
관심	-18073
관이	-18074
교공	-18075
구걸	-18076
구자	-18077
국의	-18078
권에	-18079
귀브	-18080
그제	-18081
근돼	-18082
글리	-18083
글이	-18084
금액	-18085
금지	-18086
급도	-18087
급식	-18088
기념	-18089
기능	-18090
기물	-18091
기술	-18092
기의	-18093
기주	-18094
기차	-18095
길동	-18096
김밥	-18097
까기	-18098
꼬라	-18099
꼬박	-18100
꼰대	-18101
꾸꾸	-18102
끼면	-18103
나보	-18104
날듯	-18105
날뻔	-18106
날이	-18107
내로	-18108
내림	-18109
너스	-18110
넘는	-18111
넘사	-18112
네가	-18113
네여	-18114
녀들	-18115
년엔	-18116
년중	-18117
년후	-18118
노런	-18119
노빌	-18120
놈임	-18121
놓곤	-18122
놔도	-18123
누이	-18124
니컬	-18125
다닌	-18126
다님	-18127
다르	-18128
단다	-18129
단은	-18130
단타	-18131
달리	-18132
달림	-18133
담은	-18134
당에	-18135
대다	-18136
대라	-18137
대서	-18138
대호	-18139
댈뻔	-18140
더가	-18141
덕주	-18142
던분	-18143
던질	-18144
던짐	-18145
데르	-18146
도덕	-18147
도움	-18148
도핑	-18149
독립	-18150
동욱	-18151
동점	-18152
된건	-18153
된듯	-18154
될지	-18155
두룩	-18156
뒤집	-18157
드랑	-18158
드랩	-18159
드러	-18160
득은	-18161
든가	-18162
든다	-18163
들로	-18164
등장	-18165
디신	-18166
따서	-18167
땅볼	-18168
땅크	-18169
때메	-18170
라베	-18171
란거	-18172
란게	-18173
래곤	-18174
량이	-18175
러워	-18176
럼들	-18177
레드	-18178
렉센	-18179
렌드	-18180
려먹	-18181
력의	-18182
렸던	-18183
령은	-18184
로먼	-18185
로잉	-18186
롭지	-18187
루나	-18188
르기	-18189
르노	-18190
르르	-18191
리차	-18192
릴게	-18193
마고	-18194
말까	-18195
맞은	-18196
매가	-18197
매수	-18198
매직	-18199
메요	-18200
명만	-18201
명은	-18202
명임	-18203
모아	-18204
모음	-18205
무게	-18206
무성	-18207
문자	-18208
물어	-18209
뭐함	-18210
뮌헨	-18211
미네	-18212
미노	-18213
미면	-18214
미에	-18215
바가	-18216
바른	-18217
바름	-18218
바엔	-18219
반에	-18220
반즈	-18221
받지	-18222
발로	-18223
발언	-18224
방금	-18225
방에	-18226
방지	-18227
배신	-18228
버튼	-18229
번도	-18230
별명	-18231
보신	-18232
보아	-18233
보유	-18234
복무	-18235
본데	-18236
볼까	-18237
볼을	-18238
봣다	-18239
부러	-18240
부에	-18241
분남	-18242
붉청	-18243
뷸러	-18244
브렌	-18245
블럭	-18246
비율	-18247
빅맨	-18248
빙신	-18249
빠네	-18250
빨갱	-18251
빨아	-18252
뽕이	-18253
사도	-18254
사돌	-18255
사들	-18256
사면	-18257
사살	-18258
살이	-18259
생김	-18260
샨신	-18261
서버	-18262
석은	-18263
선신	-18264
설렁	-18265
설명	-18266
성욱	-18267
세이	-18268
센조	-18269
소담	-18270
속타	-18271
손해	-18272
송이	-18273
수성	-18274
수지	-18275
순신	-18276
슈타	-18277
스톱	-18278
스틱	-18279
슨아	-18280
슨은	-18281
승이	-18282
시를	-18283
시청	-18284
신다	-18285
신을	-18286
신임	-18287
실버	-18288
실한	-18289
싼다	-18290
쌔끼	-18291
쓰지	-18292
쓴다	-18293
쓸모	-18294
쓸이	-18295
씹년	-18296
안될	-18297
안먹	-18298
안줌	-18299
알지	-18300
앗노	-18301
애런	-18302
애자	-18303
양요	-18304
어깨	-18305
어드	-18306
어떤	-18307
어떰	-18308
어본	-18309
어빠	-18310
어억	-18311
어쩌	-18312
어케	-18313
업음	-18314
엇나	-18315
었어	-18316
에라	-18317
에파	-18318
엠창	-18319
역대	-18320
연고	-18321
열이	-18322
영향	-18323
오급	-18324
오클	-18325
올까	-18326
올렸	-18327
와중	-18328
완용	-18329
왕조	-18330
외야	-18331
욕심	-18332
용덕	-18333
우찬	-18334
우회	-18335
우후	-18336
운운	-18337
웠네	-18338
웠음	-18339
위랑	-18340
위의	-18341
윈데	-18342
유로	-18343
유수	-18344
유식	-18345
유증	-18346
유학	-18347
윤구	-18348
으시	-18349
은성	-18350
은줄	-18351
을게	-18352
을못	-18353
의혹	-18354
이건	-18355
이에	-18356
이온	-18357
이해	-18358
인싸	-18359
일기	-18360
일뿐	-18361
자루	-18362
자와	-18363
장소	-18364
장의	-18365
재성	-18366
재학	-18367
저우	-18368
전때	-18369
전반	-18370
전향	-18371
점퍼	-18372
제는	-18373
제비	-18374
제외	-18375
제이	-18376
졌어	-18377
졌죠	-18378
좀요	-18379
종신	-18380
좋고	-18381
주마	-18382
주소	-18383
주실	-18384
주얼	-18385
줄까	-18386
줄듯	-18387
줬다	-18388
지긴	-18389
지나	-18390
지몬	-18391
지진	-18392
지터	-18393
직행	-18394
진을	-18395
진호	-18396
집에	-18397
집트	-18398
찍히	-18399
차게	-18400
창민	-18401
창신	-18402
청룡	-18403
체력	-18404
초룰	-18405
출산	-18406
충연	-18407
치곤	-18408
치던	-18409
치도	-18410
치에	-18411
칼럼	-18412
캐넌	-18413
커서	-18414
컨택	-18415
컨파	-18416
케빈	-18417
코네	-18418
코는	-18419
코버	-18420
콤은	-18421
쿼는	-18422
클블	-18423
키가	-18424
키드	-18425
타닉	-18426
타운	-18427
타지	-18428
탄거	-18429
택진	-18430
터짐	-18431
털링	-18432
테가	-18433
테는	-18434
텐딩	-18435
토스	-18436
토토	-18437
통수	-18438
투어	-18439
툴은	-18440
트셤	-18441
트윗	-18442
트키	-18443
티쉬	-18444
파가	-18445
파는	-18446
파드	-18447
파이	-18448
판파	-18449
패냐	-18450
패드	-18451
팩질	-18452
팬도	-18453
편파	-18454
포나	-18455
풀이	-18456
프리	-18457
피면	-18458
피트	-18459
하도	-18460
하실	-18461
하심	-18462
하에	-18463
한분	-18464
할건	-18465
할라	-18466
합류	-18467
햇냐	-18468
했대	-18469
행복	-18470
행을	-18471
행이	-18472
헤란	-18473
현은	-18474
현준	-18475
혔네	-18476
형도	-18477
형신	-18478
화질	-18479
회복	-18480
희동	-18481
히꼬	-18482
히지	-18483
히히	-18484
힘든	-18485
-15	-18486
-16	-18487
-19	-18488
<<<	-18489
SPN	-18490
ank	-18491
ant	-18492
ist	-18493
oat	-18494
otp	-18495
uck	-18496
ver	-18497
yak	-18498
ᄀᄀᄏ	-18499
ᄈᄅᄉ	-18500
ᅥᅮᅣ	-18501
▁--	-18502
▁01	-18503
▁3&	-18504
▁43	-18505
▁47	-18506
▁49	-18507
▁63	-18508
▁65	-18509
▁68	-18510
▁74	-18511
▁AA	-18512
▁KC	-18513
▁NO	-18514
▁ba	-18515
▁dp	-18516
▁ip	-18517
▁is	-18518
▁ru	-18519
▁ᄏᄐ	-18520
▁가공	-18521
▁가든	-18522
▁가벼	-18523
▁가본	-18524
▁가입	-18525
▁각인	-18526
▁각종	-18527
▁간질	-18528
▁갈고	-18529
▁갈까	-18530
▁갈맨	-18531
▁감량	-18532
▁감상	-18533
▁감정	-18534
▁갓대	-18535
▁갖춘	-18536
▁개꼴	-18537
▁개많	-18538
▁개멋	-18539
▁개야	-18540
▁거진	-18541
▁건너	-18542
▁건방	-18543
▁걸레	-18544
▁걸려	-18545
▁걸릴	-18546
▁검은	-18547
▁고대	-18548
▁고무	-18549
▁고속	-18550
▁고인	-18551
▁골드	-18552
▁골로	-18553
▁골반	-18554
▁골은	-18555
▁곳은	-18556
▁공시	-18557
▁관여	-18558
▁교대	-18559
▁교안	-18560
▁구도	-18561
▁굴욕	-18562
▁굵은	-18563
▁규제	-18564
▁규칙	-18565
▁그깟	-18566
▁그새	-18567
▁극장	-18568
▁극찬	-18569
▁근디	-18570
▁글래	-18571
▁글삭	-18572
▁글씨	-18573
▁금발	-18574
▁기간	-18575
▁기타	-18576
▁김주	-18577
▁까네	-18578
▁깔아	-18579
▁깡촌	-18580
▁꼴등	-18581
▁꿀팁	-18582
▁꿈을	-18583
▁끄네	-18584
▁끝낼	-18585
▁끝장	-18586
▁나감	-18587
▁나누	-18588
▁낙연	-18589
▁난민	-18590
▁날에	-18591
▁날은	-18592
▁남긴	-18593
▁남음	-18594
▁낮게	-18595
▁낮고	-18596
▁낮음	-18597
▁내놓	-18598
▁내린	-18599
▁넘고	-18600
▁넘냐	-18601
▁넘쳐	-18602
▁네음	-18603
▁노망	-18604
▁노무	-18605
▁노선	-18606
▁노엘	-18607
▁노카	-18608
▁느리	-18609
▁닌텐	-18610
▁다녔	-18611
▁단기	-18612
▁단단	-18613
▁달고	-18614
▁달달	-18615
▁달릴	-18616
▁담궜	-18617
▁담뱃	-18618
▁당함	-18619
▁대물	-18620
▁대세	-18621
▁대안	-18622
▁더들	-18623
▁더듬	-18624
▁던짐	-18625
▁델고	-18626
▁뎁스	-18627
▁도라	-18628
▁도르	-18629
▁도장	-18630
▁돈걸	-18631
▁돌리	-18632
▁돌문	-18633
▁동참	-18634
▁동창	-18635
▁됐냐	-18636
▁들은	-18637
▁딩요	-18638
▁땅값	-18639
▁떠난	-18640
▁떡대	-18641
▁똥망	-18642
▁똥빤	-18643
▁똥송	-18644
▁뚫어	-18645
▁뛰게	-18646
▁뛰네	-18647
▁뜯어	-18648
▁랄로	-18649
▁랄의	-18650
▁랜디	-18651
▁럼프	-18652
▁로망	-18653
▁로봇	-18654
▁롱릴	-18655
▁루스	-18656
▁루징	-18657
▁릅듀	-18658
▁린은	-18659
▁마감	-18660
▁마주	-18661
▁마찬	-18662
▁막네	-18663
▁많고	-18664
▁많죠	-18665
▁말곤	-18666
▁말라	-18667
▁말랑	-18668
▁말만	-18669
▁말소	-18670
▁말씀	-18671
▁말아	-18672
▁말해	-18673
▁망갤	-18674
▁맞불	-18675
▁맞을	-18676
▁맞춤	-18677
▁머만	-18678
▁머여	-18679
▁머함	-18680
▁먹힐	-18681
▁멈춰	-18682
▁멋진	-18683
▁멕시	-18684
▁명작	-18685
▁몇골	-18686
▁몇구	-18687
▁몇달	-18688
▁몇밀	-18689
▁모즈	-18690
▁몰고	-18691
▁못됨	-18692
▁못들	-18693
▁못만	-18694
▁못침	-18695
▁몽골	-18696
▁무방	-18697
▁무산	-18698
▁물리	-18699
▁물집	-18700
▁뭐뭐	-18701
▁뭐저	-18702
▁미필	-18703
▁민감	-18704
▁민망	-18705
▁민뱅	-18706
▁바나	-18707
▁바랄	-18708
▁바렛	-18709
▁바른	-18710
▁바보	-18711
▁박보	-18712
▁박빙	-18713
▁박았	-18714
▁박자	-18715
▁박종	-18716
▁반성	-18717
▁받으	-18718
▁밟고	-18719
▁밤에	-18720
▁배가	-18721
▁배워	-18722
▁뱅크	-18723
▁버릇	-18724
▁버텼	-18725
▁버프	-18726
▁번호	-18727
▁벌금	-18728
▁법력	-18729
[...]
